<pad>	0
<unk>	0
<s>	0
</s>	0
[MASK]	0
.	-3.01296
,	-4.28076
▁බව	-5.08091
ට	-5.08494
▁ඇති	-5.1074
▁මේ	-5.1131
▁සහ	-5.15638
ක්	-5.19622
▁ඒ	-5.24314
▁	-5.2458
▁කර	-5.24945
▁අතර	-5.31562
▁වන	-5.49465
▁මෙම	-5.51525
▁සඳහා	-5.57737
▁ද	-5.58129
▁කළ	-5.63266
▁එම	-5.68768
▁හා	-5.72558
ය	-5.73499
ද	-5.80599
▁කරන	-5.80661
▁ලෙස	-5.80915
▁ශ්‍රී	-5.84325
ේ	-5.8868
▁වූ	-5.91717
▁මහතා	-5.92445
▁අද	-5.95538
ත්	-5.98179
▁වී	-6.03591
▁තිබේ	-6.05216
ම	-6.07719
ක	-6.07913
▁විසින්	-6.09665
▁සඳහන්	-6.10772
▁කටයුතු	-6.14908
▁කිරීමට	-6.16447
▁දී	-6.17311
▁ඇත	-6.18669
ගේ	-6.19377
▁ඔහු	-6.21415
යි	-6.23388
▁බවයි	-6.25612
ව	-6.25877
▁කිරීම	-6.29314
▁අනුව	-6.32594
▁ලංකා	-6.32738
▁විය	-6.36956
▁ගෙන	-6.38031
▁ලබා	-6.39034
▁සිට	-6.41465
▁සම්බන්ධයෙන්	-6.4162
▁තිබෙනවා	-6.42945
▁නිසා	-6.46861
ෙන්	-6.48818
▁බවත්	-6.49158
▁තුළ	-6.49955
)	-6.50362
▁වාර්තා	-6.51572
▁-	-6.52101
▁කළේ	-6.5318
▁යන	-6.55551
▁පොලිස්	-6.56251
▁නම්	-6.56734
▁බවට	-6.57839
▁ජාතික	-6.5806
න්	-6.59844
▁එය	-6.60252
▁ක්	-6.60319
▁විට	-6.6202
▁සිදු	-6.63147
▁කළේය	-6.6349
▁(	-6.63796
▁අත්අඩංගුවට	-6.65181
කට	-6.66447
▁වෙත	-6.7131
▁හැකි	-6.7141
▁හෝ	-6.71711
▁ගැන	-6.72064
▁දක්වා	-6.72214
▁අපි	-6.73046
▁සිටි	-6.74265
▁කරමින්	-6.74668
▁ජනාධිපති	-6.75841
▁මාධ්‍ය	-6.78329
්	-6.78871
▁ඇත්තේ	-6.79137
▁දින	-6.80557
▁සමඟ	-6.8113
▁එහි	-6.81255
▁සිටින	-6.81513
▁යුතු	-6.81828
▁ඉදිරිපත්	-6.84228
▁ගැනීමට	-6.85145
▁කොළඹ	-6.85567
▁පත්	-6.88985
▁ප්‍රකාශ	-6.92843
▁හේතුවෙන්	-6.94289
▁පිළිබඳ	-6.94581
▁අදාළ	-6.94769
▁ඔවුන්	-6.95329
▁තවත්	-6.95669
▁ප්‍රදේශයේ	-6.95702
▁වැඩි	-6.96715
▁සිය	-6.97974
▁නව	-6.9917
▁රුපියල්	-6.99359
▁පමණ	-6.9961
▁ඊයේ	-6.9997
▁වෙනුවෙන්	-7.00227
▁ඇතුළු	-7.0058
▁මම	-7.00678
▁වේ	-7.00832
▁කියලා	-7.00956
▁වැනි	-7.01451
▁රාජ්‍ය	-7.01569
▁කියා	-7.02465
▁ආරම්භ	-7.02665
▁කළා	-7.02901
▁අමාත්‍ය	-7.03337
▁ලකුණු	-7.04163
?	-7.04534
▁පවසයි	-7.04793
▁“	-7.05738
▁මහ	-7.06399
▁ප්‍රධාන	-7.06969
කින්	-7.07015
▁පසුගිය	-7.07203
▁ගත්	-7.07958
▁පසු	-7.08015
▁මත	-7.0821
▁අවසන්	-7.09366
▁පිළිබඳව	-7.11021
▁සමග	-7.12404
▁කරන්න	-7.14059
▁වශයෙන්	-7.14391
▁ගොස්	-7.14552
▁එක්	-7.15064
▁මුදල්	-7.1512
▁පවතින	-7.15301
▁ලද	-7.15316
▁පෙර	-7.15386
වල	-7.16129
▁බවද	-7.16389
▁හිටපු	-7.17128
▁ක්‍රියාත්මක	-7.17454
▁රටේ	-7.17898
▁තිබූ	-7.18307
▁ය	-7.19097
▁ඉහළ	-7.20236
▁සෞඛ්‍ය	-7.20888
▁තම	-7.2185
▁නමුත්	-7.2201
කි	-7.22513
▁නැහැ	-7.23706
▁ඊට	-7.23881
▁පසුව	-7.23901
-	-7.24072
▁පොලිසිය	-7.24181
▁විශේෂ	-7.24817
▁ලබන	-7.24891
▁ගත	-7.25585
▁අවශ්‍ය	-7.25738
▁වසර	-7.25742
▁එහිදී	-7.2615
▁කරයි	-7.2645
▁එක	-7.26563
▁එක්සත්	-7.27185
▁ගැනීම	-7.27292
▁‘	-7.27575
▁නිකුත්	-7.28566
▁කිරීමේ	-7.30012
▁අප	-7.30228
▁පළමු	-7.30236
▁ගුවන්	-7.30389
▁රට	-7.31575
▁වන්නේ	-7.32411
▁තීරණය	-7.33212
▁පිරිසක්	-7.33245
▁ක	-7.33612
▁ඇතැයි	-7.33935
වලට	-7.34491
▁අය	-7.35039
▁පැවති	-7.36188
▁ගිය	-7.3698
▁තිබෙන	-7.37595
▁දේශපාලන	-7.37889
▁ලංකාවේ	-7.37895
▁පාර්ලිමේන්තු	-7.3818
▁ක්‍රිකට්	-7.38373
▁අපේ	-7.38439
▁ජනතාව	-7.38511
▁යටතේ	-7.38658
ා	-7.39078
▁කණ්ඩායම	-7.40287
▁අදහස්	-7.40429
ල	-7.40575
▁පොලීසිය	-7.40799
▁තමයි	-7.41819
’	-7.41899
▁වෛද්‍ය	-7.42004
▁නෑ	-7.4226
ගෙන්	-7.42482
▁නිලධාරීන්	-7.42801
▁ගමන්	-7.4298
▁සිටියේ	-7.43012
▁පළාත්	-7.43287
▁මිල	-7.43936
▁රාජපක්ෂ	-7.44071
▁දෙනෙකු	-7.44222
යේ	-7.44291
▁කරනවා	-7.44467
▁බොහෝ	-7.44598
▁විශාල	-7.46415
▁ඇය	-7.46749
▁කෙසේ	-7.46863
▁වැඩ	-7.47582
දී	-7.48494
”	-7.49031
▁තත්ත්වය	-7.49143
▁මෙන්ම	-7.50258
▁රජය	-7.50646
වලින්	-7.50655
▁පියවර	-7.51064
ස්	-7.51406
▁ඉල්ලා	-7.5204
▁මගින්	-7.52399
▁වසරේ	-7.52399
▁සියලු	-7.53675
▁නිදහස්	-7.53694
▁වීම	-7.53758
▁වනවිට	-7.5405
▁ඔහුගේ	-7.54233
▁ලේකම්	-7.54479
▁එරෙහිව	-7.54759
▁පමණක්	-7.55074
▁යැයි	-7.55396
▁දෙපාර්තමේන්තුව	-7.55444
න	-7.55474
▁කියන	-7.55833
▁මස	-7.55856
▁මහා	-7.56197
▁කරනු	-7.5624
▁ජනාධිපතිවරයා	-7.56566
▁එල්ල	-7.56631
▁මෙරට	-7.56732
▁පැවසීය	-7.56887
▁ගන්නා	-7.57326
▁රජයේ	-7.57424
වා	-7.57471
▁කරන්නේ	-7.58483
▁දැන්	-7.58526
යක්	-7.60012
▁සේවා	-7.60212
▁වැනිදා	-7.60966
▁තොරතුරු	-7.61132
▁අවුරුදු	-7.61439
▁නොමැති	-7.61719
▁මට	-7.62476
▁සම්බන්ධ	-7.62664
▁ලෝක	-7.62748
▁වඩා	-7.62756
▁දැඩි	-7.62799
▁යන්න	-7.63021
▁ඉන්දීය	-7.63111
▁ලංකාව	-7.63176
▁වැඩිදුරටත්	-7.64067
▁වෙයි	-7.64421
▁පක්ෂ	-7.66
▁ජාත්‍යන්තර	-7.66185
▁අනතුරුව	-7.66265
▁ආර්ථික	-7.66741
▁වුණා	-7.66895
▁ඉවත්	-7.67217
▁පරීක්ෂණ	-7.67506
▁පෙන්වා	-7.67775
▁විවිධ	-7.67803
▁5	-7.68289
▁ආරක්ෂක	-7.68651
▁සොයා	-7.68721
▁සහිත	-7.68784
▁දුම්රිය	-7.69388
▁පාසල්	-7.69484
▁තියෙනවා	-7.69845
▁3	-7.69912
▁කාලය	-7.69913
▁මහින්ද	-7.7008
▁කොරෝනා	-7.70167
▁වෙනවා	-7.70242
ු	-7.70767
▁කතා	-7.70966
▁මීට	-7.71482
▁අමාත්‍යවරයා	-7.71503
▁ඉන්	-7.71632
▁පැමිණි	-7.71915
▁පැමිණ	-7.72168
▁නායක	-7.72175
▁විමර්ශන	-7.72222
▁චෝදනා	-7.72257
▁වූයේ	-7.72341
▁අඩු	-7.72496
▁කොට	-7.73116
▁හමුදා	-7.73198
▁හමුවේ	-7.73398
▁අපරාධ	-7.73602
▁පළ	-7.74
▁4	-7.741
▁යොමු	-7.74196
▁විදේශ	-7.74852
▁10	-7.74885
▁ඉතා	-7.75043
▁තමන්	-7.75443
▁ම	-7.75577
▁නැවත	-7.75679
▁ඡන්ද	-7.75699
▁නැති	-7.75783
▁මෙය	-7.75795
▁කරුණු	-7.75904
▁තරග	-7.76116
▁දෙන	-7.76862
▁නොවන	-7.77108
▁නැත	-7.77243
▁මැතිවරණ	-7.77613
▁හරහා	-7.7796
▁සභාපති	-7.78566
▁නොහැකි	-7.78573
▁,	-7.79434
▁එහෙත්	-7.7969
▁ක්‍රීඩා	-7.79762
▁පැවැති	-7.80147
▁මන්ත්‍රී	-7.80162
▁එමෙන්ම	-7.80192
ේදී	-7.80566
▁ඇතුළත්	-7.80749
▁පුළුවන්	-7.80846
▁ආණ්ඩුව	-7.80926
▁කාලයක්	-7.81483
▁20	-7.81817
ලා	-7.81941
යන්	-7.82554
▁යම්	-7.82997
▁දකුණු	-7.83006
▁ජන	-7.83175
▁වැසි	-7.83254
▁මෙහිදී	-7.83297
▁සංඛ්‍යාව	-7.84072
▁හැවිරිදි	-7.8437
▁පුරා	-7.84478
▁බස්	-7.8461
▁කොවිඩ්	-7.84967
▁මෙලෙස	-7.85214
▁තුවාල	-7.85259
▁වෙතත්	-7.85469
▁රනිල්	-7.85913
▁බවය	-7.86167
▁සාකච්ඡා	-7.86844
▁පුද්ගලයින්	-7.86881
▁6	-7.88464
▁කරලා	-7.88569
▁ඒවා	-7.88626
▁වීමට	-7.88975
▁පරිදි	-7.89327
▁ණය	-7.89878
▁විදෙස්	-7.89907
▁අයත්	-7.90291
▁මිලියන	-7.90349
▁තිබුණි	-7.90738
▁සංවිධානය	-7.90805
දා	-7.90805
▁ගන්න	-7.9088
▁ඇතැම්	-7.91044
ි	-7.91572
▁නියමිත	-7.91913
▁මගේ	-7.92292
▁පිහිටි	-7.92329
▁2	-7.92362
▁සමාජ	-7.92563
▁විදුලි	-7.92898
▁කිසිදු	-7.92953
▁පත්ව	-7.93252
ෙහි	-7.93483
▁අපට	-7.93799
▁තවදුරටත්	-7.94025
▁මා	-7.94397
▁සංවර්ධන	-7.94781
▁තිබුණේ	-7.94966
▁බලා	-7.95288
▁කට	-7.95588
▁වෙලා	-7.96126
▁එසේ	-7.96139
▁සේවය	-7.96327
▁කරගෙන	-7.96481
▁ප්‍රශ්න	-7.97245
▁අධික	-7.97314
▁නීති	-7.98215
▁සැකකරු	-7.98418
▁රැගෙන	-7.98438
යෙන්	-7.98598
▁උපදෙස්	-7.98735
▁සැකකරුවන්	-7.99032
▁නිර්මාණය	-7.99101
▁අවස්ථාව	-7.99309
▁සිදුකළ	-7.99432
▁ආහාර	-7.99699
▁වගේම	-7.99798
▁අධ්‍යාපන	-7.99997
වත්	-8.00194
▁මරණ	-8.00427
▁සිද්ධිය	-8.00525
▁ජනතාවට	-8.0054
▁දුන්	-8.00609
▁හිමි	-8.00708
▁පක්ෂයේ	-8.00967
▁වික්‍රමසිංහ	-8.0097
▁දෙකක්	-8.01119
ින්	-8.01212
▁වෙනත්	-8.01312
▁ලැබූ	-8.01315
▁පාලනය	-8.01319
▁නියෝජ්‍ය	-8.01548
▁මහතාගේ	-8.01618
▁ඔවුන්ගේ	-8.01804
▁රථ	-8.01837
▁ඔබ	-8.0219
▁පෞද්ගලික	-8.02491
යා	-8.02763
▁වෙනස්	-8.02804
▁ලක්ෂ	-8.03134
▁මණ්ඩලය	-8.03247
▁වගේ	-8.03307
▁වෙඩි	-8.0332
▁ඉදිරි	-8.03869
යට	-8.03993
▁සභා	-8.04657
▁කිහිපයක්	-8.04872
▁ප්‍රතිකාර	-8.04998
▁සභාව	-8.05157
▁අධිකරණය	-8.05398
▁"	-8.05411
▁අනාවරණය	-8.05451
▁හෙට	-8.05952
▁ජල	-8.06386
▁ට	-8.06396
▁19	-8.06571
▁උතුරු	-8.06753
▁දැනුම්	-8.06814
▁කිරීමෙන්	-8.06873
▁තිබුණා	-8.06975
▁සිල්වා	-8.07046
▁පන්දු	-8.071
ෙ	-8.07125
▁යුතුයි	-8.07452
▁සිදුව	-8.07628
▁මාර්ග	-8.07716
▁භාර	-8.07902
▁සිටියේය	-8.07987
▁මූලික	-8.0842
වන	-8.09062
▁පවසා	-8.0938
▁යළි	-8.09427
ම්	-8.09444
▁පක්ෂය	-8.10039
▁නිල	-8.10211
▁ඒක	-8.10258
▁තිබිණි	-8.10267
▁ප්‍රති	-8.10544
▁බදු	-8.10636
▁පෙනී	-8.10847
▁කඩුලු	-8.112
▁12	-8.11539
▁හි	-8.12147
▁මෙසේ	-8.12218
▁ලංකාවට	-8.12363
▁නාවික	-8.12531
▁පහර	-8.12642
▁දා	-8.12711
"	-8.13169
▁මධ්‍යම	-8.13304
▁අමාත්‍යාංශය	-8.13307
▁ඝාතනය	-8.1355
▁යනු	-8.13588
▁7	-8.13808
▁බැවින්	-8.13969
▁පිරිස	-8.14453
▁එක්ව	-8.14604
▁ජනතා	-8.1471
▁කියයි	-8.14782
▁පැවසුවේ	-8.14905
▁සදහා	-8.1509
▁පාලන	-8.15827
▁බලය	-8.16073
ල්	-8.16162
▁ඔහුට	-8.16336
▁නියෝග	-8.16532
▁15	-8.16553
▁පැවැත්වෙන	-8.16563
▁8	-8.1673
▁මාස	-8.16798
▁අධ්‍යක්ෂ	-8.16894
▁අධිකරණයට	-8.17118
වේ	-8.17121
▁කුඩා	-8.17143
▁මඟින්	-8.17288
▁එකක්	-8.1729
▁පවසනවා	-8.17408
▁මහජන	-8.17409
▁අමතරව	-8.17458
▁මෙවර	-8.1747
වී	-8.17609
▁ඩොලර්	-8.18107
▁මුහුණ	-8.18285
▁ආයතන	-8.18641
▁සෑම	-8.18724
▁නිරත	-8.18922
නි	-8.19294
▁මියගොස්	-8.19339
▁සභාවේ	-8.19483
▁ලදී	-8.19619
▁දෙවැනි	-8.20012
▁පදිංචි	-8.20199
▁අපිට	-8.20286
▁යුද	-8.20417
▁හැකිය	-8.20442
▁දරුවන්	-8.20556
▁යෝජනා	-8.20693
▁දැනට	-8.2073
▁ලක්	-8.20953
▁එවැනි	-8.20955
▁තබා	-8.20955
▁මූල්‍ය	-8.21014
▁සමත්	-8.21081
▁තහවුරු	-8.21297
▁පැවැත්වීමට	-8.21914
▁ආ	-8.21948
ත	-8.22221
▁කාර්ය	-8.22354
▁විවෘත	-8.22468
▁සිදුවන	-8.22868
▁කියන්නේ	-8.23354
▁18	-8.24183
▁තරගය	-8.24469
▁එහෙම	-8.24744
▁වයස	-8.24754
▁ඉන්ධන	-8.2476
▁භාවිත	-8.24854
▁දිනයේ	-8.24997
▁බල	-8.25122
▁ප්‍රාදේශීය	-8.25359
▁විද්‍යා	-8.25459
▁පවා	-8.26221
▁තමා	-8.2623
▁ගිනි	-8.2637
▁රටවල්	-8.26729
▁වනදා	-8.26919
▁මාර්ගයේ	-8.27022
▁මහනුවර	-8.27053
▁කාර්යාලය	-8.27465
▁කුමාර	-8.27799
▁සකස්	-8.28098
▁වාහන	-8.28275
▁ව	-8.28479
▁එසේම	-8.28507
▁දිනය	-8.28677
▁තෙල්	-8.28705
▁මත්ද්‍රව්‍ය	-8.2889
▁යුතුය	-8.28985
හි	-8.2902
▁අංශ	-8.29095
▁සිදුවූ	-8.29329
▁නොව	-8.2969
▁මිය	-8.29938
▁පුද්ගලයන්	-8.30089
▁අග්‍රාමාත්‍ය	-8.30213
ී	-8.30237
▁පැය	-8.30493
▁ගාල්ල	-8.30535
▁නීතිය	-8.30542
▁කාලයේ	-8.30588
▁සමස්ත	-8.30616
▁වල	-8.30691
▁තත්ත්වයක්	-8.30766
▁එක්ක	-8.31216
▁සියයට	-8.3148
▁එරට	-8.31531
▁ඔස්සේ	-8.31738
▁අවධානය	-8.32011
▁ස්ථාන	-8.32046
▁නියම	-8.32128
▁9	-8.32182
▁රෝහලේ	-8.32362
▁ගනිමින්	-8.32701
▁මුල්	-8.32751
▁සංචාරක	-8.32859
▁දෙනා	-8.32895
▁එන	-8.32978
▁පොදු	-8.3314
▁කණ්ඩායම්	-8.3318
ස	-8.33286
▁30	-8.3334
හ	-8.33368
▁දැවී	-8.33392
▁මෙහි	-8.3371
▁සමාගම	-8.33742
▁සාමාන්‍ය	-8.34062
▁සංගමය	-8.34204
▁යොදා	-8.34255
▁දීමට	-8.34258
▁සූදානම්	-8.34265
▁11	-8.34445
▁වෙන්න	-8.34495
▁දේ	-8.34677
▁වු	-8.34804
▁මෙවැනි	-8.35219
▁ලොව	-8.35467
▁සහභාගි	-8.35535
▁වෙමින්	-8.35586
▁දමා	-8.35662
▁දෙදෙනා	-8.35714
▁ආසන්න	-8.35964
▁වැඩිදුර	-8.36026
▁හැකියාව	-8.36199
▁කැබිනට්	-8.3656
▁ගැනීමේ	-8.3667
▁බලාපොරොත්තු	-8.37181
▁මුදලක්	-8.37419
කර	-8.37704
▁ජනපති	-8.3783
▁ආයතනය	-8.38275
▁උසස්	-8.38355
▁බන්ධනාගාර	-8.38448
▁එකතු	-8.38456
▁මෙතෙක්	-8.38487
▁දෙයක්	-8.38508
▁රැසක්	-8.38767
▁දෙන්න	-8.38809
▁සිදුකර	-8.38826
▁ඉඩ	-8.38844
▁හොඳ	-8.38956
▁පුද්ගලයා	-8.38998
වි	-8.39054
▁ප්‍රදේශවල	-8.39206
▁ලැබී	-8.39234
▁නිවාස	-8.39353
▁දිය	-8.39455
▁මහේස්ත්‍රාත්	-8.39501
▁තුළින්	-8.39709
▁වෙන	-8.39987
▁ඔවුන්ට	-8.40457
නා	-8.40809
▁රෝග	-8.41071
▁නගර	-8.41138
ට්	-8.41301
▁හමුදාව	-8.4147
▁අවස්ථාවේ	-8.41515
▁රෝහලට	-8.41616
▁නියෝජනය	-8.41633
▁භාණ්ඩ	-8.41763
▁සදහන්	-8.41834
▁වුණේ	-8.41984
▁ලැබෙන	-8.42362
▁නඩු	-8.42427
▁වැදගත්	-8.42663
▁ඉන්න	-8.42734
▁සහාය	-8.43043
▁උදෑසන	-8.43138
සී	-8.43305
දි	-8.43313
▁අලුත්	-8.43559
▁පහසුකම්	-8.43668
▁14	-8.43882
▁දේශීය	-8.43895
▁පුද්ගලයෙකු	-8.44321
▁සැලසුම්	-8.44359
▁රටට	-8.4455
▁ජය	-8.44683
▁ලබාදීමට	-8.44836
▁සීමා	-8.45074
▁හරි	-8.45329
▁කල්	-8.45369
▁13	-8.45749
▁මාර්ගය	-8.46023
▁දෙමළ	-8.46092
ර්	-8.46132
▁ලබාදෙන	-8.46167
▁ඉන්දියාවේ	-8.46264
▁සිරිසේන	-8.46456
▁16	-8.4676
ර	-8.46869
▁අගමැති	-8.47027
▁දෙවන	-8.47191
▁උත්සාහ	-8.47257
▁චීන	-8.47359
▁යාමට	-8.47497
▁මානව	-8.4788
▁හේතුව	-8.47894
▁මුහුදු	-8.48137
▁සිදුකරන	-8.48338
▁අංශය	-8.48346
▁අ	-8.48353
▁නො	-8.48534
▁50	-8.48763
▁අධිකරණ	-8.4888
මේ	-8.48934
▁නිසි	-8.48939
▁පාර්ලිමේන්තුවේ	-8.48996
▁පසුගියදා	-8.49028
▁පවත්වාගෙන	-8.49203
▁ප්‍රශ්නය	-8.49404
▁කණ්ඩායමේ	-8.49563
▁හිරු	-8.49661
▁අලෙවි	-8.49708
▁දෙදෙනෙකු	-8.49802
▁වලට	-8.49861
▁බැංකු	-8.49876
▁කොටස්	-8.49905
▁ඉදිරියට	-8.50147
ෂධ	-8.50202
▁ඉන්දියාව	-8.503
▁ලොකු	-8.50412
▁24	-8.50596
▁වෙන්නේ	-8.50837
ඒ	-8.51131
▁වි	-8.51251
▁පහළ	-8.51471
▁සියලුම	-8.51493
▁දෙක	-8.51514
▁පවසන්නේ	-8.51524
▁ප්‍රමාණයක්	-8.51543
▁විනාශ	-8.51559
▁අවම	-8.51582
▁වෘත්තීය	-8.51712
▁දක්වමින්	-8.51792
▁ආචාර්ය	-8.5184
▁එකම	-8.51881
▁ගෝඨාභය	-8.51993
▁මියගිය	-8.52034
▁තමන්ගේ	-8.52195
▁පෙළ	-8.52445
▁තරම්	-8.52634
▁ජ්‍යෙෂ්ඨ	-8.52635
▁දිස්ත්‍රික්	-8.52791
▁”	-8.52818
▁නොවේ	-8.52829
▁ටෙස්ට්	-8.52975
▁තරුණ	-8.53312
▁සිංහල	-8.53379
▁මෝටර්	-8.53402
▁පැවැසීය	-8.53511
ලි	-8.5359
▁ප්‍රවෘත්ති	-8.53661
▁කල	-8.53668
▁ලබාදී	-8.53712
▁ප්‍රදේශ	-8.53861
▁25	-8.53878
‍	-8.53997
ප	-8.54062
▁බිලියන	-8.54405
▁දිසානායක	-8.5441
▁නියමිතය	-8.54551
▁නිවේදනය	-8.54741
▁අනෙක්	-8.54844
▁කෙරෙන	-8.55063
▁පෙරේරා	-8.55077
▁රෝහල්	-8.55198
▁සිටියදී	-8.55206
▁සී	-8.55368
▁ජනතාවගේ	-8.5551
▁17	-8.5563
▁ක්‍රියා	-8.55674
▁පැහැදිලි	-8.55891
▁සංගමයේ	-8.55979
ඩ්	-8.55994
▁තරගාවලියේ	-8.56051
▁තියෙන	-8.56082
▁තියෙන්නේ	-8.56508
▁සහභාගී	-8.56528
▁ප්‍රනාන්දු	-8.56594
▁තවමත්	-8.56834
▁වර්ධනය	-8.56836
▁හේතු	-8.56841
▁වනු	-8.57025
▁ඡන්දය	-8.57061
▁ධාවනය	-8.57376
▁මාතර	-8.57444
▁ආරක්ෂාව	-8.57716
▁තමන්ට	-8.58021
▁වුවද	-8.58055
▁පාර්ලිමේන්තුව	-8.58128
▁අවස්ථාවේදී	-8.58199
▁පටන්	-8.58537
▁සමහර	-8.58768
▁ඉනිම	-8.58862
▁ගොඩ	-8.59006
▁මැයි	-8.59106
▁බස්නාහිර	-8.59266
▁පෙරමුණ	-8.59389
▁නගරයේ	-8.59397
▁කොමිෂන්	-8.59628
▁කොමිසම	-8.59693
▁කඩා	-8.59712
▁තව	-8.60185
▁කීය	-8.60244
▁තොරව	-8.60285
▁අවස්ථා	-8.60323
▁සිසුන්	-8.6052
▁ඉකුත්	-8.60539
▁ලබාදීම	-8.60569
▁තහනම්	-8.60588
වූ	-8.60718
රා	-8.60977
▁අංක	-8.61226
ටත්	-8.61228
▁උප	-8.61332
▁ස්ථානය	-8.61451
▁වලින්	-8.61451
▁සජිත්	-8.6164
▁බරපතළ	-8.62056
ගෙන	-8.62296
▁අවධාරණය	-8.62314
▁හැර	-8.62326
▁කාන්තා	-8.62375
▁රැකියා	-8.62538
▁අයට	-8.62547
▁21	-8.62621
▁දිස්ත්‍රික්කයේ	-8.62634
▁එදා	-8.62695
▁අලි	-8.62731
රි	-8.62831
▁හානි	-8.62904
▁අනතුරු	-8.63014
▁තිබී	-8.63089
යෝ	-8.63142
▁ආසාදිතයින්	-8.63229
▁රන්	-8.63597
▁ප්‍රදේශයේදී	-8.63601
▁කාලගුණ	-8.63675
▁නියමිතව	-8.64025
▁දීම	-8.64085
▁ජලය	-8.64354
▁මෙරටට	-8.64367
▁අංශයේ	-8.64421
▁යි	-8.64746
▁අනතුර	-8.64834
▁නැගෙනහිර	-8.64912
▁ප්‍රකාශක	-8.65212
▁ඕන	-8.65259
කදී	-8.65733
▁නිෂ්පාදන	-8.65913
▁තේ	-8.66045
▁මහත්මිය	-8.66079
▁හදිසි	-8.66084
▁හිමිකම්	-8.66255
▁ඔය	-8.66304
▁පස්වරුවේ	-8.66422
▁ගනු	-8.66455
▁පනත	-8.66484
▁දෙපාර්තමේන්තුවේ	-8.66588
▁ජයග්‍රහණය	-8.66651
▁දැනුවත්	-8.66695
▁තැන	-8.66714
▁වාර්තාව	-8.66716
▁විනිසුරු	-8.66829
▁ප	-8.66861
▁ධීවර	-8.66946
▁මණ්ඩලයේ	-8.66953
▁වඩාත්	-8.67009
▁වහන්සේ	-8.67048
▁විපක්ෂ	-8.67271
▁ප්‍රකාශයට	-8.6735
▁ඇමැති	-8.67636
නේ	-8.67673
▁සම්පත්	-8.67796
▁පෙරමුණේ	-8.6786
▁ඇප	-8.67906
▁පැමිණෙන	-8.67965
සි	-8.68254
▁සිටියා	-8.68256
▁කරන්නට	-8.68408
▁වසා	-8.68453
▁මැද	-8.68546
▁මණ්ඩල	-8.68706
▁රාත්‍රී	-8.6875
▁ආකාරය	-8.68776
▁මෙන්	-8.68795
▁මිලදී	-8.68917
▁ජීවත්	-8.69067
▁විභාග	-8.69133
▁ප්‍රේමදාස	-8.69626
▁ක්‍රමය	-8.699
▁එක්වෙමින්	-8.69955
ං	-8.70163
▁විධායක	-8.7017
▁නිෂ්පාදනය	-8.70252
▁දෙන්නේ	-8.70598
▁ආණ්ඩුවේ	-8.70712
▁සුළු	-8.70927
▁රථය	-8.70979
▁බටහිර	-8.71097
▁වෛරසය	-8.7113
▁වැඩසටහන	-8.71168
▁ලෝකයේ	-8.71294
▁වසරේදී	-8.71505
▁අනුර	-8.71659
▁සටහන්	-8.71798
▁ජනවාරි	-8.71824
▁තිබෙන්නේ	-8.71905
▁වත්මන්	-8.72217
▁මේක	-8.72383
▁අනුමැතිය	-8.72481
▁කණ්ඩායමක්	-8.72495
▁නතර	-8.72499
▁පවත්වා	-8.72512
▁1	-8.72623
▁ආරක්ෂා	-8.72872
▁දෙනෙක්	-8.72918
▁අත්	-8.72955
▁මැතිවරණය	-8.72968
▁දැක්වූ	-8.73025
▁සියල්ල	-8.73207
▁ලැබුණු	-8.73242
ණ	-8.73388
▁පා	-8.73393
▁රෝගීන්	-8.73517
ෝ	-8.73589
▁එස්	-8.7389
▁රථයක්	-8.73908
▁කිරීමේදී	-8.73929
▁එක්දින	-8.73989
▁කාරක	-8.74106
▁කෙනෙක්	-8.74306
▁මහාචාර්ය	-8.744
▁යාම	-8.74414
▁අනුරාධපුර	-8.74476
▁අනෙකුත්	-8.74481
▁දක්නට	-8.74496
▁ගත්තා	-8.74633
▁වරාය	-8.74675
▁වාර්තාකරු	-8.74761
▁දීර්ඝ	-8.74829
▁වෙන්	-8.74846
▁පිළිතුරු	-8.75005
▁භාවිතා	-8.75176
▁සංශෝධනය	-8.7521
▁ජීවිතක්ෂයට	-8.75361
▁රැස්	-8.75489
▁කුසලාන	-8.75611
ති	-8.75717
කා	-8.75893
▁100	-8.75902
▁හෙවත්	-8.75979
▁යාපනය	-8.76042
▁අධ්‍යාපනය	-8.76099
▁නියමිතයි	-8.76147
වීම	-8.76334
ගම	-8.76429
▁තරගාවලිය	-8.76528
▁මුළු	-8.76591
▁ලැබීය	-8.76639
▁කී	-8.76725
▁රක්ෂිත	-8.76735
▁වර්ග	-8.76819
▁එයට	-8.76943
මා	-8.76983
▁මාර්තු	-8.77221
▁ඉඩම්	-8.77245
▁ගෑස්	-8.77347
▁ගැටලු	-8.77549
▁‍	-8.77674
▁පැමිණිලි	-8.77755
▁නම	-8.78049
▁ගල්	-8.7816
▁විරෝධය	-8.78287
▁සංවිධාන	-8.78341
▁අදාළව	-8.78447
▁ත්	-8.78536
▁හෙතෙම	-8.78876
▁ඒකාබද්ධ	-8.7888
▁ඔබට	-8.79046
▁ආදී	-8.79143
ටී	-8.79148
▁කර්මාන්ත	-8.79177
▁පොහොර	-8.79322
▁දේවල්	-8.79448
▁බැංකුව	-8.79526
▁ජීවිත	-8.79539
▁සැක	-8.7956
▁ස්ථානයේ	-8.7973
▁මාසයේ	-8.79859
▁සමන්විත	-8.79994
▁ශක්තිමත්	-8.80006
▁ආර්ථිකය	-8.80057
▁ඉන්නවා	-8.80069
▁මෛත්‍රීපාල	-8.80121
▁මහතාට	-8.80232
▁විශ්වාස	-8.80285
▁අපේක්ෂා	-8.8032
▁ප්‍රවාහන	-8.80371
▁පස්සේ	-8.80439
▁මෙහෙයුම්	-8.80597
▁වනවා	-8.80611
▁කණ්ඩායමට	-8.80636
▁ඕනෑම	-8.80656
▁සිටිනවා	-8.80783
▁යයි	-8.80984
▁කිසිම	-8.81031
▁ප්‍රහාරය	-8.81175
▁යනවා	-8.81324
▁සිටින්නේ	-8.81425
▁ප්‍රමාණය	-8.81554
▁ඉල්ලීමක්	-8.81559
▁සමිති	-8.81603
▁නුවර	-8.81603
▁අහිමි	-8.8164
▁හම්බන්තොට	-8.81908
▁සම්බන්ධව	-8.81939
▁අප්‍රේල්	-8.81986
▁නීතිඥ	-8.82108
▁ප්‍රධානත්වයෙන්	-8.82165
▁ප්‍රථම	-8.82289
▁සේ	-8.82366
▁දිනවල	-8.82504
▁කෙරේ	-8.82759
▁22	-8.82874
▁වැඩිම	-8.82874
▁ගත්තේ	-8.83171
▁අසල	-8.8321
▁පොලිස්පති	-8.83325
▁පොලිසියට	-8.83346
▁ඉටු	-8.83545
▁සෙසු	-8.83602
▁වූහ	-8.83884
▁ප්‍රතික්ෂේප	-8.83895
▁ශාන්ත	-8.8398
▁කින්	-8.8399
▁දෙයි	-8.83999
මි	-8.84125
▁හිමියන්	-8.84131
▁බණ්ඩාර	-8.8414
▁සලකා	-8.84252
▁හැම	-8.84368
▁වෙළෙඳ	-8.84436
▁ඉදිරියේදී	-8.84651
▁පිරිස්	-8.84715
▁ජනරාල්	-8.84728
ලු	-8.84758
▁මුදල	-8.8479
▁කාලයේදී	-8.84802
▁පී	-8.85057
▁සම	-8.85093
නු	-8.85106
▁ආගමික	-8.85149
▁රජයට	-8.85218
▁ඔ	-8.85442
▁ගුරු	-8.85729
▁ස	-8.85746
▁ගණන්	-8.85982
▁ටික	-8.86036
ග	-8.86074
සා	-8.86167
▁කියන්න	-8.86187
▁කිව්වා	-8.86224
▁සංවර්ධනය	-8.86265
▁වැටී	-8.86357
▁ගියා	-8.86438
▁සිටී	-8.86543
▁මන්ත්‍රීවරුන්	-8.86756
▁මුස්ලිම්	-8.86762
▁ලක්ව	-8.86763
▁සාර්ථක	-8.86911
▁විරෝධී	-8.86953
න්ට	-8.8711
▁වුවත්	-8.87129
▁කෝටි	-8.87195
▁පරිසර	-8.87202
▁අත	-8.87286
▁තද	-8.87349
▁කළහ	-8.87382
▁රටවල	-8.87438
▁එලෙස	-8.87626
▁40	-8.87634
▁සති	-8.87652
▁මව	-8.87773
යින්	-8.87917
▁පොදුජන	-8.87923
▁අවසර	-8.87957
▁වගා	-8.87992
▁යුත්	-8.88192
▁හෙළි	-8.88289
▁යුතුව	-8.88362
▁වැය	-8.88366
▁යා	-8.88435
තා	-8.88467
▁නිවසේ	-8.88577
▁සහන	-8.8859
▁තරගයේ	-8.88628
▁වෙනුවට	-8.88752
▁23	-8.88959
▁ලබාගත්	-8.89005
▁සහල්	-8.89007
▁ජීවිතය	-8.89068
▁කි	-8.89178
▁රිය	-8.89233
▁ඉදිරියේ	-8.8928
▁සම්මත	-8.89374
▁ආයතනයේ	-8.89416
▁බැරි	-8.89462
▁පියා	-8.89603
▁කියනවා	-8.89622
▁පවතී	-8.89922
▁අමාත්‍යාංශයේ	-8.89965
▁‘‘	-8.90059
▁පළාතේ	-8.90404
▁වැටුප්	-8.90417
▁දිවයිනේ	-8.90467
▁විශ්ව	-8.90561
▁දැන	-8.90602
අ	-8.9066
▁කතාව	-8.90845
▁පෙරවරුවේ	-8.91052
▁පැන	-8.91129
▁දුරකථන	-8.91224
▁සමගි	-8.91233
▁කමිටුව	-8.91236
▁කෙරෙහි	-8.91247
▁කිරීම්	-8.91252
▁සිවිල්	-8.91283
▁නිවේදනයක්	-8.91367
▁ආකාරයට	-8.91429
▁ද්‍රව්‍ය	-8.9154
▁ඕනෑ	-8.91609
▁දුන්නේ	-8.91947
▁ගියේ	-8.92185
▁ඇගේ	-8.92452
▁බෞද්ධ	-8.926
▁ආණ්ඩු	-8.92609
▁වහාම	-8.92711
▁ඒත්	-8.92905
▁ගණන	-8.92925
▁පරාජය	-8.93001
▁හට	-8.9329
▁එන්නත්	-8.93346
▁ආනයනය	-8.9342
▁තුනක්	-8.9343
▁ක්‍රියාමාර්ග	-8.93441
▁කාන්තාවන්	-8.93515
▁අවසානයේ	-8.9364
▁ළමා	-8.93811
▁පාර්ලිමේන්තුවට	-8.94054
▁නඩුව	-8.94195
▁තෙක්	-8.94283
▁දුන්නා	-8.94343
යෙක්	-8.94453
▁විදිහට	-8.94561
▁ගෙදර	-8.94593
▁පවුල්	-8.94855
▁අධිකාරිය	-8.94947
කොට	-8.95047
▁පවුලේ	-8.95198
▁ප්‍රතිපත්ති	-8.95227
▁පස්	-8.95309
▁එකට	-8.95324
▁නගරය	-8.95524
රු	-8.95526
▁දෙනකු	-8.95532
▁විශේෂඥ	-8.95582
▁ලෙසයි	-8.96045
▁සම්පූර්ණ	-8.96163
▁ලෙසත්	-8.96187
▁රාත්‍රියේ	-8.96289
පී	-8.9638
▁වියදම්	-8.96409
▁කාර්යාලයේ	-8.96537
▁සාක්ෂි	-8.96636
▁ඇමරිකානු	-8.96748
▁බුද්ධි	-8.96776
▁විද්‍යාලයේ	-8.9691
▁රටක්	-8.96918
▁ගුණවර්ධන	-8.96967
▁කලින්	-8.96979
▁විද්‍යාලය	-8.97057
▁මොකද	-8.97204
▁රැඳී	-8.97311
▁දරුවා	-8.9735
▁පමණි	-8.97392
▁වගකීම	-8.97395
▁තිබුණු	-8.97435
▁පරීක්ෂක	-8.97445
),	-8.97454
▁ලබාගෙන	-8.97511
මය	-8.97526
▁ආධාර	-8.97569
▁ව්‍යාපාර	-8.97593
▁ගම්පහ	-8.97702
▁ආණ්ඩුවට	-8.97853
▁තිබු	-8.9803
▁27	-8.98056
▁ගත්තේය	-8.9807
▁කුරුණෑගල	-8.98204
එම්	-8.98301
▁පහත	-8.98509
▁පාර	-8.98714
▁දැමීමට	-8.98758
▁ස්ථානයට	-8.98835
▁පිරිමි	-8.98974
▁සංවිධානයේ	-8.99002
▁පරීක්ෂා	-8.99173
▁බලධාරීන්	-8.99349
▁කදී	-8.99398
▁ප්‍රකාශයක්	-8.99544
▁විරෝධතා	-8.99641
▁සිටියහ	-8.99881
▁26	-8.999
▁හැකියි	-9.00075
▁ගියේය	-9.00079
▁රථයේ	-9.00087
▁එම්	-9.00096
▁අතරින්	-9.00207
▁රු	-9.0035
▁පුහුණු	-9.00394
▁දුන්නේය	-9.00488
▁ආර්	-9.005
▁නමැති	-9.00521
ගත	-9.0058
▁ආසියානු	-9.00715
▁දියුණු	-9.00743
▁විදුලිය	-9.00798
▁ජංගම	-9.00872
▁වීමෙන්	-9.00976
▁ආරංචි	-9.00989
▁නමින්	-9.01075
යකු	-9.01123
▁චීනය	-9.01265
විය	-9.01357
▁ලැබේ	-9.01427
▁සිටියි	-9.01522
▁මන්ත්‍රීවරයා	-9.01604
▁ලබාදුන්	-9.01791
▁තානාපති	-9.01841
▁සිදුවිය	-9.01944
කම	-9.02052
▁ආසාදනය	-9.02067
▁කොමසාරිස්	-9.02074
▁සමාගමේ	-9.02117
පු	-9.0212
▁බැහැ	-9.02156
▁ගේ	-9.02244
▁පර්යේෂණ	-9.02352
▁ඉතින්	-9.02442
▁එ	-9.02464
▁දෙසැම්බර්	-9.02495
බී	-9.02515
▁අත්සන්	-9.02566
▁අර්බුදය	-9.02661
▁යනුවෙන්	-9.02714
▁ජාතීන්ගේ	-9.02793
▁ගිහින්	-9.02883
▁යන්නේ	-9.02896
▁තත්ත්වයට	-9.02916
▁විවාහ	-9.02926
▁කීවේය	-9.02957
▁බැගින්	-9.03102
▁විශේෂයෙන්	-9.0317
▁බාධා	-9.0323
▁අත්‍යවශ්‍ය	-9.0323
▁බලපෑම්	-9.03415
ගෙ	-9.03544
▁සම්මාන	-9.03555
▁දෙනවා	-9.03559
▁සහය	-9.0357
▁එනම්	-9.03703
▁අවට	-9.03807
▁කටුනායක	-9.03922
වන්	-9.04028
▁සංචාරය	-9.04243
▁සොයාගෙන	-9.04295
▁පිට	-9.0431
▁අරමුණ	-9.04324
▁ඇමති	-9.04371
▁28	-9.04421
▁බිඳ	-9.04473
▁05	-9.04483
▁එයින්	-9.04627
▁විමුක්ති	-9.04662
▁දිගටම	-9.04732
▁සතුව	-9.04757
▁කාන්තාව	-9.04877
▁අතරතුර	-9.04949
▁ඇතිවිය	-9.04989
▁විශ්වවිද්‍යාල	-9.05075
▁ප්‍රමුඛ	-9.05139
▁31	-9.05191
▁සටන්	-9.05202
▁අගය	-9.05217
▁පිල	-9.05317
▁තුල	-9.05459
▁ගණනාවක්	-9.05669
▁සතු	-9.0569
▁මං	-9.05711
▁ප්‍රබල	-9.05714
▁කළුතර	-9.0583
වට	-9.05894
▁ලෙසින්	-9.0596
වීඩියෝ	-9.0607
▁සමයේ	-9.0645
▁එපා	-9.0659
▁නිලධාරීන්ට	-9.06705
▁ආණ්ඩුක්‍රම	-9.06755
▁ඔබේ	-9.06838
▁තීරණ	-9.07035
▁යට	-9.07061
▁තීන්දු	-9.07086
▁එරෙහි	-9.07156
▁පුළුල්	-9.0722
▁දෙමින්	-9.07238
▁ආදායම්	-9.07244
▁විදුලිබල	-9.07257
▁හැබැයි	-9.07266
▁මධ්‍යස්ථානය	-9.07317
▁නිර්දේශ	-9.07383
▁කිහිපයකට	-9.07832
▁ලේකම්වරයා	-9.0823
▁සභාපතිවරයා	-9.08361
▁පිහිටා	-9.08381
▁අමෙරිකානු	-9.08475
▁බර	-9.08508
▁කරපු	-9.08512
▁සුදුසුකම්	-9.08525
▁විභාගය	-9.08584
▁හඳුන්වා	-9.08722
▁පුත්තලම	-9.08786
▁ලැබුවේ	-9.08823
▁නිලධාරී	-9.09034
▁සවස	-9.09094
▁සේවයේ	-9.09111
▁දූෂණ	-9.09123
▁සමාගම්	-9.09163
▁කෙටි	-9.09166
▁ව්‍යාපෘතිය	-9.09202
▁දිවයින	-9.093
▁සිදුවීම	-9.09342
▁ප්‍රහාර	-9.09344
▁රෝගය	-9.09359
▁කිරි	-9.09432
▁එන්න	-9.09524
▁සහතික	-9.09539
▁පොල්	-9.09546
▁ඉ	-9.09553
▁යමින්	-9.09751
▁සඳහන්ය	-9.09849
▁පාස්කු	-9.0988
▁මළ	-9.09988
▁මාසයේදී	-9.10044
▁හඳුනාගෙන	-9.10046
▁නොවැම්බර්	-9.10077
▁පත්කර	-9.10087
ගල	-9.10301
ිය	-9.10317
▁හැක	-9.1042
▁අගෝස්තු	-9.10492
▁03	-9.10519
▁හැටියට	-9.10553
යෙකු	-9.10572
▁නොකරන	-9.10645
▁හොඳම	-9.10746
▁ලෙසට	-9.10776
▁සුදුසු	-9.10809
▁සතියේ	-9.10881
▁නායකයා	-9.1098
▁අවි	-9.11061
▁ඔවුහු	-9.11067
▁කඩිනමින්	-9.11157
▁දත්ත	-9.11287
▁දැක	-9.11289
▁සැප්තැම්බර්	-9.11443
▁පස්වරු	-9.11491
▁වැරදි	-9.11573
▁ව්‍යවස්ථා	-9.11579
▁පෙබරවාරි	-9.11674
▁උපකරණ	-9.11714
▁ඇයට	-9.11858
▁සිටිති	-9.11942
▁ගමන	-9.11957
▁60	-9.11963
▁ගොනු	-9.11974
▁කරා	-9.12142
▁සු	-9.12166
▁අයි	-9.12245
▁පසුවන	-9.12269
▁යෑමට	-9.12376
▁දිනා	-9.12423
▁හෙරොයින්	-9.12429
▁සිදුවී	-9.12495
▁අතිරේක	-9.12597
▁කළු	-9.12615
බ	-9.12817
▁කරගත්	-9.12836
▁කාල	-9.12875
▁ඩී	-9.12941
▁නායකත්වය	-9.12981
▁යෝජනාව	-9.13003
▁ශ්‍රේෂ්ඨාධිකරණය	-9.13022
▁ඕවර	-9.13023
මින්	-9.13195
ඩි	-9.13395
▁දෙරණ	-9.13438
▁ගැසට්	-9.13544
▁ඉතිරි	-9.13626
▁ලාංකික	-9.13829
▁ඉලක්ක	-9.13854
▁ප්‍රදේශය	-9.13976
▁අවස්ථාවට	-9.14082
▁තෝරා	-9.14098
▁අමාත්‍යංශය	-9.14176
▁ඒකකය	-9.1422
▁පූර්ව	-9.14384
▁තැන්පත්	-9.14401
▁ඡායාරූප	-9.14428
▁යුත්තේ	-9.14469
▁නිලධාරින්	-9.14484
වක්	-9.14614
ජ	-9.14805
▁සමාජය	-9.14979
▁කිලෝ	-9.15055
▁එල්	-9.15062
▁ආසාදිතයන්	-9.15063
▁කඩ	-9.15221
▁2015	-9.15259
▁කාන්තාවක්	-9.15561
ත්වය	-9.15574
▁කොටසක්	-9.15666
▁ලබයි	-9.15805
▁දහවල්	-9.16027
▁කෘෂිකර්ම	-9.16158
▁බෑ	-9.16378
▁තුන්	-9.16445
▁නිවස	-9.16503
▁නැවතත්	-9.16522
▁කේ	-9.16648
කු	-9.16787
▁වතු	-9.168
▁06	-9.16842
▁ප්‍ර	-9.16847
▁යහපත්	-9.16921
▁තිබියදී	-9.16961
▁හඳුනා	-9.16983
නී	-9.17011
▁නොකළ	-9.1702
▁සිරුර	-9.17028
▁තොගයක්	-9.17037
වරයා	-9.17076
▁ඇයගේ	-9.17107
▁දරන	-9.17115
▁වුණත්	-9.17351
▁අපගේ	-9.17408
▁මල්	-9.17432
▁තැපැල්	-9.1748
▁පත්වූ	-9.17481
▁අදාල	-9.17642
▁මිනිස්	-9.17751
එස්	-9.17776
▁රෝහල	-9.17979
▁කිසියම්	-9.18044
ප්	-9.18052
▁අතට	-9.18057
▁ලැබුවා	-9.18073
▁මංගල	-9.18119
▁පන්දුවට	-9.18281
▁හමුවට	-9.18334
▁කොටුව	-9.18382
▁29	-9.18439
▁බ්‍රිතාන්‍ය	-9.18525
ව්	-9.18535
▁අන්තර්	-9.18767
▁උ	-9.1891
▁පැතිර	-9.18918
▁කලා	-9.18927
▁ඇද	-9.19118
▁අතින්	-9.19144
▁විෂය	-9.19181
▁සහකාර	-9.19187
ෙනි	-9.19308
▁රත්නපුර	-9.19359
ක්ද	-9.19369
▁සුදු	-9.19501
▁ඉන්නේ	-9.19501
▁කෙරිණි	-9.19519
▁සිද්ධියට	-9.19564
▁ස්ථාපිත	-9.19608
▁නිවසට	-9.19608
▁කළමනාකරණ	-9.19698
▁ආයෝජන	-9.19838
▁පවත්වන	-9.19913
▁විශ්වවිද්‍යාලයේ	-9.19933
▁ග්‍රෑම්	-9.20117
▁ජූලි	-9.20203
▁ජයවර්ධන	-9.20209
▁සංඛ්‍යාවක්	-9.20245
▁වයඹ	-9.20306
▁දැවැන්ත	-9.2034
▁කොමිසමේ	-9.20345
▁බදුල්ල	-9.20415
▁පනත්	-9.20481
▁බෙදා	-9.20494
▁නැතිව	-9.20609
ැ	-9.20678
▁සබරගමුව	-9.2071
▁රත්නායක	-9.20915
▁මිනිස්සු	-9.2095
▁2019	-9.21024
▁මතු	-9.2105
▁ලබාගැනීමට	-9.21066
▁ක්‍රීඩක	-9.21247
▁නි	-9.21289
ූ	-9.21341
▁භාරයට	-9.21349
▁සමාන	-9.21421
▁නෙවෙයි	-9.21569
▁ව්‍යාපාරය	-9.2171
▁බෝම්බ	-9.21766
▁විස්සයි	-9.21966
▁ගාස්තු	-9.22016
▁වාර්තාවක්	-9.22325
▁පන්දුවාර	-9.22422
▁අවස්ථාවක්	-9.22455
▁හොඳින්	-9.22479
▁බිරිඳ	-9.22483
▁කෙරුණු	-9.22522
▁ආපදා	-9.22566
▁පොලිසියේ	-9.22601
ළ	-9.22647
පා	-9.2265
▁පද්ධතිය	-9.22697
▁07	-9.22845
▁වංචා	-9.22888
▁ලියාපදිංචි	-9.22923
▁පූර්ණ	-9.22981
▁අයුරින්	-9.22995
▁අනුගමනය	-9.23082
▁සහයෝගය	-9.23158
▁නිදහස	-9.232
▁නිලධාරීන්ගේ	-9.23221
▁සේවක	-9.23279
▁දක්වන	-9.23289
▁ඉතිහාසයේ	-9.23324
▁ඉතාම	-9.2345
▁රුසියානු	-9.23607
▁පෙත්සම	-9.23634
▁සිර	-9.23697
▁ඉල්ලීම	-9.2381
▁යළිත්	-9.23811
▁කොහොමද	-9.23846
▁බණ්ඩාරනායක	-9.23869
▁අති	-9.23874
▁චීනයේ	-9.23923
▁එකේ	-9.23974
▁තිස්සේ	-9.24018
▁2022	-9.24125
▁නුවරඑළිය	-9.24241
▁බාර	-9.24273
▁විදුහල	-9.24323
▁ගොඩක්	-9.24325
▁නිර්මාණ	-9.24371
▁ගන්නවා	-9.24374
යක	-9.2445
▁නොමැතිව	-9.24518
▁දිස්ත්‍රික්කවල	-9.2455
අග්‍රාමාත්‍යවරයා	-9.24649
▁ගිගුරුම්	-9.24886
▁ජයක්	-9.24888
▁විශ්වාසය	-9.24897
▁විස්තර	-9.24966
▁ප්‍රමාණවත්	-9.25033
▁සාමාජිකයන්	-9.25035
▁පොලීසියට	-9.25065
▁සුවය	-9.25175
▁බලපත්‍ර	-9.25273
▁හැකියාවක්	-9.25308
▁සාකච්ඡාවක්	-9.25479
▁නොදැවී	-9.25481
▁ප්‍රවාහනය	-9.25775
▁දිවි	-9.25852
ීය	-9.25916
▁04	-9.25989
▁මුදා	-9.26038
▁උත්සවය	-9.26045
▁2020	-9.26104
කේ	-9.26131
▁සුපිරි	-9.26228
▁ශිෂ්‍ය	-9.26271
▁ව්‍යාපෘති	-9.26315
▁අල්ලස්	-9.26438
▁ඇවිත්	-9.26529
▁ඇයි	-9.26529
▁උපරිම	-9.26576
▁රජ	-9.26647
▁ගණනක්	-9.26659
▁බලන්න	-9.26772
▁දෙස	-9.26924
▁දෙසට	-9.27052
▁වරක්	-9.27061
▁මහත්	-9.27206
▁විදියට	-9.27239
▁මත්පැන්	-9.27253
මී	-9.27308
▁අරගෙන	-9.27362
▁කියල	-9.27528
ලය	-9.27574
▁වැඩසටහන්	-9.27639
▁කැඳවා	-9.27765
▁කම්කරු	-9.27805
▁වරට	-9.27857
▁හතර	-9.27936
▁අඩි	-9.2797
▁වීමේ	-9.28163
▁මුලින්ම	-9.28178
▁පමණයි	-9.28217
▁02	-9.28284
▁තුළදී	-9.28445
▁බී	-9.28449
▁තොගය	-9.28489
▁ප්‍රතිචාර	-9.28527
▁සබඳතා	-9.28632
▁දෙකකට	-9.28746
▁තාක්ෂණය	-9.28747
▁ධුරය	-9.28855
▁මේවා	-9.28866
▁අර	-9.28982
ික	-9.29104
▁පාරිභෝගික	-9.29153
▁ඉන්දියානු	-9.29225
▁දිනයේදී	-9.29307
▁ටී	-9.29323
▁කා	-9.29347
▁කාර්යාල	-9.29435
▁දෙකක	-9.29455
ආර්	-9.29501
▁දරුවන්ට	-9.2952
▁දඬුවම්	-9.29552
▁ස්ථානාධිපති	-9.29553
න්ගේ	-9.29586
▁සුළං	-9.29674
▁ආසන	-9.29774
▁ගොවි	-9.29794
▁මීටර්	-9.29835
▁ළඟ	-9.29857
▁නිසාය	-9.29861
’’	-9.30017
▁විටත්	-9.30063
▁විසි	-9.30293
▁ඊ	-9.30422
ගොඩ	-9.30636
වීමට	-9.3069
▁වටිනා	-9.30725
▁යෑම	-9.30727
▁සීමාව	-9.30752
පුර	-9.30775
නම්	-9.30801
▁පදනම්	-9.30811
▁ආදායම	-9.30848
ග්	-9.30874
▁මොවුන්	-9.30933
▁වෙබ්	-9.31042
▁ගෝලීය	-9.3108
▁ගන්නේ	-9.31284
▁එතුමා	-9.31316
▁රඳවා	-9.31326
▁2023	-9.31395
▁රංජිත්	-9.31461
වු	-9.31506
▁ක්‍රියාවලිය	-9.31707
▁පිටත්ව	-9.31781
ගත්	-9.31783
▁අයිතිවාසිකම්	-9.31803
▁බලශක්ති	-9.31939
▁දුර	-9.32145
වත්ත	-9.32213
▁බිහි	-9.32248
▁කිහිපයක	-9.32285
▁නියෝගයක්	-9.32348
▁අජිත්	-9.32356
▁තීන්දුව	-9.32369
▁08	-9.32448
ඩී	-9.3254
▁තාවකාලිකව	-9.32656
▁තීරණයක්	-9.32712
කෝ	-9.32757
▁සරත්	-9.32771
▁කමිටු	-9.32779
▁දායක	-9.32785
▁ආපසු	-9.32893
▁දිවයිනට	-9.32939
▁ආසාදිත	-9.32965
▁නැත්නම්	-9.32969
▁මාරු	-9.33014
▁ඉදිරිපිට	-9.33139
▁විපක්ෂයේ	-9.33155
▁ප්‍රකාශය	-9.33208
▁කිහිප	-9.33251
▁අතුරු	-9.33294
▁නියෝගය	-9.33441
▁තොරතුරක්	-9.3346
▁ඇතුළත	-9.33575
▁ඉදිකිරීම්	-9.33717
▁මිනිසුන්	-9.33761
▁ඉහත	-9.33766
▁එයා	-9.33832
▁ලැබ	-9.33975
▁අයවැය	-9.34013
▁දිගින්	-9.34107
▁මතය	-9.34131
▁උන්වහන්සේ	-9.34233
▁ඔක්තෝබර්	-9.34264
1	-9.34275
▁අනාවරණ	-9.34425
▁ප්‍රජාතන්ත්‍රවා	-9.34501
▁අමතක	-9.34519
වලදී	-9.34635
▁දන්වා	-9.34678
▁ප්‍රශ්නයක්	-9.34742
▁ක්‍රම	-9.34744
▁තිබීම	-9.34774
▁ජනප්‍රිය	-9.34898
▁බරපතල	-9.34936
▁පෙරවරු	-9.35208
▁අනතුරට	-9.35215
ඩ	-9.3529
▁විශේෂයෙන්ම	-9.35361
▁පැරණි	-9.35439
▁ස්වාධීන	-9.35586
▁අනුමත	-9.35594
▁දියත්	-9.35633
▁පාපන්දු	-9.35714
▁ලිපි	-9.35783
▁හමු	-9.35932
▁කිරිමට	-9.36029
▁හැටන්	-9.36281
▁නිවැරදි	-9.36308
▁ගිවිසුම	-9.36309
▁මානසික	-9.36404
▁පැවසුවේය	-9.36822
▁කලාපයේ	-9.36823
▁භූ	-9.36876
▁සිටිය	-9.36899
▁ජේ	-9.36958
▁පුංචි	-9.36969
▁බලන	-9.37085
▁ත්‍රස්ත	-9.37106
▁විසඳුම්	-9.3715
▁වෙරළ	-9.37176
▁නොවූ	-9.37206
▁කොට්ඨාස	-9.37225
▁යානා	-9.37278
▁එකඟ	-9.37356
▁පවරා	-9.37409
▁විදේශීය	-9.37496
සු	-9.37514
▁අයිතිය	-9.37531
▁සිටීම	-9.37832
▁කිරීමක්	-9.37839
▁සාමාජිකයින්	-9.37878
▁අර්ධ	-9.37898
▁ව්‍යාජ	-9.37904
▁අපනයන	-9.37907
▁බැංකුවේ	-9.37981
යන්ට	-9.37991
▁සන්ධානය	-9.38026
▁රතු	-9.3812
▁අයුරු	-9.38314
▁ඇත්ත	-9.38324
මු	-9.3849
▁සංගීත	-9.38551
▁පුද්ගලයකු	-9.38569
යකට	-9.38653
▁පරීක්ෂණයක්	-9.38685
▁මධ්‍යස්ථාන	-9.38785
▁වතුර	-9.38876
▁තොග	-9.38929
ෙන	-9.38957
ෂ්	-9.39005
▁70	-9.39031
▁ඉරිදා	-9.39199
▁බලවේගය	-9.39206
▁සහිතව	-9.39209
▁වර්තමාන	-9.39217
▁ප්‍රදේශයට	-9.3933
ජා	-9.39443
▁පුද්ගලයෙක්	-9.39483
▁පදිංචිව	-9.39537
▁සංස්කෘතික	-9.39613
▁මහෙස්ත්‍රාත්	-9.39662
▁ර	-9.39704
▁2018	-9.39717
▁තරඟ	-9.39765
▁දි	-9.39767
▁වාර	-9.39788
▁ආනන්ද	-9.39891
▁උදේ	-9.39894
▁උදෙසා	-9.39973
▁අඛණ්ඩව	-9.40002
▁පෙන්නුම්	-9.40034
▁නොවෙයි	-9.40045
▁අයෙකු	-9.4025
▁නායකයන්	-9.40394
▁ආකාරයෙන්	-9.40431
▁පාලක	-9.40521
ලයක්	-9.40585
තිහාසික	-9.40626
▁රජු	-9.40627
▁එන්නත	-9.4065
▁සැබෑ	-9.40717
▁අලුයම	-9.40749
▁වෑන්	-9.40768
▁35	-9.40787
▁චිත්‍රපට	-9.40847
▁දරු	-9.40938
▁දඹුල්ල	-9.40989
▁හ	-9.4114
▁ලබාගත	-9.41165
▁හේරත්	-9.41224
▁නිසාම	-9.41236
▁අහෝසි	-9.41292
▁)	-9.4139
▁ආණ්ඩුවක්	-9.41526
▁ඇමෙරිකානු	-9.4157
.”	-9.41597
▁සි	-9.41617
▁මරුට	-9.41641
▁උත්සව	-9.41682
▁දිස්ත්‍රික්කය	-9.41832
▁තුරු	-9.41892
වෙලා	-9.42008
▁දිගු	-9.42062
වරු	-9.42231
▁කීවේ	-9.42268
තු	-9.42317
2	-9.42317
▁විභාගයට	-9.42356
▁වෙළඳ	-9.4237
▁පිළිබදව	-9.4244
▁අක්කර	-9.4255
▁යුද්ධය	-9.42721
▁ට්‍රම්ප්	-9.42757
▁නිරීක්ෂණය	-9.42805
▁මැදිහත්	-9.42858
▁විපක්ෂය	-9.42912
▁යානය	-9.42967
වරුන්	-9.43029
▁විශ්‍රාම	-9.43132
▁අයෙක්	-9.43133
▁සේවයට	-9.43139
▁අධිකාරි	-9.4319
▁පොඩි	-9.43196
▁ලක්වූ	-9.43248
▁දේශපාලනය	-9.43391
▁රියදුරු	-9.43439
▁ත්‍රිරෝද	-9.43474
▁අංශයට	-9.43498
▁ආසන්නයේ	-9.43578
▁ගින්න	-9.43692
▁මන්ත්‍රි	-9.43705
▁බෝ	-9.43726
නය	-9.4389
▁මි	-9.43981
▁පත්‍ර	-9.44067
▁තැබීම	-9.44132
▁තිබුණ	-9.44159
(	-9.4416
▁ගමේ	-9.44212
▁ප්‍රදර්ශනය	-9.44264
▁දියණිය	-9.44333
ෙත්	-9.44348
▁පුද්ගල	-9.44355
ෙයි	-9.44362
▁වර්ගයේ	-9.44541
▁වැලි	-9.44609
▁තමාට	-9.44635
▁කළාය	-9.44663
▁ගංජා	-9.44687
▁09	-9.44705
▁සමාජයේ	-9.44728
▁වාසිය	-9.44731
රෝ	-9.44755
▁ආශ්‍රිත	-9.44762
5	-9.44798
▁දිනේෂ්	-9.44823
▁තරගයේදී	-9.44939
▁හේතුවක්	-9.44958
▁දැරිය	-9.45002
▁දේව	-9.45005
▁කරති	-9.45005
▁හමුදාවේ	-9.45016
▁පැවැත්වීම	-9.4504
▁නිවේදනයේ	-9.45225
▁නාගරික	-9.45264
▁මඟ	-9.45415
▁අධිකාරියේ	-9.45559
▁අමාත්‍යාංශ	-9.45617
▁ඉතාමත්	-9.45761
▁ලොරි	-9.45821
▁කොට්ඨාසය	-9.45823
▁කරගන්න	-9.45825
▁පවසති	-9.4584
▁පරිපාලන	-9.45843
▁අවස්ථාවක	-9.45871
▁මරණය	-9.45901
▁ඇත්තටම	-9.45964
▁ජී	-9.45988
▁නිලධාරියා	-9.46006
▁කරගැනීමට	-9.46044
▁මධ්‍ය	-9.46117
කම්	-9.46162
▁රෝහණ	-9.46183
▁බලයට	-9.46235
▁කපා	-9.46338
▁සැලකිය	-9.46446
▁හමුවකට	-9.46518
▁මරා	-9.466
ණි	-9.46636
▁විරුද්ධව	-9.4664
▁මට්ටමේ	-9.46673
▁ලබන්නේ	-9.46772
▁එවකට	-9.46793
▁මණ්ඩලයට	-9.46832
▁ප්‍රහාරයක්	-9.46845
▁ඇතිවන	-9.46853
▁හඬ	-9.46881
▁ඇතිවූ	-9.46967
▁එංගලන්ත	-9.47005
▁මොහු	-9.47045
වෙන	-9.47075
▁ආවරණය	-9.47152
▁එදින	-9.47179
▁මර්දන	-9.47189
▁සාමාන්‍යයෙන්	-9.4719
▁සිනමා	-9.472
▁සුබ	-9.47248
▁මොහොමඩ්	-9.47251
▁ඉදි	-9.47298
▁අවසාන	-9.47313
▁ආවා	-9.47336
▁වසන්ත	-9.47394
▁කිරීමත්	-9.47416
▁ගන්නට	-9.47582
▁වැඩපිළිවෙළ	-9.47611
▁විරුද්ධ	-9.4763
▁ආශ්‍රිතව	-9.478
▁එබැවින්	-9.47832
▁තාක්ෂණික	-9.47844
▁2024	-9.47849
▁ලෙසද	-9.47862
▁200	-9.47895
▁පිටව	-9.47943
▁ඉල්ලීම්	-9.47986
යන්ගේ	-9.48041
▁සභාවට	-9.48052
▁ඇතිව	-9.48063
20	-9.48183
▁දිග	-9.482
▁සුවිශේෂී	-9.48231
න්න	-9.48292
▁සැකකාර	-9.483
▁වසංගත	-9.48336
▁උතුර	-9.48363
▁නොකර	-9.48365
▁නීතිමය	-9.48395
එල්	-9.48398
▁කරගත	-9.48425
▁ගමගේ	-9.48528
▁පිළිතුර	-9.48654
▁අනතුරකින්	-9.48707
▁පැමිණිල්ලක්	-9.48737
▁තේරුම්	-9.48824
▁ආදරය	-9.4886
▁පැ	-9.4886
▁සම්පූර්ණයෙන්ම	-9.48871
▁දෙනෙකුට	-9.48871
▁දර්ශන	-9.48999
▁කරගනිමින්	-9.49009
▁රෝගී	-9.49088
▁විතර	-9.49222
▁වීමත්	-9.49236
▁පහසු	-9.49282
▁දැමීම	-9.49297
▁01	-9.49371
▁හමුවී	-9.49398
▁සාධාරණ	-9.4941
▁පිළිබද	-9.49476
▁ව්‍යාපාරික	-9.49549
▁පූජ්‍ය	-9.496
▁මාතලේ	-9.49655
▁ව්‍යවස්ථාව	-9.49675
▁මිලට	-9.49696
▁අරමුණින්	-9.4975
▁සිදුවීම්	-9.49813
බ්	-9.4988
▁යෙදී	-9.49891
සන්	-9.49903
▁පනවා	-9.49915
▁පෙරේදා	-9.49927
ෆ්	-9.49988
ටම	-9.50045
▁නීතිපතිවරයා	-9.5005
▁න්	-9.50067
▁මීගමුව	-9.50167
▁අරමුදල	-9.50178
හු	-9.50181
ලේ	-9.50229
දු	-9.50379
▁එතකොට	-9.50396
▁මග	-9.50434
▁ජයසූරිය	-9.50554
▁බැලීම	-9.50558
▁අතුරුදන්	-9.50671
▁ඉතිහාසය	-9.50674
▁ප්‍රසන්න	-9.50726
▁අදහස	-9.50729
▁නිලධාරි	-9.50783
▁ගැනීමෙන්	-9.50836
▁ආදිය	-9.50932
▁නිරෝධායන	-9.51064
▁වර	-9.51091
▁අධිකාරී	-9.51141
▁ඕනේ	-9.51154
▁පීඩාවට	-9.51193
▁ප්‍රසිද්ධ	-9.51217
▁උණුසුම්	-9.51257
▁පල	-9.51308
▁ජනාධිපතිවරණය	-9.51361
▁නවතා	-9.51361
වර	-9.51417
▁සේවකයන්	-9.51438
▁රස	-9.51514
▁දීලා	-9.51546
▁සේවකයින්	-9.51589
▁ඇ	-9.51614
▁ඉක්මවා	-9.51646
▁නාමල්	-9.51678
▁වෙනසක්	-9.51844
▁අගමැතිවරයා	-9.51852
9	-9.5191
▁කාලේ	-9.51914
යකින්	-9.51933
▁සිදුකිරීමට	-9.52011
▁ලිංගික	-9.52187
▁ලබමින්	-9.52254
▁වර්ජනය	-9.52265
▁වුවහොත්	-9.52268
▁පොරොන්දු	-9.52374
▁ජනතාවගෙන්	-9.52401
▁නිතර	-9.52402
▁කෙටුම්පත	-9.5241
▁ලබාගැනීම	-9.52544
▁මස්	-9.52574
-19	-9.52663
▁මොහොතේ	-9.52675
▁පොළොන්නරුව	-9.52838
පි	-9.52965
▁ඩෙංගු	-9.52985
▁අල්	-9.53023
▁වර්ෂයේ	-9.53286
▁ක්ෂේත්‍රයේ	-9.53349
▁පොත්	-9.53356
▁සාපේක්ෂව	-9.53393
▁දිස්ත්‍රික්ක	-9.53404
7	-9.53435
▁වුණු	-9.53689
ටි	-9.5375
▁?	-9.53772
වල්	-9.53786
▁පළාත්වල	-9.538
▁පුවත්	-9.538
▁අම්මා	-9.53801
▁තවද	-9.53804
0	-9.53878
▁වැඩපිළිවෙළක්	-9.53905
▁පැමිණීමට	-9.53954
▁විද්‍යාව	-9.54028
▁බැසිල්	-9.5408
▁ලක්ෂණ	-9.54081
▁රාජකාරි	-9.54082
▁අනතුරින්	-9.54116
▁ඇමැතිවරයා	-9.54176
▁කන්ද	-9.5422
▁වර්තමානයේ	-9.54268
▁පත්විය	-9.54308
▁ගරු	-9.54313
▁පළමුව	-9.54316
▁2017	-9.54333
▁ඉංග්‍රීසි	-9.54395
කුත්	-9.544
▁එළියට	-9.54464
▁ධර්ම	-9.54496
▁කාරණා	-9.54531
▁2021	-9.54544
▁නිවාඩු	-9.54552
ුණු	-9.54584
▁අධි	-9.54593
3	-9.546
▁නාට්‍ය	-9.54606
▁දැනටමත්	-9.54656
▁සුව	-9.54794
▁කමිටුවේ	-9.54869
▁සාධක	-9.54891
▁ලැබුණේ	-9.54907
▁45	-9.54948
▁දස	-9.54992
▁ලේ	-9.5503
▁දැනුම	-9.55035
▁අත්දැකීම්	-9.55089
▁ඒකකයේ	-9.55093
▁හෙයින්	-9.55142
▁නෙමෙයි	-9.55182
▁කොළ	-9.55208
▁ජුනි	-9.55235
▁බුදු	-9.5536
▁ව්‍යාප්ත	-9.55432
▁පරිමාණ	-9.55445
▁යොදවා	-9.55515
▁ගැටලුව	-9.55534
▁ජනාධිපතිතුමා	-9.55558
▁අරන්	-9.55626
▁කොටස	-9.5568
▁ඛනිජ	-9.55856
▁අඩංගු	-9.55916
▁හතරේ	-9.5592
▁යටත්	-9.56001
▁ගස්	-9.56114
▁ලෝකය	-9.56136
▁මරණයට	-9.56165
▁රාජකීය	-9.56191
▁බලපෑමක්	-9.56225
▁පිණිස	-9.56299
▁මැති	-9.56321
▁අප්‍රිකානු	-9.56335
6	-9.56336
▁අදියර	-9.56385
▁මෙන්ඩිස්	-9.56419
▁2016	-9.5662
▁සමන්	-9.5662
‘	-9.56641
▁කුඩු	-9.56646
▁රේගු	-9.56668
▁වාණිජ	-9.5669
▁විශාලතම	-9.5674
▁අයගේ	-9.56856
▁කලාපය	-9.56869
▁සැමියා	-9.56915
▁කෑම	-9.57029
4	-9.57088
▁80	-9.57115
ඩා	-9.57143
▁අභ්‍යන්තර	-9.57286
▁සංවිධායක	-9.57321
වෙන්	-9.57353
▁ගෙන්වා	-9.57354
▁පළාත	-9.57421
▁කර්මාන්තය	-9.57521
▁දුටු	-9.57534
▁ජනාධිපතිවරයාගේ	-9.57578
▁ලිපිය	-9.57689
්නේ	-9.57705
▁කිසිවක්	-9.57761
▁කෙසේවෙතත්	-9.57777
▁පරිගණක	-9.57858
▁සන්ධානයේ	-9.57878
▁ඝාතනයට	-9.57886
▁හය	-9.57908
▁සල්ලි	-9.57909
▁ජෙනරාල්	-9.57956
බා	-9.57989
▁වැඩක්	-9.5799
▁සතුන්	-9.58033
▁බලවේගයේ	-9.58095
▁කරුණාරත්න	-9.58136
▁අට	-9.58198
▁කිරිම	-9.58199
▁විමසා	-9.58252
▁මාසය	-9.58333
▁කුමන	-9.58403
▁අධිවේගී	-9.58506
▁ප්‍රදේශයෙන්	-9.58564
▁හමුවක්	-9.58609
▁වසංගතය	-9.58627
▁රංගන	-9.58693
▁ආවේ	-9.58712
▁මී	-9.58767
පිළිතුර	-9.58865
▁සිව්	-9.58865
▁ගීත	-9.5902
▁යුරෝපා	-9.59082
▁ඒකට	-9.59105
▁අරමුණු	-9.59152
▁අවශ්‍යතා	-9.59156
▁තිදෙනෙකු	-9.59254
▁බිම්	-9.59394
▁කිසි	-9.59425
▁75	-9.59497
▁එළවළු	-9.59506
▁ගැටුම්	-9.59566
▁දහස්	-9.59691
▁දරුණු	-9.59812
ගා	-9.59957
▁පදනම	-9.59958
▁ශ‍්‍රී	-9.60011
▁කළමනාකරණය	-9.60018
▁රුවන්	-9.60051
කො	-9.60114
▁සංශෝධන	-9.60161
▁පූජා	-9.6017
▁සමගින්	-9.60232
▁වන්නට	-9.60275
▁තත්වය	-9.60397
▁ගැටලුවක්	-9.60545
▁සමුළුව	-9.6058
▁සිටීමට	-9.60804
▁එකී	-9.60838
සේ	-9.60901
▁ජනපද	-9.6101
▁වේගය	-9.61055
▁වටා	-9.61074
8	-9.61081
▁ඝාතන	-9.61105
දැයි	-9.61112
හා	-9.61138
▁වටිනාකම	-9.61161
▁බිය	-9.6121
ජී	-9.61214
▁ක්‍රීඩකයන්	-9.61251
▁වෙති	-9.61267
ච	-9.61312
▁බැලූ	-9.61362
▁නැද්ද	-9.61413
▁දක්ෂ	-9.61418
▁පක්ෂයට	-9.61432
▁ශක්තිය	-9.6145
▁වීඩියෝ	-9.61468
▁නෞකාව	-9.615
▁ප්‍රතිසංස්කරණ	-9.61556
▁චිත්‍රපටය	-9.61585
▁තත්ත්වයන්	-9.61607
▁ජීවන	-9.61693
නො	-9.61699
▁ඒමට	-9.6173
▁ලිපියක්	-9.61786
▁මහත්තයා	-9.61798
▁ගනී	-9.6181
▁කලාප	-9.61989
බි	-9.62029
▁බැලීමට	-9.62332
▁නේද	-9.62396
▁මහාධිකරණ	-9.62403
යේදී	-9.62416
▁ඇස්	-9.625
▁රිමාන්ඩ්	-9.62526
▁වාර්තාවේ	-9.62552
▁උපත	-9.62557
කළ	-9.62617
▁මෙයට	-9.62673
▁ඩි	-9.627
▁අධ්‍යයන	-9.62724
▁ළඟා	-9.62728
▁පත්වී	-9.62808
▁වෙනම	-9.62811
▁හිස	-9.62836
▁ගොවීන්	-9.62846
▁රටක	-9.62855
▁මහලේකම්	-9.62868
ලී	-9.6293
▁බාල	-9.63017
▁දරුවන්ගේ	-9.63025
▁පැවැත්වූ	-9.63046
▁කු	-9.63054
▁තනි	-9.63072
▁චරිත	-9.6312
▁ඇඳුම්	-9.63124
▁තිබිය	-9.63131
▁අනු	-9.63145
▁ටොන්	-9.6317
▁ලේඛන	-9.63287
▁හලාවත	-9.63294
▁පශ්චාත්	-9.63311
▁මාර්ගයෙන්	-9.63366
▁කිහිපය	-9.63387
▁අභියෝග	-9.63515
▁කාර්යය	-9.63523
▁බැහැර	-9.63542
▁උදා	-9.63626
▁බැඳුම්කර	-9.63708
රී	-9.63741
▁අම්පාර	-9.63746
▁සර්	-9.63754
▁දිවුරුම්	-9.63804
▁ජ	-9.63848
▁මාව	-9.63902
▁මන්නාරම	-9.64068
▁අධිකරණයේ	-9.64124
▁මධ්‍යස්ථානයේ	-9.64154
▁ගබඩා	-9.64195
▁රුසියාව	-9.64235
▁උඩ	-9.64265
▁පලා	-9.6433
▁ඉක්මනින්	-9.64428
▁අවලංගු	-9.64539
▁පවසමින්	-9.64557
▁භාවිතය	-9.64598
▁වන්දි	-9.64608
▁ආරාධනා	-9.64644
▁දෙදෙනකු	-9.64653
▁තාක්ෂණ	-9.64669
▁සේනානායක	-9.64675
▁ගෙවීමට	-9.64677
▁ප්‍රදේශවාසීන්	-9.64695
▁විනිමය	-9.64902
▁පවසන	-9.64966
▁හිමිව	-9.6499
▁ලැබුණා	-9.65007
▁ගැටී	-9.65019
▁පාරේ	-9.65115
▁දේපළ	-9.65154
▁ඔප්පු	-9.65158
▁ග්‍රාම	-9.65299
▁වෛද්‍යවරුන්	-9.65313
▁පාවිච්චි	-9.65324
▁වාර්ෂික	-9.65391
▁ඇතුලු	-9.65445
▁පාසලේ	-9.65495
▁බිත්තර	-9.65516
▁පිටුපස	-9.65592
▁බ	-9.65593
▁අවශ්‍යතාව	-9.65677
▁බංග්ලාදේශ	-9.65907
▁මැණික්	-9.66016
▁තෙවැනි	-9.6616
කාර	-9.66169
▁නොමැත	-9.66255
▁ප‍්‍රධාන	-9.66271
▁අවදානමක්	-9.66275
▁ආරක්ෂිත	-9.66304
ලෝ	-9.66395
▁කොදෙව්	-9.66399
▁දායකත්වය	-9.66425
▁බිම	-9.66441
▁රාජිත	-9.6651
▁රණසිංහ	-9.66518
▁පුතා	-9.66559
▁මෙ	-9.66731
▁නියෝජිතයින්	-9.66849
▁දෙපාර්තමේන්තුවට	-9.66926
▁ක්‍රීඩාංගණයේදී	-9.67004
▁දේහය	-9.6701
▁ලැබු	-9.67038
▁කෑගල්ල	-9.67211
▁සිද්ධ	-9.67231
▁ගෙවා	-9.67259
▁මොන	-9.67285
▁වනජීවී	-9.673
කරණය	-9.67344
▁වහා	-9.67371
▁පළාත්වලත්	-9.67386
▁හමුව	-9.67422
▁පානය	-9.67451
▁බලපෑම	-9.6747
▁න	-9.67627
▁පෙත්සම්	-9.67632
▁පි	-9.67645
▁හින්දු	-9.67671
▁උල්ලංඝනය	-9.67769
▁32	-9.678
▁බන්දුල	-9.67819
▁රහස්	-9.67854
▁ලද්දේ	-9.67934
ො	-9.67937
▁නියෝජිත	-9.6798
▁දළදා	-9.67983
වෝ	-9.67986
▁නා	-9.68026
▁ප්‍රතිපාදන	-9.68028
▁දෙදෙනෙක්	-9.68091
▁එවිට	-9.68136
▁බවටයි	-9.68141
▁බඩු	-9.68157
▁උතුරේ	-9.68256
▁අල්ලා	-9.68355
▁ඉහළට	-9.68432
▁අධ්‍යයනය	-9.68442
▁එමගින්	-9.68491
▁පිරිසකට	-9.68554
▁යතුරු	-9.68709
▁යන්ත්‍ර	-9.68756
▁මගීන්	-9.68783
▁තැබීමට	-9.68801
▁ඉන්දියාවට	-9.68858
▁පදිංචිකරුවන්	-9.68869
▁පහ	-9.68947
▁විතරක්	-9.68964
▁දෙනු	-9.68971
▁තරගයට	-9.68977
▁සේනාරත්න	-9.69039
▁යූ	-9.69129
▁කිලෝමීටර්	-9.69136
▁කතරගම	-9.69164
▁නියෝජිතයන්	-9.69179
▁එළඹෙන	-9.6924
▁යාත්‍රා	-9.69277
▁සිකුරාදා	-9.69277
▁කරගැනීම	-9.69489
▁විනාඩි	-9.69537
▁පැමිණිල්ල	-9.69607
▁ශ්‍රි	-9.69607
▁ඉහළම	-9.69687
▁සා	-9.69774
▁ඉගෙන	-9.69865
ජි	-9.6988
▁කඳු	-9.69978
▁පීරිස්	-9.69998
▁උපන්	-9.7
▁අන්	-9.70185
▁අපේක්ෂක	-9.70202
▁ඩුබායි	-9.70273
▁සිදුවන්නේ	-9.70312
▁පෙ	-9.70352
▁සත්‍ය	-9.70429
▁පැමිණීම	-9.70493
▁නැතුව	-9.7062
▁රථවාහන	-9.70624
▁සම්මානය	-9.70629
▁දන්නවා	-9.70819
▁500	-9.70853
▁ලදි	-9.70991
▁සාමය	-9.71009
▁වැව	-9.71091
▁පාසල	-9.71131
▁සීනි	-9.71179
නෙ	-9.71233
▁ලැබෙන්නේ	-9.71279
▁කොටි	-9.71301
▁ජගත්	-9.71353
▁විනය	-9.7139
▁ලැබීම	-9.71412
▁ත්‍රිකුණාමලය	-9.71428
▁විමල්	-9.71447
▁දුරකතන	-9.71538
කරන	-9.71566
▁පානදුර	-9.71566
▁විසඳුමක්	-9.71622
▁නාම	-9.7164
▁ස්ථාවර	-9.71697
▁සහගත	-9.7182
▁තාවකාලික	-9.71851
▁විතරයි	-9.71865
ඳ	-9.72011
▁වෘත්තිය	-9.72103
▁මුල	-9.72147
▁අධිපති	-9.7224
ශ	-9.72305
▁නිමල්	-9.72381
▁වේගයෙන්	-9.72471
▁වැඩබලන	-9.7251
▁පත්වන	-9.72526
▁දකුණ	-9.72615
▁කියමින්	-9.72667
▁එන්	-9.72688
▁නැතැයි	-9.72703
යකි	-9.72849
▁මින්	-9.72858
▁පැවැත්විණි	-9.72862
▁පෙනෙන	-9.72918
▁රාජ	-9.72993
▁කැප	-9.73054
▁බලතල	-9.731
▁ආකාරයේ	-9.73141
▁හිටියා	-9.73148
▁පැහැර	-9.73164
▁කවුද	-9.73167
▁48	-9.73206
ෂ	-9.73213
▁ගනුදෙනු	-9.73216
▁තුන	-9.73457
▁ස්ථානවල	-9.73491
▁දැයි	-9.735
▁විමසීම	-9.73652
▁සේවාව	-9.73675
▁විශිෂ්ට	-9.73753
▁දමන	-9.73916
▁සියලූ	-9.73939
අයි	-9.7403
▁ජනාධිපතිවරයාට	-9.74144
▁මැතිවරණයට	-9.74148
▁කරුණක්	-9.7416
▁විමර්ශනය	-9.74222
▁භාෂා	-9.74306
▁තරුණයා	-9.74426
▁විධිමත්	-9.74448
▁සැලකිල්ලට	-9.74449
ද්	-9.74458
▁වෙළෙඳපොළ	-9.7446
▁චෝදනාව	-9.74472
▁සංස්ථාව	-9.74473
▁හැටි	-9.74523
▁රැස්වීම	-9.7454
▁තියුණු	-9.74551
▁විටින්	-9.74613
▁උළෙල	-9.74615
▁කෑ	-9.74663
▁පවතිනවා	-9.74685
▁ගම්	-9.74699
▁රසායනික	-9.7471
▁ෆොන්සේකා	-9.74787
▁ආයතනවල	-9.74817
▁අන්තර්ජාතික	-9.74885
▁මාළු	-9.74929
▁මෙවන්	-9.74929
▁සිද්ධියක්	-9.74981
▁රාත්‍රි	-9.75093
▁අරාබි	-9.75104
▁උපදේශක	-9.75124
▁ධුර	-9.75274
▁ජෝන්	-9.75404
▁තාත්තා	-9.75408
▁ඕ	-9.75411
▁ඇඳිරි	-9.7543
කරුවන්	-9.7551
▁දළ	-9.75624
▁ලැබෙනවා	-9.75658
විට	-9.75687
....	-9.75694
▁ජනරාල්වරයා	-9.75902
▁පාලම	-9.75921
▁පුද්ගලික	-9.75934
▁ලැබිණි	-9.76028
▁ඉංජිනේරු	-9.76033
▁නීතීඥ	-9.76199
වද	-9.76251
▁විසිනි	-9.76271
▁කොරියානු	-9.76272
▁පරීක්ෂණය	-9.76334
▁ගුණසේකර	-9.76448
▁සිටම	-9.76506
▁හුවමාරු	-9.76576
▁විමර්ශනයක්	-9.76585
▁හිත	-9.76615
ටා	-9.76748
▁මට්ටම	-9.7677
▁විද්‍යාල	-9.76775
▁ප්‍රමාද	-9.76906
▁යවා	-9.76912
▁ප්‍රදේශවලට	-9.7699
▁ප්‍රහාරයෙන්	-9.77015
▁සමගාමීව	-9.77083
▁සමත්විය	-9.77087
▁අලුතින්	-9.77142
▁බලකාය	-9.77197
▁කටයුතුවලට	-9.773
▁දෙකම	-9.7732
▁තරගාවලියට	-9.77328
▁අගනුවර	-9.77342
▁අපේක්ෂකයා	-9.77379
▁ඉඳලා	-9.77417
▁නීතිපති	-9.77431
▁භූමිය	-9.77482
▁තරඟය	-9.77576
මට	-9.77583
▁විකාශය	-9.77762
ආ	-9.77771
▁දෛනික	-9.77774
▁අග	-9.77778
▁එනවා	-9.77846
▁වසමේ	-9.7786
▁කොහොම	-9.77868
වෙයි	-9.77936
▁කළත්	-9.78026
▁විශ්වවිද්‍යාලය	-9.78083
▁නවසීලන්ත	-9.78091
මන්	-9.78171
▁කටයුතුවල	-9.78187
▁එන්නේ	-9.78225
▁භූමි	-9.78253
▁ශරීර	-9.78255
▁බේරා	-9.78324
▁කාර්මික	-9.78399
යෙහි	-9.78483
▁පරාජයට	-9.78568
ඉ	-9.78671
▁කඩුල්ල	-9.78761
▁තේරීම්	-9.78764
▁සොරකම්	-9.78796
▁33	-9.78911
▁බලවත්	-9.78959
▁කැපී	-9.78983
▁යෝජනාවක්	-9.79035
▁කිරීමටත්	-9.7942
▁ජයසිංහ	-9.79442
▁වග	-9.79452
භාවය	-9.79473
▁දාලා	-9.79507
▁ගොඩනැගිලි	-9.79537
▁දන්නේ	-9.79541
▁රාජ්‍යයේ	-9.79554
▁සාකච්ඡාව	-9.79594
▁උදය	-9.79606
▁වියේ	-9.79619
▁ක්‍රමයක්	-9.79645
▁ප්‍රංශ	-9.79686
▁ජනමාධ්‍ය	-9.7969
ලූ	-9.79785
▁නිම	-9.799
▁නොවීම	-9.79903
ඊ	-9.8003
▁ඉලක්කය	-9.80038
▁ලී	-9.80143
පිටිය	-9.80152
වයි	-9.80223
▁කෙරුණා	-9.80224
▁හිස්	-9.80393
▁සඳුදා	-9.80423
▁කො	-9.80448
▁හමුදාපති	-9.80493
▁රැසකට	-9.80507
▁ටිකක්	-9.80533
▁බැස	-9.80598
▁ගැටීමෙන්	-9.80599
▁චරිතය	-9.80612
▁සං	-9.80635
“	-9.80898
▁ඇතැයිද	-9.80935
▁එවන්	-9.80943
ඹ	-9.81043
▁තිබිණ	-9.81094
▁කමිටුවක්	-9.81136
▁කියලයි	-9.81161
▁ප්‍රජාව	-9.81175
▁හතරක්	-9.81211
▁ඒවායේ	-9.81287
▁අවහිර	-9.8129
▁උණ	-9.81319
▁රි	-9.81346
▁මෙහෙයුම	-9.81351
වරයෙකු	-9.81364
▁තරගයෙන්	-9.81379
▁නිරතව	-9.81456
▁සැපයුම	-9.81625
▁ක්‍රියාකාරකම්	-9.81712
▁හදන්න	-9.81748
▁ප්‍රාන්තයේ	-9.81801
▁දිසා	-9.81866
▁කරන්නැයි	-9.81901
▁සංගම්	-9.81954
වාදී	-9.82136
▁අවදානම	-9.82169
▁ඒකක	-9.82184
▁යොමුකර	-9.8223
▁මුහුදේ	-9.82251
▁වට	-9.82282
▁අමතර	-9.82304
▁තනතුරු	-9.82307
▁පිළිකා	-9.82335
▁පහරදුන්	-9.82415
▁කිව්වේ	-9.8257
▁නිසයි	-9.82586
▁පොලිස්පතිවරයා	-9.82728
▁රණතුංග	-9.82747
▁දෙ	-9.82759
ගන්න	-9.82891
▁පාකිස්තාන	-9.82952
▁සිහිපත්	-9.82997
▁සාමාජික	-9.83002
▁ආයුධ	-9.83062
▁2014	-9.83084
▁වනවිටත්	-9.83085
▁90	-9.83218
▁පන්ති	-9.8324
▁අයිස්	-9.83309
වීමෙන්	-9.83331
▁නිලධාරීහු	-9.83361
ළු	-9.83386
▁තොර	-9.83402
▁ඔලිම්පික්	-9.83434
▁දුෂ්කර	-9.83443
▁පුරාවිද්‍යා	-9.83503
▁ඊළඟ	-9.83561
▁දූෂණය	-9.83563
▁හිමිකර	-9.83579
ුවා	-9.83624
▁විජිත	-9.83746
▁මාධ්‍යවේදීන්	-9.83776
▁හිමියන්ගේ	-9.83779
▁රැක	-9.83824
▁පහක්	-9.83917
▁පිහිටුවා	-9.83921
▁උදව්	-9.83931
▁අත්පත්	-9.83981
▁සටහන	-9.84069
▁පරිසරය	-9.84175
▁ප්‍රධානී	-9.84216
▁ා	-9.84237
▁36	-9.84247
▁ඩීසල්	-9.84247
▁සමීප	-9.84269
▁මගී	-9.84279
▁300	-9.84281
▁චන්ද්‍රිකා	-9.84366
▁අවදානම්	-9.84474
▁නායකයින්	-9.84543
▁කිව	-9.84699
▁දීමේ	-9.84702
▁ක්‍රමවේදය	-9.84709
▁පිය	-9.84799
▁වයිරසය	-9.84824
▁දඩ	-9.84832
▁වරදක්	-9.84869
▁හෙළ	-9.84872
▁හයේ	-9.84874
▁මෙරටින්	-9.84894
▁අමරවීර	-9.84976
▁කැමැත්ත	-9.85009
▁දෙරට	-9.85012
▁ජීව	-9.85023
▁ලා	-9.85048
▁ප්‍රතිලාභ	-9.85068
▁හිටියේ	-9.85087
▁ගාමිණී	-9.85146
▁සිරි	-9.85175
▁සාකච්ඡාවට	-9.85184
▁මාවත	-9.85227
▁බොරු	-9.85317
▁පහරදී	-9.85393
▁හමුවකදී	-9.85467
▁ක්ෂේත්‍රය	-9.85485
▁සිතා	-9.8552
▁සතිය	-9.85539
▁පුහුණුව	-9.85554
▁දැමූ	-9.85571
▁නවතම	-9.85573
▁ලැබීමට	-9.85577
දිය	-9.8561
▁සංජීව	-9.85628
▁ලබාදිය	-9.85793
තාව	-9.85805
ශ්‍රී	-9.85814
▁බුද්ධ	-9.85853
▁කහ	-9.85928
▁තුන්වන	-9.85989
ටර්	-9.86013
▁තීන්දුවක්	-9.86032
▁වැඩසටහනක්	-9.86085
▁සිත	-9.86106
▁ජනපදය	-9.86233
▁කෝ	-9.86277
▁මහාධිකරණය	-9.86296
න්හි	-9.863
▁නිමා	-9.86336
▁දුර්වල	-9.86363
▁මතුව	-9.86448
▁රථයක	-9.86473
ටද	-9.86533
▁හිඟය	-9.86539
▁රාජපක්‍ෂ	-9.86559
▁ගිවිසුම්	-9.86571
▁විස්ස	-9.86579
▁අමතමින්	-9.86667
▁හානියක්	-9.86674
▁ප්‍රදානය	-9.86683
▁විජය	-9.86693
▁ආණ්ඩුකාර	-9.86701
▁එහිදි	-9.86776
▁යන්නට	-9.86779
▁කාරණය	-9.86888
▁අයහපත්	-9.86963
▁දැක්වෙන්නේ	-9.87069
▁තිබුණත්	-9.87093
▁කුසල්	-9.87108
▁දෙවියන්	-9.87142
▁ඇතුලත්	-9.87144
▁කරමිනි	-9.87163
කරු	-9.87175
▁වර්ෂ	-9.8721
▁එච්	-9.87303
▁රජයෙන්	-9.87309
▁නිලධාරියෙකු	-9.87361
▁ගල්කිස්ස	-9.87486
▁පර	-9.87492
▁ආයතනයක්	-9.87494
▁ත	-9.87541
▁අවධානයක්	-9.87633
▁ගඟ	-9.87863
ගු	-9.87919
▁සාගර	-9.8793
▁සේවාවන්	-9.87933
▁නොකිරීම	-9.88
▁ජීවිතයේ	-9.88041
▁කතාවක්	-9.88048
▁34	-9.88057
▁බඳවා	-9.88118
▁කාර්යාංශය	-9.88145
▁වෙලාවේ	-9.88152
▁බාහිර	-9.88173
▁හොර	-9.88194
▁බද්ද	-9.88218
▁මහවැලි	-9.88225
▁මිස	-9.88293
▁ගැටළු	-9.88335
▁ස්	-9.88351
▁පාද	-9.8841
▁ඇල්ල	-9.8843
▁අනාගත	-9.88431
▁පත්වීම	-9.88443
▁බෙහෙත්	-9.88472
▁වගකීමක්	-9.88482
▁සුනිල්	-9.88506
▁යවන	-9.88508
▁තේරී	-9.88563
▁නැගී	-9.88569
▁කැ	-9.88574
▁දුරටත්	-9.88633
▁ස්ථානයක්	-9.88669
▁අතිශය	-9.8868
▁තොටුපළ	-9.88742
▁ආරම්භක	-9.88811
▁කැමති	-9.88817
▁බලයක්	-9.8885
▁වැසියන්	-9.8887
▁සිරුරු	-9.88941
▁පිළි	-9.89029
▁මොකක්ද	-9.89039
චි	-9.89176
▁හැක්කේ	-9.89194
▁කාර්යාලයට	-9.89233
▁විද්‍යාත්මක	-9.89262
‍්‍ර	-9.89265
▁ගොදුරු	-9.89285
▁නැමැති	-9.89294
▁භාෂාව	-9.89438
▁මඩකලපුව	-9.89439
▁සාර්ථකව	-9.89441
▁තෙන්නකෝන්	-9.89447
▁කොමිසමට	-9.89497
එන්	-9.89524
▁තරමක්	-9.89529
▁සොයාගත්	-9.89529
▁තබාගෙන	-9.89606
▁නගරයට	-9.89624
නෝ	-9.89645
▁මු	-9.89658
▁වියදම	-9.89691
▁ලක්ෂ්මන්	-9.89761
▁සමඟින්	-9.8985
▁මෙහෙම	-9.89944
එ	-9.90001
▁ව්‍යාප්තිය	-9.90075
▁ටෙලි	-9.90154
▁වායු	-9.90167
▁ගිණුම්	-9.90216
▁බන්ධනාගාරගත	-9.90227
ිනි	-9.90277
▁නාමයෝජනා	-9.90366
▁මතක	-9.90423
▁42	-9.90472
▁මුලතිව්	-9.90479
▁ධීවරයින්	-9.90495
▁ස්වයං	-9.90699
▁ලීග්	-9.90712
▁150	-9.9072
▁බිරිය	-9.90762
වරයකු	-9.90846
්‍ය	-9.90868
▁වීසා	-9.90885
▁හැරීම	-9.91043
▁56	-9.91055
▁වසරකට	-9.91069
▁සන්ධාන	-9.91072
▁ශාක	-9.91135
▁වෙද්දී	-9.91155
▁පෙළේ	-9.91164
▁38	-9.91203
▁ලබාදීමේ	-9.9121
▁ගසා	-9.91238
▁වැටුප	-9.91239
▁පියවරක්	-9.9126
▁ශික්ෂණ	-9.91295
▁මෘත	-9.91299
▁නීතිවිරෝධී	-9.91312
▁පැවසූ	-9.91332
▁ඔහුව	-9.91391
▁යුධ	-9.91393
▁ආනයන	-9.91435
▁හටගෙන	-9.91447
▁ශ	-9.91586
▁ළමුන්	-9.91674
▁තැබූ	-9.91732
▁පුහුණුකරු	-9.91805
▁නිවසක	-9.91814
▁අරමුදලේ	-9.91875
ිකා	-9.91907
▁වෙනකොට	-9.91933
▁අනාගතය	-9.9194
▁මහත්වරුන්	-9.92026
▁දැක්වීම	-9.92035
▁අධිකරණයෙන්	-9.92135
▁හෝටල්	-9.92145
▁එකල	-9.92152
▁කිලෝග්‍රෑම්	-9.92242
▁කුමක්ද	-9.92388
▁වලදී	-9.92505
▁වෙතින්	-9.92558
▁පිටත්	-9.92584
▁සටන	-9.92639
ප්‍ර	-9.92729
▁සිසු	-9.92768
පත්	-9.9279
▁ගෙවන	-9.92793
▁සඳ	-9.92801
▁ප්‍රතිපත්තිය	-9.92813
▁පරිවර්තනය	-9.92815
▁කියන්නෙ	-9.92841
▁අසරණ	-9.92848
සිරි	-9.92851
▁වළක්වා	-9.92854
▁සමරවීර	-9.92855
▁රැසක	-9.92859
▁ල	-9.92932
▁හැරීමට	-9.92932
▁චිත්‍ර	-9.92962
▁තනතුර	-9.93021
මත්	-9.93082
▁ජයසේකර	-9.93203
▁සමත්ව	-9.93231
▁ගංවතුර	-9.93444
▁යාමේ	-9.93518
▁ගුණ	-9.93532
▁වෙනස්කම්	-9.9365
▁තත්ත්වයේ	-9.93676
▁ප්‍රියන්ත	-9.93706
▁රග්බි	-9.93736
▁රූප	-9.93778
▁දැක්වේ	-9.93864
▁කඩිනම්	-9.93874
▁කාර්	-9.93934
▁වෙසක්	-9.93944
▁එතරම්	-9.94061
රන්	-9.94104
▁වීරවංශ	-9.94141
▁තර්ජනය	-9.94143
▁ගත්ත	-9.94166
▁ධුරයට	-9.94182
▁ජයරත්න	-9.94192
▁කුණු	-9.94192
▁කසළ	-9.94205
▁අමාත්‍යවරුන්	-9.94206
ීම	-9.94212
▁තිදෙනා	-9.94429
▁දිනකට	-9.94438
▁ගැටුම	-9.94481
▁කාසියේ	-9.94589
▁නවීන	-9.94601
▁ජාවාරම	-9.94642
▁සැපයීම	-9.94642
▁කැමැති	-9.94734
සිංහ	-9.94752
▁යැයිද	-9.94783
▁කොට්ඨාසයේ	-9.94832
▁400	-9.94932
▁කෙරුණි	-9.94992
▁තමාගේ	-9.95056
▁මර්දනය	-9.9506
▁සැකකරුවෙකු	-9.95086
▁කථානායක	-9.95103
▁ජෝ	-9.95109
▁ගලා	-9.95116
▁සලසා	-9.95204
▁ස්ථිර	-9.95227
▁නොවී	-9.95275
සෝ	-9.95302
▁රාමනායක	-9.95304
▁කියති	-9.95323
▁තීරණාත්මක	-9.95339
▁ඥාතීන්	-9.95356
▁37	-9.95375
▁සාම	-9.95386
▁යාපා	-9.95422
▁පොලී	-9.95442
වාදය	-9.95566
▁අයකු	-9.95582
▁ශිෂ්‍යත්ව	-9.95613
▁තිස්ස	-9.95659
▁ප්‍රකට	-9.95722
▁ඕස්ට්‍රේලියානු	-9.95731
▁දරා	-9.95791
▁ඇඳ	-9.95843
නවා	-9.95895
▁වර්ෂාව	-9.95901
▁අතහැර	-9.9595
▁සො	-9.95962
▁අසාර්ථක	-9.96059
▁ක්‍රීඩකයින්	-9.96083
▁තැනට	-9.96103
▁ඩිජිටල්	-9.96176
▁රහිත	-9.96216
▁අමාත්‍යංශයේ	-9.96292
▁ආදි	-9.96355
▁අපූරු	-9.96381
▁හඳුනාගත්	-9.9648
▁උත්සහ	-9.96591
▁මට්ටමින්	-9.96654
▁ඇළ	-9.96693
▁පවතින්නේ	-9.96721
▁වෛද්‍යවරයා	-9.96895
▁උත්තර	-9.96912
▁එංගලන්තය	-9.96935
▁කොරියාව	-9.96969
▁55	-9.96971
▁වගාව	-9.97047
▁පේරාදෙණිය	-9.97056
▁වීමක්	-9.97072
▁සිදුවු	-9.97099
▁ජපානයේ	-9.97162
▁විශ්‍රාමික	-9.97303
▁65	-9.97312
▁සඟවා	-9.97338
▁පිළිගත්	-9.97473
▁නිශ්චිත	-9.97477
▁රවී	-9.97485
▁කොන්දේසි	-9.97651
▁අංකය	-9.97655
කන්ද	-9.97698
▁සමාගමට	-9.97712
▁ඉදිකර	-9.97806
▁නොහැකිව	-9.97842
ජ්	-9.97848
▁ගම	-9.97865
▁දවස	-9.97894
▁පෙරහර	-9.97906
මම	-9.97921
▁පත්‍රය	-9.97923
▁මන්ත්‍රීවරු	-9.97948
▁තුනකට	-9.97973
▁සෞදි	-9.9803
▁ගැනීම්	-9.98073
▁දන්නා	-9.98074
▁සංවිධානාත්මක	-9.98102
▁හරියට	-9.98124
▁ජවිපෙ	-9.98133
▁සවස්	-9.98136
▁වැටලීම	-9.98143
▁වගකීම්	-9.9815
▁සමය	-9.982
▁තරගාවලියේදී	-9.98276
▁මඩුල්ල	-9.98316
▁ච	-9.98367
▁ඇමෙරිකා	-9.98372
▁ගෘහ	-9.986
▁මනෝ	-9.98601
▁දශක	-9.98686
▁විහාර	-9.98707
▁අනතුරක්	-9.98726
භ	-9.98737
▁විධියට	-9.98753
▁සුන්දර	-9.98881
▁කලක්	-9.98906
▁සපයන	-9.98969
▁ජනපදයේ	-9.99044
ඕ	-9.9905
ඡායාරූප	-9.99057
▁රාශියක්	-9.99188
▁සෝදිසි	-9.99221
▁සන්නිවේදන	-9.99264
▁නොවීය	-9.99265
▁ස්පා	-9.99292
▁47	-9.9935
▁යෙදෙන	-9.99392
▁ගුණරත්න	-9.99425
▁දැකිය	-9.99432
දීම	-9.99465
▁ප්‍රහාරයට	-9.99535
▁පොලීසියේ	-9.99549
▁රාජ්‍යය	-9.99568
▁යොවුන්	-9.99623
ඇ	-9.99669
▁පු	-9.9968
▁වචන	-9.99696
▁සෙ	-9.99706
▁පිරි	-9.9971
▁ඉවතට	-9.99712
අද	-9.9979
▁දුරට	-9.99851
▁ප්‍රධානියා	-9.99934
ගෝ	-9.99952
▁ධුරයෙන්	-9.99993
ෂා	-10.0008
ල්ල	-10.0012
▁පරික්ෂණ	-10.0014
▁උපකාර	-10.0014
▁පොළ	-10.0017
▁දැකගත	-10.002
ෂි	-10.0039
▁කාලීන	-10.0043
▁නිවෙස්	-10.0047
▁46	-10.0049
▁කන්න	-10.0051
වර්	-10.0053
▁කලාව	-10.0072
▁මොරටුව	-10.0073
▁හමුදාවට	-10.0076
න්ස්	-10.0077
▁ජූනි	-10.0079
ලිය	-10.0084
▁පණ	-10.0086
▁අදත්	-10.0097
▁සංචාරකයන්	-10.0105
▁හමුවූ	-10.0105
▁මැ	-10.0116
▁ප‍්‍රකාශ	-10.0118
ාව	-10.0129
▁වර්ෂය	-10.0131
▁කුඹුරු	-10.0135
▁නැතිනම්	-10.0141
තම	-10.015
▁උද්ඝෝෂණ	-10.0155
▁’	-10.0163
▁ජේ‍යෂ්ඨ	-10.0169
වුණු	-10.0175
▁මැතිවරණයේදී	-10.0181
▁පිලේ	-10.0184
▁වෙසෙන	-10.0184
▁ග්‍රාමීය	-10.0187
▁දුක්	-10.0194
▁ඇතත්	-10.02
▁කල්පනා	-10.0204
▁සම්පූර්ණයෙන්	-10.0208
▁නිශාන්ත	-10.0209
▁වැටුණු	-10.021
▁අවබෝධ	-10.0218
▁රක්ෂණ	-10.0224
▁බන්ධනාගාරයේ	-10.0234
▁ජා	-10.0234
▁කළොත්	-10.0235
▁වර්ණ	-10.0238
▁39	-10.0241
▁සතුටු	-10.0244
▁පැවැත්	-10.0249
▁ග	-10.0252
▁කෘෂි	-10.0255
▁තිස්	-10.0257
▁අභ්‍යවකාශ	-10.0257
00	-10.0266
▁ගෙවීම	-10.027
▁විද්‍යුත්	-10.0273
▁ක්‍රමවේදයක්	-10.0276
▁ගල	-10.0284
▁අකුණු	-10.0285
▁තුනක	-10.0287
▁විදුහල්පති	-10.0291
▁යථා	-10.0302
▁නාමය	-10.0302
▁විකල්ප	-10.0302
▁රටවලට	-10.0304
ලින්	-10.0308
▁අසත්‍ය	-10.0313
▁වෙලාවට	-10.0318
▁බහුතරයක්	-10.0329
▁දූපත්	-10.0334
▁වුණි	-10.0335
▁බු	-10.034
▁44	-10.0341
▁ක්‍රමයට	-10.0343
▁ස්වභාවය	-10.0346
ධ	-10.0347
▁කුමක්	-10.0355
රේ	-10.0356
▁ඉලක්කයක්	-10.0364
▁කුලී	-10.0366
▁වියළි	-10.0367
▁නානායක්කාර	-10.0369
▁පිරිසට	-10.0373
▁රවි	-10.0377
න්ත	-10.0381
▁විනිසුරුවරයා	-10.0382
▁අපනයනය	-10.0386
පො	-10.0386
▁තුළට	-10.0393
▁දිවා	-10.0394
▁රුධිර	-10.0394
නායක	-10.0397
▁පුද	-10.0399
▁පැමිණියේ	-10.04
▁ලියනගේ	-10.0402
▁ගීතය	-10.0407
▁හිඟයක්	-10.0412
▁වැළැක්වීමේ	-10.0413
▁ලබනවා	-10.0416
▁ජනයා	-10.0417
යෙකි	-10.0423
▁සත්ත්ව	-10.0429
▁සිත්	-10.0433
▁කිරීමයි	-10.0435
▁හිමිකරු	-10.0437
▁හැ	-10.0438
▁ස්ථානාධිපතිවරයා	-10.0439
▁භූමියේ	-10.044
▁රැස්වීමට	-10.0443
▁එමඟින්	-10.0443
▁පහසුවෙන්	-10.0446
වීමේ	-10.0462
▁තහනම	-10.0465
▁සැ	-10.0467
▁ගුරුවරුන්	-10.047
▁මිශ්‍ර	-10.0476
▁දඬුවම	-10.0477
▁ගැට	-10.0477
▁2012	-10.0482
▁අබේවර්ධන	-10.0486
▁සිදුකරයි	-10.0491
▁සැකපිට	-10.0499
▁වකුගඩු	-10.05
▁ඩොනල්ඩ්	-10.0505
▁ත්‍රස්තවාදය	-10.0506
▁ප‍්‍රදේශයේ	-10.051
▁ප්‍රාන්ත	-10.0513
▁අධීක්ෂණය	-10.0515
▁මධ්‍යයේ	-10.0516
ෙක්	-10.0517
මෙම	-10.0524
▁උඩරට	-10.0525
▁අපහසු	-10.0525
▁වුව	-10.0528
රැ	-10.0537
▁බය	-10.0547
▁යුගයේ	-10.0554
▁ක්‍රීඩාව	-10.0555
▁සිදුකරනු	-10.057
▁නිවෙස	-10.0578
▁ක්ෂේත්‍ර	-10.059
▁41	-10.0591
▁පිටි	-10.0596
▁පිටතට	-10.0596
▁තවම	-10.06
▁ඇමතිවරයා	-10.0603
▁ප්‍රවර්ධනය	-10.0608
▁රථයකින්	-10.0609
▁අනිත්	-10.061
▁43	-10.0612
▁කරුණානායක	-10.0615
▁ලි	-10.0618
▁කොටසේ	-10.0625
▁සංචාරයක	-10.0627
▁ක්‍රමයෙන්	-10.0627
▁නඩුවේ	-10.0627
▁පිලට	-10.0629
▁අරගලය	-10.0633
▁බැඳ	-10.0633
▁ඇතුළේ	-10.064
▁පුර	-10.064
පෙ	-10.0644
▁වගකිව	-10.0647
ිත	-10.0648
▁කීපයක්	-10.0649
▁ට්විටර්	-10.0652
▁මෝදි	-10.0656
▁පීඩනය	-10.0662
▁52	-10.0664
▁දවසේ	-10.0665
▁තරමක	-10.067
▁වහන්සේලා	-10.0675
▁එජාප	-10.0676
මෝ	-10.0679
▁ඇතුළුව	-10.0684
▁ආයෝජනය	-10.0684
▁දිනයක්	-10.0693
▁සන්නද්ධ	-10.0698
▁2000	-10.0698
▁පුවත්පත්	-10.0699
▁නිරීක්ෂණ	-10.0701
▁වහන්සේගේ	-10.0707
▁බැවිනි	-10.0708
▁තැනින්	-10.0712
▁දරණ	-10.0712
▁කාලසීමාව	-10.0713
▁පාතාල	-10.0714
▁මේජර්	-10.0714
▁අවශ්‍යයි	-10.0717
▁හිතන්නේ	-10.072
අපි	-10.0729
▁පහරදීම	-10.0733
සෙ	-10.0733
▁ස්ථානවලට	-10.0733
▁ජපානය	-10.0734
▁කාලයක	-10.0741
සර	-10.0746
▁ඇට	-10.0746
▁වළ	-10.0747
▁විහාරය	-10.0753
▁පැවසු	-10.0756
▁මුර	-10.0756
▁අභියාචනාධිකරණය	-10.0757
▁එක්තරා	-10.0759
▁තැනක්	-10.0762
▁බලපා	-10.0768
▁ළමයින්	-10.0776
▁දැරූ	-10.0781
ණු	-10.0785
▁නඩත්තු	-10.0786
▁විමසීමකදී	-10.0797
▁වරද	-10.0799
▁බංග්ලාදේශය	-10.0801
▁එක්වූ	-10.082
▁පුරාම	-10.0826
▁කේන්ද්‍ර	-10.0838
▁නොහැකිය	-10.0847
▁සෙනසුරාදා	-10.0852
▁රූපවාහිනී	-10.0855
▁අනිවාර්ය	-10.0857
▁දෙකකින්	-10.0859
▁සියලුදෙනා	-10.0863
▁හත්	-10.0863
▁තබන	-10.0868
▁සමහරු	-10.087
▁ඉන්පසු	-10.0871
▁ශරීරය	-10.0872
▁දකින	-10.0872
▁මෑත	-10.0877
▁අල	-10.0886
ජු	-10.089
▁පරි	-10.0895
▁බි	-10.0903
▁පුරුදු	-10.0904
ෂාන්	-10.0907
▁ජයසුන්දර	-10.0908
න්ද	-10.0909
සර්	-10.091
▁යතුරුපැදි	-10.0912
වන්නේ	-10.0924
ඟ	-10.0933
▁වටයේ	-10.0936
යාගේ	-10.0936
▁විද්‍යාලයට	-10.0938
▁ජනාධිපතිවරණයට	-10.0939
▁කටයුත්තක්	-10.094
▁පෙනේ	-10.0941
▁විසුරුවා	-10.0944
▁මට්ටමක	-10.0944
▁සම්මේලනය	-10.0957
▁පැහැදිලිව	-10.0957
▁කෙරුණේ	-10.0958
▁හමුවේදී	-10.0959
▁කෝප්	-10.0962
▁නාශක	-10.0964
▁පැතුම්	-10.0964
්‍ර	-10.097
▁වැව්	-10.0971
▁බ්‍රහස්පතින්දා	-10.0977
▁අධ්‍යක්‍ෂ	-10.0981
▁ක්‍රි	-10.0982
▁යමක්	-10.0985
▁ලෙසය	-10.0986
▁ඔබගේ	-10.0987
▁අනවශ්‍ය	-10.0993
▁ඇමරිකාවේ	-10.0995
ගන්	-10.0997
▁සංරක්ෂණ	-10.1011
▁මීටර	-10.1011
▁තත්ත්වයෙන්	-10.1014
▁සිසුන්ට	-10.102
▁සිදුවේ	-10.1029
▁පැවැත්වේ	-10.1033
▁විෂ	-10.1046
▁කැඳවීමට	-10.1046
▁සමාව	-10.1047
කාරී	-10.1048
▁නිරූපණය	-10.1048
▁විශේෂත්වයක්	-10.1051
▁පස්සෙ	-10.1054
▁කොළඹදී	-10.1055
▁කවුරුත්	-10.1061
ච්	-10.1066
▁49	-10.1083
▁සපයා	-10.1085
▁පක්ෂයක්	-10.1085
මයි	-10.1087
▁රණවක	-10.109
බෝ	-10.1092
▁නිවෙසේ	-10.1092
▁සංස්කෘතිය	-10.1103
▁යකඩ	-10.1104
▁බදාදා	-10.1106
▁සැකයක්	-10.1107
▁චම්පික	-10.1107
වැව	-10.1114
▁වේගවත්	-10.1122
▁තත්ත්වයකට	-10.1122
යයි	-10.1122
පොළ	-10.1123
▁ගම්මන්පිල	-10.1128
▁ප‍්‍ර	-10.1144
▁උන්	-10.1144
තුමා	-10.1152
-20	-10.1153
▁දර්ශනය	-10.1154
▁පෙත්සමක්	-10.1157
▁තංගල්ල	-10.1157
▁තීරයේ	-10.1163
▁ජයන්ත	-10.1164
▁ලැබිය	-10.1166
▁කඳවුරේ	-10.1171
▁ලියා	-10.1174
▁උණ්ඩ	-10.1181
▁සන්තකයේ	-10.1184
▁නෙ	-10.1189
▁ගෝල	-10.119
▁වීරසිංහ	-10.1192
▁බවත්ය	-10.1192
▁සම්බන්ධතා	-10.1197
▁තරගයක්	-10.1201
▁නිලධාරියෙක්	-10.1209
▁දැනගන්නට	-10.1209
▁පො	-10.1212
▁කවි	-10.1212
▁නිවෙසට	-10.1227
▁පාර්ශ්ව	-10.123
කල	-10.1234
▁රැගත්	-10.1235
▁අමෙරිකාවේ	-10.1241
▁කරද්දී	-10.1241
▁න්‍යාය	-10.1245
▁නවසීලන්තය	-10.1245
ෙමින්	-10.1246
▁ගත්හ	-10.1251
▁ජාවාරම්	-10.1254
▁කාරියවසම්	-10.1258
පති	-10.1262
▁බො	-10.1271
්න	-10.1272
▁කතෝලික	-10.128
▁නීතිගත	-10.1282
ගි	-10.1284
▁ඔයා	-10.1285
▁අතරේ	-10.1292
▁වැදී	-10.1292
▁තියෙන්නෙ	-10.1293
▁2010	-10.1298
▁සියදිවි	-10.1298
▁සමාගමක්	-10.1303
▁ජපාන	-10.1305
▁කරමු	-10.1305
▁කළහොත්	-10.1308
▁හො	-10.131
▁ෆේස්බුක්	-10.1312
▁ගොඩනැගිල්ල	-10.132
▁උෂ්ණත්වය	-10.1321
▁කෙසේද	-10.1322
▁දස්කම්	-10.1331
▁වැළැක්වීම	-10.1336
▁තැන්	-10.1337
▁කරල	-10.1338
▁දෙපාර්තමේන්තු	-10.1343
▁සත්කාර	-10.1344
▁පද්ධති	-10.1349
▁එළැඹෙන	-10.1359
▁වැඩිහිටි	-10.1363
▁මඩ	-10.1367
▁ව්‍යවස්ථාවේ	-10.137
▁ගෙවීම්	-10.1384
▁පසුපස	-10.1385
▁ගමනක්	-10.1385
▁ජාතිය	-10.1386
▁අමෙරිකාව	-10.1391
▁විදුහල්	-10.1393
▁පිරිසිදු	-10.1393
▁නරක	-10.1397
▁මැතිවරණයක්	-10.1399
▁අර්ථ	-10.14
▁ආපු	-10.1414
▁සම්පාදනය	-10.1417
▁දැව	-10.1422
▁වෙන්කර	-10.1422
▁ගලවා	-10.1424
▁බලපාන	-10.1432
▁සැලකෙන	-10.1436
▁දරුවාගේ	-10.1436
▁යෝජිත	-10.1438
▁නායකවරයා	-10.1438
▁ගාලු	-10.1439
කී	-10.144
▁පසුබිමක	-10.1453
▁අතරට	-10.1455
▁පාලිත	-10.1457
▁ඇල	-10.1463
▁අවස්ථාවල	-10.1464
▁නැව්	-10.147
▁චන්ද්‍ර	-10.1476
▁උත්සාහය	-10.1481
.1	-10.1489
▁අඩංගුවට	-10.149
▁මත්	-10.1492
▁ජලයෙන්	-10.1508
ුනු	-10.1508
පේ	-10.1509
▁2013	-10.151
▁අවසානයේදී	-10.151
▁දුව	-10.1514
▁කළද	-10.1521
▁රෑ	-10.1521
▁හානිය	-10.1523
▁හෙද	-10.153
▁එනිසා	-10.153
න්ගෙන්	-10.154
▁මෙහෙය	-10.154
▁රැස්වීමේදී	-10.1542
▁ආගමන	-10.1542
▁මූලස්ථානය	-10.1544
යන්ගෙන්	-10.1548
▁පෑ	-10.1552
ගන්නා	-10.1554
▁ප්‍රවේශ	-10.1554
▁සුරාබදු	-10.1556
▁සුබයි	-10.1559
▁මලල	-10.1559
▁කැමරා	-10.156
▁කතානායක	-10.156
▁හදිසියේ	-10.1561
හිදී	-10.1574
▁රූ	-10.1575
▁පත්වීම්	-10.1581
▁කැඳවූ	-10.1581
▁අතීතයේ	-10.1581
වෙල	-10.1582
දින	-10.1583
▁ති	-10.1584
ස්ස	-10.1587
▁පරිත්‍යාග	-10.1587
▁ප්‍රාථමික	-10.1595
▁ගෞරව	-10.1596
▁වාසය	-10.1599
ිලා	-10.1599
▁ප්‍රවීණ	-10.1602
▁නැ	-10.1602
▁පැත්තෙන්	-10.1605
▁දෙනාගේ	-10.1606
▁හැසිරීම	-10.1608
▁දීමනා	-10.1609
▁කන	-10.1609
▁නියාමන	-10.1615
▁තුන්වැනි	-10.162
▁චිත්‍රපටයේ	-10.1621
ුම්	-10.1626
▁රැදී	-10.1626
▁යොදාගෙන	-10.1634
යන	-10.1634
▁විවාදය	-10.1635
▁කුමරු	-10.1637
▁කැණීම්	-10.1639
▁ත්‍රිපුද්ගල	-10.164
▁ලලිත්	-10.1644
▁ධාවන	-10.1644
▁සිදුකිරීම	-10.1652
▁මිතුරන්	-10.1653
▁ඇමරිකාව	-10.166
▁2011	-10.166
▁ශ්‍රේණිගත	-10.1662
▁රොෂාන්	-10.167
▁හෝමාගම	-10.1672
▁තැනක	-10.1673
▁ඉදිරියෙන්	-10.1675
▁පනතේ	-10.168
▁බහුතර	-10.168
▁කෙ	-10.1682
▁මෙයින්	-10.1682
▁න්‍යෂ්ටික	-10.1683
▁පිටියට	-10.1687
▁වැඩිදියුණු	-10.1695
▁එකඟතාව	-10.1695
▁ඉදිකිරීම	-10.1698
▁තොටුපොළ	-10.1699
▁කථා	-10.1705
▁වරායේ	-10.1707
▁මුද්‍රණය	-10.1707
▁යුද්ධ	-10.1708
▁සේවාවක්	-10.1713
▁පාකිස්තානය	-10.1714
▁බා	-10.1715
▁මිනුවන්ගොඩ	-10.1717
▁ආරක්ෂණ	-10.1718
▁කාණ්ඩයේ	-10.1718
▁අදහසක්	-10.1719
▁යහපාලන	-10.1721
▁ව්‍යාපාරයේ	-10.1721
▁විහාරාධිපති	-10.1724
▁ලැබුණි	-10.1729
▁ව්‍යාපාරයක්	-10.1735
▁කේරළ	-10.1743
▁සිහි	-10.1745
▁සැර	-10.1746
▁දවා	-10.1754
▁පොත	-10.1756
▁පැළ	-10.1757
▁නැමති	-10.1759
▁මහතාගෙන්	-10.1763
▁තිබුණද	-10.1767
▁ලාංකිකයන්	-10.1768
▁යාපනයේ	-10.1768
▁මුලින්	-10.1769
▁බවක්	-10.1771
▁පාසල්වල	-10.1773
▁විශේෂත්වයකි	-10.1775
▁ශ්‍රේෂ්ඨාධිකරණ	-10.1778
▁වත්කම්	-10.1788
▁අප්‍රිකාව	-10.1791
▁ගොනුකර	-10.1792
▁විගමන	-10.1803
වෙනවා	-10.1806
▁බිල	-10.1806
▁මිනිසා	-10.1807
▁භාවිතයට	-10.1809
▁පුද්ගලයාගේ	-10.1813
▁මුලික	-10.1813
▁පවුල	-10.1815
▁ඇමෙරිකාව	-10.1816
▁කාබනික	-10.1817
▁පක්‍ෂ	-10.1824
▁ජාලය	-10.1824
▁ලෝ	-10.1828
▁පිහිට	-10.1834
▁ගෝ	-10.1838
▁අපද්‍රව්‍ය	-10.1839
▁නරේන්ද්‍ර	-10.1839
තී	-10.184
▁අරගල	-10.1842
ඥ	-10.1845
▁මනුෂ්‍ය	-10.1845
▁අසා	-10.1846
▁තර්ජන	-10.1846
▁රුසියාවේ	-10.1858
▁ඛාන්	-10.1858
▁හරස්	-10.1861
▁සිද්ධියෙන්	-10.1864
▁රෙදි	-10.1865
▁සපුරා	-10.1868
▁චරිතයක්	-10.1869
▁ක්‍රියාවට	-10.1872
▁පළමුවෙන්	-10.1876
▁වෙන්නෙ	-10.1879
▁ආවරණ	-10.1884
▁සම්පාදන	-10.1886
විල	-10.1888
▁ප්‍රජා	-10.1893
▁කල්ලි	-10.1895
▁ත්‍රීරෝද	-10.1897
▁විදුහලේ	-10.1907
▁තුනෙන්	-10.1907
.2	-10.191
▁උත්සවයට	-10.191
▁ප්‍රතිව්‍යුහගත	-10.191
30	-10.1913
▁වව්නියාව	-10.1919
▁අස්	-10.192
▁කැලණිය	-10.192
▁දැක්වු	-10.1921
ණය	-10.1923
▁සේම	-10.1924
▁බාධාවක්	-10.1926
▁මහජනතාව	-10.1926
▁සිරුරක්	-10.1927
▁නිවසක්	-10.1927
කරුවෙකු	-10.1937
▁හැට	-10.1941
▁ඒවාට	-10.1945
▁දිනාගත්	-10.1948
▁පදක්කම්	-10.1949
▁වාරිමාර්ග	-10.195
▁වැටීම	-10.1951
▁යුක්ත	-10.1952
▁ඉස්ලාම්	-10.1953
▁දෑ	-10.1954
වනු	-10.1963
▁පාරිසරික	-10.1971
▁රජුගේ	-10.1972
▁ඉන්දියාවෙන්	-10.1974
▁බවටත්	-10.198
▁අදටත්	-10.1983
▁ඉහළින්	-10.1983
▁ඉඩකඩ	-10.1988
▁පීඩා	-10.1989
දෙන	-10.1991
▁වුණොත්	-10.1994
▁හිඟ	-10.2002
▁කාර්යාංශයේ	-10.2004
▁දෙනෙකුගෙන්	-10.2007
ඩු	-10.2009
▁බොහොමයක්	-10.2016
▁මත්කුඩු	-10.2021
▁හොරණ	-10.2023
▁සුළි	-10.2024
රිය	-10.203
▁වුණ	-10.203
▁අකිල	-10.2033
▁ධනංජය	-10.2036
▁දයාසිරි	-10.2036
▁පත්කළ	-10.204
▁මුහුණු	-10.204
▁ආසියාවේ	-10.2048
▁ලාංකිකයින්	-10.2053
▁ප්‍රචාරක	-10.2055
▁දැක්වීමට	-10.2056
▁අනතුරුවයි	-10.2058
▁අවුරුද්ද	-10.2061
▁ප්‍රකාශකවරයා	-10.2066
ටෝ	-10.207
▁අවබෝධයක්	-10.2072
▁වර්ධනයක්	-10.2075
▁ආගම	-10.2077
▁නොමිලේ	-10.2079
▁ඇත්නම්	-10.2081
▁උස	-10.2083
▁පුවතක්	-10.2086
▁උපයෝගී	-10.2087
▁කාර්යාලයේදී	-10.209
වරයෙක්	-10.2102
▁මැතිව්ස්	-10.2105
▁මාවතේ	-10.2105
▁ජනාධිපතිවරණ	-10.2108
▁සේනා	-10.2109
▁සර්ව	-10.2113
▁ගමනාගමන	-10.2114
▁සහෝදරයා	-10.2116
▁ආරක්‍ෂක	-10.2122
▁සකසා	-10.2122
▁අරමුදල්	-10.2122
මෙන්	-10.2122
▁2025	-10.2125
▁බොහොම	-10.213
▁සතුට	-10.213
▁සවි	-10.2132
▁ගැඹුරු	-10.2137
▁සියළු	-10.2138
▁මුදලින්	-10.214
▁ඔවුන්ගෙන්	-10.2144
▁2009	-10.2147
▁කරන්නෙ	-10.215
▁දවස්	-10.2152
▁රැ	-10.2153
▁ප්‍රසාද	-10.2153
▁ආදායමක්	-10.2157
▁ලංගම	-10.2158
වමින්	-10.216
▁සරල	-10.2162
▁අඟහරුවාදා	-10.2166
▁තරුණයන්	-10.2166
▁පුදුම	-10.2167
▁සංස්ථාවේ	-10.2168
▁සත්ව	-10.2171
▁යැවීමට	-10.2172
▁මැතිවරණයෙන්	-10.2179
▁අහිතකර	-10.2179
▁අස්වැන්න	-10.218
▁සංකීර්ණ	-10.2181
▁වාසි	-10.2184
▁විවේචනය	-10.2194
▁ප්‍රේම	-10.2196
▁ගාස්තුව	-10.2197
▁සාහිත්‍ය	-10.222
▁පිටියේ	-10.2222
▁රන්ජන්	-10.2222
▁අනිද්දා	-10.2228
ගහ	-10.2228
▁ඇමෙරිකාවේ	-10.2229
▁අණ	-10.2232
▁වෙනස	-10.2233
▁සිදුවූයේ	-10.2233
▁දිව	-10.2235
▁54	-10.2238
▁පහරක්	-10.2239
▁සංකල්පය	-10.2244
▁ග්‍රහ	-10.2245
▁මෛත්‍රිපාල	-10.2248
ංග	-10.2259
▁ප‍්‍රශ්නය	-10.2268
▁සූර්ය	-10.2269
▁සැපයුම්	-10.2272
▁තරුණයෙකු	-10.2272
▁නොදෙන	-10.2275
.5	-10.2277
▁රැඳවියන්	-10.2282
▁රො	-10.2293
▁ඩබ්ලිව්	-10.2296
▁ලබාගන්නා	-10.2297
මහේස්ත්‍රාත්වරයා	-10.2304
▁ප්‍රධානීන්	-10.2304
▁ප්‍රදීප්	-10.231
▁ඔව්	-10.231
▁අයිති	-10.231
▁දෙනාම	-10.2311
රත්න	-10.2312
▁වගන්තිය	-10.2312
▁හර්ෂ	-10.2321
වේදී	-10.2322
වෙ	-10.2323
▁ගුණතිලක	-10.2327
▁ධූරය	-10.2327
▁භාවය	-10.2331
▁කථානායකවරයා	-10.2331
▁දෙසින්	-10.2331
▁පෙට්‍රල්	-10.2333
▁දොර	-10.2334
▁නිරන්තරයෙන්	-10.2336
ක්ස්	-10.2343
▁කොළඹට	-10.2348
බැ	-10.2349
▁පින්	-10.2352
▁ගෙල	-10.2354
වූයේ	-10.2355
▁අත්‍යාවශ්‍ය	-10.2359
▁ප්‍රවර්ධන	-10.2368
▁රෝහල්ගත	-10.2368
▁බොරැල්ල	-10.237
වෙමින්	-10.2377
▁සමූහ	-10.238
▁රියැදුරු	-10.238
▁යාමෙන්	-10.2382
▁සනත්	-10.2382
▁දවස්වල	-10.2385
▁වෛරස	-10.2388
▁ධම්මික	-10.2394
▁වරප්‍රසාද	-10.2397
▁අසීරු	-10.2397
▁දෙන්නට	-10.2399
▁මාර්ගයක්	-10.2403
▁එංගලන්තයේ	-10.2404
▁යෝජනාවට	-10.2405
▁ඔස්ට්‍රේලියානු	-10.2407
▁අධ්‍යක්ෂවරයා	-10.2407
▁සනාථ	-10.2407
▁ජාතිකයන්	-10.2418
▁කවර	-10.2419
▁වැඩම	-10.242
▁කිසිවකු	-10.2424
▁දැක්වෙන	-10.2427
▁ශූරතාව	-10.2428
▁පුරාණ	-10.243
▁උපුල්	-10.2431
කරුවකු	-10.2431
▁51	-10.2439
?”	-10.2444
▁යටිතල	-10.2453
ුණා	-10.2458
ත්ත	-10.2463
▁වූවාය	-10.2466
▁දීමනාව	-10.2476
▁ශතකය	-10.2479
▁රාජකාරී	-10.2486
▁විරෝධතාව	-10.2488
▁සිදුවීමක්	-10.249
▁ප්‍රචාරය	-10.2491
▁වැඩේ	-10.2493
▁උද්ධමනය	-10.2493
▁රා	-10.2493
▁වශයෙන්ම	-10.2497
▁සොලිසිටර්	-10.2499
▁දාන්න	-10.2504
▁නිලධාරියකු	-10.2504
▁-19	-10.2505
▁වවුනියාව	-10.2505
▁ගෞරවය	-10.2507
▁අසළ	-10.2508
▁ජපන්	-10.251
එච්	-10.251
ක්ම	-10.2512
කරණ	-10.2519
▁සාකච්ඡාවේදී	-10.2522
▁පවත්නා	-10.2525
▁අසනීප	-10.2526
▁දුමින්ද	-10.2526
▁53	-10.2527
▁සිදුවනු	-10.2527
▁දැනුම්දී	-10.2533
▁ගැනීමේදී	-10.254
▁හැමෝම	-10.254
යො	-10.2541
▁සිද්ධීන්	-10.2543
▁හරිම	-10.2544
▁හෙළිදරව්	-10.2546
නිය	-10.2546
▁කුමාර්	-10.2546
▁ඉනිමේ	-10.2549
▁අවස්ථාවලදී	-10.2549
▁ඔවුනට	-10.2553
ත්‍ර	-10.2554
▁අඩවිය	-10.2555
පාර්ලිමේන්තුවේදී	-10.2562
▁අව	-10.2563
▁දුම්වැටි	-10.2577
▁උදාහරණයක්	-10.259
▁විත්තිකරුවන්	-10.2596
▁හොඳයි	-10.2597
▁අත්හදා	-10.2599
ෑ	-10.2599
▁සාම්ප්‍රදායික	-10.2604
▁සාකච්ඡාවකදී	-10.2604
▁ලාභ	-10.261
▁සිම්බාබ්වේ	-10.2613
▁පෙනෙන්නට	-10.2617
▁මාලාව	-10.2633
▁ප‍්‍රති	-10.2638
කල්	-10.2639
▁නායකත්වයෙන්	-10.2643
▁භෞතික	-10.2643
ගම්	-10.2649
න්ග්	-10.265
▁සිටිමින්	-10.2651
▁විශේෂිත	-10.2652
▁දීමෙන්	-10.2654
▁ලිහිල්	-10.2656
▁රිදී	-10.2656
▁ගැ	-10.2657
▁කටයුත්ත	-10.266
වැනි	-10.2664
▁විරෝධතාකරුවන්	-10.2666
▁මූලස්ථාන	-10.2666
▁සමගම	-10.2673
▁ජුලි	-10.2677
45	-10.2681
▁දුක	-10.2681
කිරීම	-10.269
▁වෛරස්	-10.269
ඩෝ	-10.2695
▁අඩුම	-10.2702
▁මන්ත්‍රිවරයා	-10.2703
▁ගම්මාන	-10.2706
▁ශාලා	-10.271
▁ප්ලාස්ටික්	-10.2712
▁පැහැරගෙන	-10.2718
▁උපාධිය	-10.2718
වරුන්ගේ	-10.2719
▁මිලක්	-10.2719
▁ජීවත්වන	-10.2719
▁සමඟම	-10.2723
▁ගණනාවක	-10.2728
වරිය	-10.2729
▁ආක්‍රමණය	-10.2729
▁උපයා	-10.2732
යු	-10.2733
.4	-10.2733
▁සොයිසා	-10.2733
▁දැනුම්වත්	-10.2745
▁සමාජයට	-10.2748
මුල්ල	-10.2754
▁වැටලීම්	-10.276
▁අනුවයි	-10.2761
▁වල්	-10.2763
▁වංචාව	-10.2766
▁සහනයක්	-10.2766
▁පිතිකරු	-10.2776
▁අමාත්‍යංශ	-10.2777
▁හිමියෝ	-10.278
▁පුත්‍රයා	-10.2782
උ	-10.2784
▁බලපත්‍රය	-10.2794
▁මො	-10.28
▁කුසලානය	-10.2801
▁දෙනාට	-10.2805
▁බලාගෙන	-10.2808
▁අර්බුද	-10.2812
▁පැවැත්විය	-10.2812
▁පරණ	-10.2815
තර	-10.2827
▁මහරගම	-10.2828
▁බැව්	-10.2831
▁වීර	-10.2833
▁වාර්ෂිකව	-10.2833
▁සෝ	-10.2833
▁වෙච්ච	-10.2834
▁සමුළුවට	-10.2838
▁තරුණිය	-10.2839
▁වසරක්	-10.2839
▁ගැනත්	-10.284
▁ගුවන්තොටුපොළ	-10.284
කර්	-10.2842
▁යැවීම	-10.2844
▁වස	-10.2855
▁ජනක	-10.2855
බල	-10.2859
▁මෛත්‍රී	-10.2859
▁සමයේදී	-10.2861
▁හොඳට	-10.2862
▁අර්ජුන	-10.2863
▁දිනක	-10.2867
▁ගම්මානයේ	-10.2867
▁අතේ	-10.287
▁අනුපාතය	-10.2874
▁දෙන්නා	-10.2875
ීමට	-10.2879
කැ	-10.2883
▁බලවේග	-10.2887
▁පතිරණ	-10.2892
▁ක්‍රියාකාරී	-10.2899
▁බැ	-10.2904
▁සැප	-10.2906
වක	-10.2907
▁කොතරම්	-10.291
▁අපහාස	-10.2913
▁නැරඹීමට	-10.2915
▁මාත්‍රාව	-10.2918
19	-10.2919
▁ඇන්	-10.292
ැයි	-10.2921
▁මතක්	-10.293
▁හිදී	-10.2931
▁හිතනවා	-10.2932
▁ගස	-10.2939
▁ඉරාන	-10.2956
▁අඩවි	-10.2961
▁සම්මුඛ	-10.2961
▁යානයක්	-10.2965
▁තේමාව	-10.2967
▁පුවත්පත	-10.2973
▁විහාරස්ථානයේ	-10.2979
▁සිං	-10.2981
▁විගණන	-10.2985
▁කුල	-10.2993
▁බහුතරය	-10.3001
▁විමසීමක්	-10.3001
න්නේ	-10.3003
50	-10.3004
▁ප්‍රායෝගික	-10.3008
▁වා	-10.3009
▁අරලියගහ	-10.3014
මිනි	-10.3014
ටු	-10.3016
▁සීමිත	-10.3016
▁ගු	-10.3017
▁සැල	-10.3027
▁යාත්‍රාව	-10.3034
▁සිරිපාල	-10.3039
▁ගහ	-10.3044
▁ලංකාවෙන්	-10.3044
▁වටයට	-10.3045
▁සරසවි	-10.3048
පොල	-10.3051
▁ස්ථානයක	-10.3055
▁තරංග	-10.3055
▁1000	-10.3059
▁නිල්	-10.306
ොත්	-10.3063
▁පත	-10.3067
▁ගිලී	-10.3074
▁නියුක්ති	-10.3079
▁අභාවප්‍රාප්ත	-10.308
▁ආයුර්වේද	-10.3083
ජේ	-10.3086
▁මෙහෙයුමක්	-10.3093
▁අපේක්ෂකයන්	-10.3095
▁පිටත	-10.3096
▁සංකීර්ණය	-10.3098
▁කොරියාවේ	-10.31
▁අන්ත	-10.3103
▁ඩ	-10.311
▁එතැන්	-10.3112
▁හේතුවෙනි	-10.3116
▁අයෙකි	-10.3118
▁පක්ෂයෙන්	-10.3119
▁කරුණ	-10.312
▁තරමට	-10.3125
▁බහු	-10.3126
▁අනතුරෙන්	-10.3128
▁පැහැති	-10.3128
▁මෙන්න	-10.3128
▁වැඩිපුර	-10.3132
▁දිනපතා	-10.3133
▁විස	-10.3133
▁මන්ද	-10.3134
▁උපාධි	-10.3134
▁පත්කිරීම	-10.3135
▁බවටද	-10.3139
▁ජෛව	-10.3143
ුවේ	-10.3146
▁පාට	-10.3149
.3	-10.3152
▁ලක්‍ෂ	-10.3153
▁වනාන්තර	-10.316
▁ආයතනයට	-10.3172
▁සංචිත	-10.3174
▁පනස්	-10.318
▁යුක්තිය	-10.3184
▁මසුන්	-10.3184
▁හදන	-10.3187
▁ඔහුගෙන්	-10.3187
▁ප්‍රභේදය	-10.3188
▁නූතන	-10.3191
▁නැංවීම	-10.3193
▁කැපවීම	-10.3204
▁ඇමතුම්	-10.3204
▁නමක්	-10.3205
ද්දී	-10.3211
▁නොහොත්	-10.3216
▁ජීවිතයට	-10.3216
ගල්	-10.322
▁අවධානයට	-10.3222
▁හාල්	-10.3227
▁මහත්වරු	-10.3229
▁ආණ්ඩුවෙන්	-10.3234
▁සිසුවා	-10.324
▁පද්ධතියක්	-10.324
▁අත්හිටුවීමට	-10.3255
▁හැරී	-10.3257
▁ජයවර්ධනපුර	-10.3258
ුන්	-10.3263
▁පරපුර	-10.3269
▁යොමුව	-10.328
▁මත්ස්‍ය	-10.3281
▁සංචිතය	-10.3283
▁තරු	-10.3284
▁උත්සවයකට	-10.3294
▁ලෙඩ	-10.3301
▁පවත්වනු	-10.3305
▁පෙරහැර	-10.3306
▁සමෘද්ධි	-10.331
▁ව්‍යාපෘතියක්	-10.3319
▁මන්දිරය	-10.332
▁වුණාට	-10.3321
▁ගෙ	-10.3329
▁ලබාදෙමින්	-10.3336
▁වැදගත්කම	-10.3339
▁අම්බලන්ගොඩ	-10.3341
▁මේවන	-10.3342
▁ගී	-10.3348
▁සූදානමින්	-10.3352
▁ඇල්පිටිය	-10.3354
▁පෝෂණය	-10.3361
▁ඇතැමුන්	-10.3363
වුණා	-10.3364
▁ක්‍රියාවක්	-10.3364
▁පාලනයට	-10.3374
▁වතාවක්	-10.3375
▁කොට්ඨාශය	-10.3376
▁කඳුළු	-10.3378
▁සංචාරකයින්	-10.338
▁සැලැස්ම	-10.3382
ශ්	-10.3385
▁හෙ	-10.3386
▁ක්‍රීඩකයා	-10.3387
▁නිතරම	-10.3388
සිය	-10.339
▁ඉන්දු	-10.339
▁රජයක්	-10.3393
▁මහල්	-10.3397
▁නෞකා	-10.3406
▁දියේ	-10.3409
▁පිවිසි	-10.3413
▁සලකුණු	-10.3414
▁අතුරින්	-10.3415
ළි	-10.3415
කිනි	-10.3417
▁යුගය	-10.3417
සං	-10.342
▁කොයි	-10.3425
න්නට	-10.3426
▁පද	-10.3427
▁ඉගෙනුම	-10.3427
▁වැට	-10.3437
▁මුහුද	-10.3439
▁නිෂ්පාදිත	-10.3439
,000	-10.344
▁අර්බුදයට	-10.3445
▁ගමට	-10.3446
▁හිමියන්ට	-10.3448
▁හයක්	-10.3454
▁අයියා	-10.3455
▁හසු	-10.3456
▁අස්ගිරි	-10.3457
▁දසුන්	-10.3468
▁පහුගිය	-10.3477
▁ආර්ථිකයට	-10.3477
▁හුරු	-10.3478
▁අවධානයෙන්	-10.348
▁වර්ෂයේදී	-10.3482
▁හදලා	-10.3484
▁මනා	-10.3492
▁අභියෝගයක්	-10.3492
▁තරුණියන්	-10.3493
▁ඒම	-10.3495
▁වේග	-10.3505
▁දැන්වීම්	-10.3507
▁ත්‍රිවිධ	-10.3509
බව	-10.351
▁නීතිඥවරයා	-10.3511
▁අලියා	-10.3512
▁වේදනාව	-10.3514
▁සුදානම්	-10.3518
▁තර්ජනයක්	-10.3523
▁දක්ෂතා	-10.3525
▁කොටු	-10.3532
▁58	-10.3533
▁කලාපීය	-10.3541
▁නීතියට	-10.3541
▁බහුල	-10.3543
පන්	-10.3554
▁පුද්ගලයෙකුට	-10.356
▁දහසක්	-10.3564
▁ඔක්කොම	-10.3572
▁පාර්ශව	-10.3577
▁කම්කරුවන්	-10.3586
▁ප්‍රගතිය	-10.3587
▁ජාතිකයින්	-10.3596
▁රැස්වීම්	-10.3601
▁පිහිටුවීමට	-10.3604
▁රටින්	-10.3607
▁බත්	-10.3608
▁මැරෙන	-10.3612
▁ගියහ	-10.3621
▁උපාය	-10.3621
▁කතාබහ	-10.3626
▁ප්‍රතිසංස්කරණය	-10.3629
▁බහුලව	-10.363
▁සම්මේලනයේ	-10.3634
▁කොමසාරිස්වරයා	-10.3638
▁යන්ත්‍රය	-10.3644
▁අතුරුදන්ව	-10.3647
▁මාර්ගයට	-10.3649
▁ඇඹිලිපිටිය	-10.3651
▁හු	-10.3652
▁කිරිපිටි	-10.3654
▁උරුමය	-10.3658
▁වන්දනා	-10.3658
▁ස්වභාවික	-10.366
▁වුයේ	-10.3661
▁ඉඩක්	-10.3663
▁ජීප්	-10.3665
▁72	-10.3668
▁බිමට	-10.3672
▁මැදි	-10.3673
▁වසරක	-10.3676
▁ඇවිල්ලා	-10.3677
▁තෙවන	-10.3679
▁තොරතුරකට	-10.3686
▁ඕස්ට්‍රේලියාව	-10.3688
▁95	-10.3688
▁එහා	-10.3691
▁අන්තර්ගත	-10.3691
▁දෙහිවල	-10.3697
▁වෛද්‍යවරු	-10.3697
▁මොහොතක	-10.37
▁තත්ත්ව	-10.3701
▁තල	-10.3701
්‍රජාතන්ත්‍රවාදය	-10.3702
▁සංඝ	-10.3703
▁රාජධානිය	-10.372
▁මිලකට	-10.372
▁කිරිඇල්ල	-10.3721
▁යනුවෙනි	-10.3724
ගැනීම	-10.3724
වෙන්න	-10.3728
▁පළා	-10.3731
▁පරිපාලනය	-10.3731
▁අනුග්‍රහය	-10.3734
▁සංවේදී	-10.3737
▁ප්‍රශ්නවලට	-10.3738
▁ස්ථාවරය	-10.3745
▁තරුණයින්	-10.3755
▁දුන්න	-10.3758
▁ගිහිල්ලා	-10.3759
▁බ්‍රිතාන්‍යයේ	-10.3763
▁ආහාරයට	-10.3764
කඩ	-10.3765
▁හෙට්ටිආරච්චි	-10.3772
▁පවත්වයි	-10.3779
▁පාසලට	-10.3784
▁විශ්වාසයක්	-10.3786
▁පදක්කම	-10.379
▁සතොස	-10.3795
▁වැට්	-10.3797
දෙනෙකු	-10.3799
▁මෙසේද	-10.38
▁මැතිවරණයේ	-10.38
▁විමර්ශනවලදී	-10.3806
▁හම්බ	-10.3808
▁වජිර	-10.3817
▁මල්වතු	-10.3817
▁ගො	-10.3817
▁පෑලියගොඩ	-10.3822
▁ද්විත්ව	-10.3823
▁නැව	-10.3825
▁සුසිල්	-10.3831
▁කාමර	-10.3832
▁රංග	-10.3832
▁තැත්	-10.3844
▁පුද්ගලයන්ට	-10.3853
▁මුඛ	-10.3854
▁මැතිතුමා	-10.3855
▁හටගත්	-10.3856
▁නිරෝධායනයට	-10.3856
▁සිහින	-10.386
▁දේශපාලනයට	-10.3863
▁නිමිත්තෙන්	-10.3864
▁බාධක	-10.3864
▁ගෙන්	-10.3865
▁භික්ෂූන්	-10.3869
▁දිනෙන්	-10.3878
▁රැකියාව	-10.3884
▁වැඩපිළිවෙල	-10.3885
▁මිසයිල	-10.3889
▁නුගේගොඩ	-10.3891
▁පිතිකරුවන්	-10.3893
▁වතාවට	-10.3893
▁බලකායේ	-10.3894
▁අංග	-10.3895
▁යම්කිසි	-10.3896
▁බුදුන්	-10.3899
▁ශාලාවේ	-10.39
▁අවියක්	-10.3904
▁බලාගාර	-10.3908
රුව	-10.391
▁මනාප	-10.3913
▁ධනය	-10.3914
▁උරුම	-10.3914
මෙ	-10.3919
▁යතුරුපැදිය	-10.3919
▁ආරක්ෂාවට	-10.392
▁ඇමැතිවරුන්	-10.3921
▁යද්දී	-10.3922
▁උග්‍ර	-10.3924
▁යන්නයි	-10.393
▁නැඟෙනහිර	-10.3935
▁අනිවාර්යයෙන්ම	-10.3942
▁පුවත	-10.3943
▁වනුයේ	-10.3945
▁ගෙවන්න	-10.3946
▁කෘෂිකාර්මික	-10.3947
පාල	-10.3947
▁වැඩසටහනට	-10.3949
▁මාසික	-10.3952
▁ක්‍රීඩාංගණයේ	-10.3952
▁දකින්න	-10.3959
▁වත්තල	-10.3966
▁සිදුකෙරෙන	-10.3966
▁පහළට	-10.397
ුණේ	-10.3971
▁අර්බුදයක්	-10.3973
▁දෙකට	-10.3975
▁එකයි	-10.3978
▁කෙරෙනු	-10.3978
▁පිහිටුවීම	-10.3979
ිණි	-10.398
▁සැකකාරිය	-10.3984
▁ශාලාව	-10.3984
▁වැලිකඩ	-10.3988
▁මුම්බායි	-10.3988
▁රචනා	-10.399
▁චන්දන	-10.3994
▁ගියත්	-10.3994
▁පහන්	-10.3998
බර	-10.4002
▁මුළුමනින්ම	-10.4004
▁දිනට	-10.4005
▁ජනාධිපතිවරණයේදී	-10.4005
▁පෝ	-10.4006
▁ග්‍රහයා	-10.4013
▁චි	-10.4014
▁බණ්ඩාරවෙල	-10.4015
▁රැස්වීමක්	-10.4017
▁පරීක්‍ෂණ	-10.4017
▁රුපියල	-10.4017
▁ඉවත්ව	-10.4018
▁පණිවුඩයක්	-10.402
▁බෝතල්	-10.4022
▁සියල්ලම	-10.4024
▁රියදුරන්	-10.4024
▁පැවසුවා	-10.4033
▁පාඩු	-10.404
ම්බ	-10.4041
▁දෙකේ	-10.4041
එම	-10.4045
▁භාරයේ	-10.405
▁මාධ්‍යයට	-10.4052
▁සංචාරයක්	-10.4054
කන්	-10.4058
▁දහම	-10.4058
▁ප්‍රතිශතය	-10.406
▁කැබ්	-10.4064
▁ප‍්‍රශ්න	-10.4073
▁පිළිගැනීම	-10.4076
ෘ	-10.4078
▁ෂ	-10.4081
▁සෙනෙවිරත්න	-10.4082
▁සුරක්ෂිත	-10.4083
ාන	-10.4086
▁එතැන	-10.4088
▁පිරිසුදු	-10.409
▁සත්	-10.4091
▁පැමිණියේය	-10.4103
ච්ච	-10.4105
▁වැඩකටයුතු	-10.4109
▁අස්ථි	-10.4112
▁දක්ෂිණ	-10.4114
ෙකු	-10.4122
▁පැවසේ	-10.4124
▁දැක්විය	-10.4125
▁දේශ	-10.4131
▁ආරවුලක්	-10.4131
▁තර	-10.4131
▁කපු	-10.4132
▁මුල්‍ය	-10.4135
▁ඉල්ලමින්	-10.4136
▁57	-10.4136
▁නොගෙන	-10.4137
▁ගායනා	-10.414
▁සිල්ලර	-10.4141
▁බෝට්ටු	-10.4141
▁කිලිනොච්චිය	-10.4147
▁හඳුන්වන	-10.4148
▁අසමත්	-10.4153
▁පරිහරණය	-10.4155
▁ගැනීමත්	-10.4158
▁විජේරත්න	-10.416
▁පසුබිම	-10.416
▁සිරකරුවන්	-10.4165
▁දකුණේ	-10.417
▁යුවළ	-10.4174
▁බෙහෙවින්	-10.4175
▁ඊශ්‍රායල	-10.4175
▁සැමරුම්	-10.4178
▁කවුන්සිලය	-10.4181
▁බීජ	-10.4187
▁භයානක	-10.4188
▁සියවසේ	-10.4189
▁ජනගහනය	-10.4199
▁අහිංසක	-10.4202
▁62	-10.4203
ටන්	-10.4207
▁වැරැදි	-10.421
▁කෘතිය	-10.4211
▁ඉන්දික	-10.4218
▁වෙහෙස	-10.4224
▁පිරී	-10.4227
▁බැලිය	-10.4241
▁ඉහල	-10.425
▁දෙදෙනාම	-10.4256
වන්න	-10.4257
▁බැර	-10.4257
▁දැක්ම	-10.4258
▁පද්ධතියට	-10.426
▁මල	-10.4261
ගිය	-10.4263
▁කඳවුරු	-10.4263
▁දේශපාලනඥයන්	-10.4267
▁මෑතකදී	-10.4273
තිය	-10.4274
▁ගව	-10.4277
▁විකුණා	-10.4283
▁හරින	-10.4285
▁තරඟයේ	-10.4285
▁රාගම	-10.4289
▁රෝද	-10.4289
▁සමාජවාදී	-10.4291
▁දිනූ	-10.4295
▁සටහනක්	-10.4298
▁උල්ලංඝණය	-10.4298
▁මධ්‍යස්ථානයක්	-10.43
▁ඒකනායක	-10.4301
▁දෙනෙකුගේ	-10.4308
▁කිලෝමීටර	-10.4313
▁ඊළඟට	-10.4314
▁අඛණ්ඩ	-10.4315
▁අත්කර	-10.4316
▁යුක්රේන	-10.4318
▁තෝමස්	-10.4319
▁ව්‍යවස්ථාවට	-10.4324
▁අභියෝගය	-10.4324
▁නිරෝධායනය	-10.4326
රූ	-10.4326
▁විවාදයට	-10.4328
▁හෙළා	-10.4333
▁කවදාවත්	-10.4335
▁රෝහල්වල	-10.4336
▁ශුද්ධ	-10.4336
▁නවක	-10.4337
▁දු	-10.4338
▁කාදිනල්	-10.4339
▁ඉවර	-10.434
▁ධන	-10.434
ගී	-10.4346
▁ජීවිතේ	-10.4347
▁සුඛෝපභෝගී	-10.4347
බු	-10.4347
▁පාරට	-10.4349
▁බඩ	-10.4349
▁නිව්	-10.4359
▁ගණනය	-10.4363
▁චන්දිමාල්	-10.4364
ගැනීමට	-10.437
▁හී	-10.4382
▁ජාතීන්	-10.4385
▁සැලැස්මක්	-10.439
කිරීමට	-10.4394
▁තත්වයක්	-10.4396
▁වෙ	-10.4397
▁හිර	-10.4398
▁ලස්සන	-10.4399
▁මරාගෙන	-10.4399
▁කාන්තාවගේ	-10.4401
ෛ	-10.4401
ඔය	-10.4403
ෂන්	-10.4405
▁පැත්ත	-10.4405
▁ජලාශයේ	-10.4407
.19	-10.4412
ඔ	-10.4412
රට	-10.4413
▁ඇස	-10.4422
▁කිසිඳු	-10.4426
▁වේවි	-10.4427
▁තිදෙනකු	-10.4429
▁කරගන්නා	-10.4431
▁ධුරයේ	-10.4435
▁සැරයන්	-10.4436
රො	-10.4438
▁අන්තර්ජාලය	-10.4439
▁බාලිකා	-10.4442
▁පානීය	-10.4442
▁ස්වාභාවික	-10.4443
▁ලාංකේය	-10.445
▁නිහාල්	-10.4454
▁සිංහ	-10.4455
▁දරුවෝ	-10.4456
▁59	-10.4457
▁දෙදින	-10.446
▁බදියුදීන්	-10.4461
▁ලියන	-10.4469
▁ස්ථානයෙන්	-10.4476
▁පැතිරීම	-10.448
▁ගතවූ	-10.4482
▁සුපර්	-10.4483
▁වයස්	-10.4486
▁ලන්ඩන්	-10.4486
22	-10.449
▁වැටලීමකදී	-10.4492
▁හමුවීමට	-10.4493
▁ගේන්න	-10.4504
▁උතුම්	-10.4507
▁ආබාධ	-10.4511
▁දේශපාලනික	-10.4511
▁දවසක්	-10.4514
▁කලේ	-10.4515
▁විනාශය	-10.4517
▁වෙළෙඳපොළේ	-10.4518
▁දෙදෙනාගේ	-10.4525
▁පසුවය	-10.453
▁ඉතිරිව	-10.4533
▁අපොහොසත්	-10.4534
▁සභික	-10.4535
▁නාග	-10.4542
▁අවවාද	-10.4543
▁භාවිතයෙන්	-10.4554
▁ක්‍රියාව	-10.4554
▁මුව	-10.4555
▁2008	-10.4557
හී	-10.4557
▁විහාරයේ	-10.4559
▁නොයෙක්	-10.4563
▁චෙන්නායි	-10.4563
▁පත්‍රිකා	-10.4564
▁මුණ	-10.4565
▁ඉස්සර	-10.4566
▁ක්‍රීඩිකාවන්	-10.457
▁කණුව	-10.457
ද්ද	-10.4573
ථ	-10.4578
▁ඉරණම	-10.4578
▁ක්‍රමවේද	-10.4578
▁පර්	-10.4579
▁ජයග්‍රහණ	-10.458
ත්ව	-10.4582
▁ආබාධිත	-10.4583
ඩො	-10.4587
ලන්	-10.4587
60	-10.459
▁රජතුමා	-10.4598
▁ගෙවිය	-10.4618
▁තිදෙනෙක්	-10.4621
▁ත්‍යාග	-10.4625
▁රාජ්‍යයක්	-10.4626
▁අවසානය	-10.463
▁කෙතරම්	-10.4631
වුන්	-10.4635
▁ඉඳන්	-10.4637
▁අඩුපාඩු	-10.4637
▁ගුණාත්මක	-10.4645
▁තියනවා	-10.4646
▁බෙ	-10.4647
▁ප්‍රංශයේ	-10.4656
▁ක්ෂේත්‍රයට	-10.4656
දෙ	-10.4658
ස්ට්	-10.4668
▁හිමිවිය	-10.4668
හැ	-10.4668
▁වැඩසටහනේ	-10.4671
▁කොමියුනිස්ට්	-10.4672
▁සමරසිංහ	-10.4674
▁ලෙ	-10.4676
▁පංච	-10.4677
▁හැඩ	-10.4681
▁ගෙවල්	-10.4681
▁කට්ටිය	-10.4681
රණ	-10.4682
▁විරහිත	-10.4685
ගස්	-10.4694
▁නයින්ටීන්	-10.4697
▁බාරයට	-10.4699
▁බලපෑ	-10.47
▁ක්‍රියාමාර්ගය	-10.4701
▁එමීර්	-10.4703
▁කඩුවෙල	-10.4704
▁ප්‍රිය	-10.4705
▁ඉදිකිරීමට	-10.4712
▁කරාපිටිය	-10.4713
▁පහතින්	-10.4713
▁දරුවෙකු	-10.4714
▁බළකාය	-10.4718
▁සංගීතය	-10.4722
▁දැඩිව	-10.4723
▁භාරදී	-10.4726
▁දුප්පත්	-10.4727
මල්	-10.473
▁වැටෙන	-10.4732
දුර	-10.4736
▁ලිඛිතව	-10.4736
▁පශු	-10.4741
▁අත්හිටුවා	-10.4742
▁වනජීවි	-10.4746
▁ප්‍රහාරයකින්	-10.4747
ටයි	-10.4748
▁ද්‍රවිඩ	-10.4749
▁කඳවුර	-10.4751
යාට	-10.4753
▁ශතක	-10.4755
▁පාලනයක්	-10.4757
▁දූත	-10.4757
▁නවාතැන්	-10.4757
▁ළඟට	-10.4762
දුන්	-10.4763
▁යැවූ	-10.4768
▁ගාසා	-10.4772
▁ක්ද	-10.4772
්නට	-10.4775
▁රෝ	-10.4776
▁වැවිලි	-10.4777
▁කිහිපයකින්	-10.4777
▁සැතපුම්	-10.4778
▁රැස්කළ	-10.4779
▁කර්මාන්තයේ	-10.478
සල්	-10.4786
16	-10.4786
කගේ	-10.4786
තුරු	-10.4787
▁පුරවැසියන්	-10.4787
▁කරු	-10.4789
▁හඹා	-10.479
▁ලිපියේ	-10.4791
▁සාමාජිකත්වය	-10.4792
▁වලංගු	-10.4793
▁64	-10.4797
▁පාන්	-10.4803
▁කටු	-10.4805
▁පස	-10.4806
▁ටැංකි	-10.4807
▁පත්වුණා	-10.4807
▁කවුරු	-10.4816
▁මීළඟ	-10.4817
▁නගරාධිපති	-10.4817
▁පුරප්පාඩු	-10.482
▁කිය	-10.4823
▁එකෙන්	-10.4835
▁ඥාති	-10.4836
▁ගෙදරට	-10.4841
▁පහත්	-10.4844
දැ	-10.4844
▁නොදී	-10.485
▁කැඳවනු	-10.4856
▁එයාට	-10.4857
▁කිරීමටද	-10.4864
හෝ	-10.4866
▁රටවලින්	-10.4871
▁රිෂාඩ්	-10.4872
රියා	-10.4873
▁මන්දිරයේ	-10.4873
▁නොදන්නා	-10.4891
▁නුවරදී	-10.4891
▁ආත්ම	-10.4897
▁දෙය	-10.4898
▁පත්වීමට	-10.49
▁නේ	-10.4901
▁කෙනෙකුට	-10.4911
▁කොස්	-10.4915
▁නොසලකා	-10.4915
▁සංඥා	-10.4918
දේ	-10.4924
▁කාර්යයන්	-10.4927
▁මාත්‍රා	-10.4932
▁නෞකාවේ	-10.4935
▁මොනවද	-10.4939
▁දර්ශකය	-10.4939
▁විශ්වාසභංග	-10.4945
▁ළමයි	-10.495
▁කැඳවන	-10.4951
මව්බිම	-10.4953
▁පහරදීමට	-10.4957
වැ	-10.4958
▁සේවයක්	-10.4962
▁චමින්ද	-10.4969
▁කාන්තාවන්ට	-10.4969
▁තරඟාවලිය	-10.497
▁අවශ්‍යතාවක්	-10.4981
▁රබර්	-10.4981
▁61	-10.4996
▁දූෂිත	-10.4998
▁2005	-10.4999
▁ගංගා	-10.5001
▁අප්‍රිකාවේ	-10.5002
▁මෙට්‍රික්	-10.5003
තෝ	-10.5005
▁වැඩියෙන්	-10.5005
තාවය	-10.5006
▁වඩාත්ම	-10.5011
▁ඔස්ට්‍රේලියාව	-10.5011
▁අයිතියක්	-10.5013
▁උත්සවයක්	-10.5015
▁කළයුතු	-10.5015
▁සැඟව	-10.5017
▁වැළැක්වීමට	-10.5017
▁නැංවීමට	-10.5017
▁පොහොට්ටුවේ	-10.5018
▁නීතියේ	-10.502
▁ඉතාලියේ	-10.5023
▁දැක්කා	-10.5027
▁වාතාවරණය	-10.5034
▁පාඨලී	-10.5036
▁85	-10.5037
▁දූපත	-10.5038
▁ගැටුමක්	-10.504
▁නියුතු	-10.504
▁දැරියගේ	-10.504
▁හද	-10.5041
වරයාගේ	-10.5042
▁ප්‍රතිශතයක්	-10.5042
තේ	-10.5045
▁එෆ්	-10.5045
▁උඩු	-10.5053
▁පරික්ෂා	-10.5054
▁ධර්මය	-10.5054
▁මාලාවක්	-10.5059
▁ප්‍රතිපත්තියක්	-10.506
▁විරාජ්	-10.5068
▁බලයෙන්	-10.507
▁ශිල්පීන්	-10.507
▁එක්වන	-10.5073
▁මෙකී	-10.5073
▁පාර්ශ්වය	-10.5077
▁නංවා	-10.5078
▁නිදහසේ	-10.508
▁මිනිසුන්ට	-10.5082
▁ඉම්රාන්	-10.5083
▁ක‍්‍රියාත්මක	-10.5083
ඝ	-10.5083
▁අවදි	-10.5085
▁පිහිටුවන	-10.5089
▁ජෙ	-10.5091
▁සාකච්ඡාවකට	-10.5091
▁ඊශ්‍රායලය	-10.5092
▁5000	-10.5094
▁පුද්ගලයෙකි	-10.5094
▁වාඩි	-10.5095
▁හැමදාම	-10.5096
▁තරගාවලි	-10.5098
▁තුෂාර	-10.5099
▁මාලිංග	-10.51
▁පැයට	-10.5101
▁නාය	-10.5103
▁අධ්‍යක්ෂණය	-10.5103
ුණි	-10.5104
ුණ	-10.5108
▁හරිත	-10.5111
▁ගොවීන්ට	-10.5113
▁හිටිය	-10.5115
▁වටහා	-10.5115
▁නුවන්	-10.5117
▁බැතිමතුන්	-10.5119
▁විධිවිධාන	-10.5121
17	-10.5124
▁විරෝධතාවක්	-10.5124
සින්	-10.5124
10	-10.513
▁කිහිපදෙනෙකු	-10.5131
▁එළි	-10.5132
▁තුරන්	-10.5136
ෆි	-10.5138
▁කන්	-10.5139
▁සාමකාමී	-10.5143
▁මෝල්	-10.5144
▁පැවැත්වුණා	-10.5145
▁පළකර	-10.5149
▁පක්ෂවල	-10.5154
▁ලංකන්	-10.5155
▁දිහා	-10.5157
▁වත්ත	-10.5163
▁කිරිමේ	-10.5165
▁විකිණීම	-10.5167
▁පොර	-10.5171
40	-10.5171
▁වැඩපිළිවෙලක්	-10.5173
▁ක්‍රියාත්මකයි	-10.5174
▁සෙල්ලම්	-10.5175
▁කපිල	-10.5175
▁ඇතුලූ	-10.5175
▁නාවලපිටිය	-10.5175
ින	-10.5181
▁250	-10.5181
▁රටකට	-10.5187
▁ක‍්‍රිකට්	-10.5187
▁පදවිය	-10.5191
▁උපුටා	-10.5191
▁හමුවෙයි	-10.5195
▁ශත	-10.5196
▁තිලකරත්න	-10.5198
▁දශම	-10.5202
▁දේවාලය	-10.5203
▁විභාගයේ	-10.5204
▁බෝග	-10.5212
▁දුම්රියේ	-10.5225
▁වැඩිය	-10.523
ක්ෂ	-10.5236
▁උළෙලේ	-10.5239
▁එතැනින්	-10.5244
▁ලබාගැනීමේ	-10.5245
▁සිදුවීමට	-10.5246
▁ආකර්ෂණය	-10.5248
ේය	-10.5252
▁දුරකථනය	-10.5254
▁ශී‍්‍ර	-10.5259
▁ගැළපෙන	-10.5261
▁සුපුරුදු	-10.5261
▁ලුණු	-10.5264
35	-10.5265
▁උදයංගනී	-10.5266
▁තැබීමේ	-10.5273
▁63	-10.5275
▁බිලි	-10.5278
▁මූලස්ථානයේ	-10.528
▁දේශපාලනයේ	-10.5285
▁එක්වී	-10.5289
▁වාරය	-10.5289
▁ගහන්න	-10.5296
▁යානයේ	-10.5299
ීන්	-10.5299
▁ඇබ්බැහි	-10.5304
ගනු	-10.5304
▁වැඩිවීම	-10.5307
▁යොමුකළ	-10.5308
▁කෙරෙනවා	-10.5309
▁යුරෝපීය	-10.531
▁ඇඟලුම්	-10.5313
▁මවුපියන්	-10.5319
▁තියන්න	-10.532
▁බලපත්‍රයක්	-10.5322
▁ජීවිතයක්	-10.5329
▁ශවේන්ද්‍ර	-10.533
▁පත්කරන	-10.5331
▁ත්‍රස්තවාදී	-10.5331
▁පුද්ගලයින්ට	-10.5338
▁කැඳවුම්කරු	-10.534
▁දහම්	-10.5354
▁ශරීරයේ	-10.5355
▁පාකිස්ථාන	-10.5359
▁කාන්තාවක	-10.5361
▁රඹුක්වැල්ල	-10.5366
▁කියපු	-10.5366
▁වීමයි	-10.5367
පල	-10.5372
▁වාහනය	-10.5372
▁එකමුතුව	-10.5373
එෆ්	-10.5375
ෙන්නේ	-10.5375
▁අධ්‍යක්ෂක	-10.538
13	-10.5381
▁වාන්	-10.5382
▁ලෙසිනි	-10.5387
▁පද්ධතියේ	-10.5388
▁සංචරණ	-10.5391
▁ප්‍රථමයෙන්	-10.5392
▁හන්දිය	-10.5392
▁ගිවිසුමට	-10.5393
▁කළමනාකරු	-10.5397
▁සෘජු	-10.54
▁පහක	-10.5404
▁ලක්ෂයක්	-10.5411
▁හෘද	-10.5412
පැ	-10.5413
▁රෙ	-10.5417
▁ප්‍රකාශකයෙකු	-10.5424
▁බලහත්කාරයෙන්	-10.5426
▁යු	-10.5429
ට්ට	-10.543
▁ධනුෂ්ක	-10.5431
▁ව්‍යාපාරිකයන්	-10.5431
▁වූයේය	-10.5435
▁පෝෂණ	-10.5435
▁උදවු	-10.5435
▁බලාපොරොත්තුව	-10.5436
▁600	-10.5439
▁කාලගුණය	-10.5441
▁චෝදනාවක්	-10.5446
▁විනෝද	-10.5448
▁හිමිවන	-10.545
▁අනියම්	-10.545
▁මාර්ගෝපදේශ	-10.5452
▁ස්ත්‍රී	-10.5456
▁ක‍්‍රීඩා	-10.5457
▁රෝගීන්ට	-10.5458
▁ගතව	-10.5458
70	-10.5465
▁ලෝකයට	-10.5467
▁දෙමාපියන්	-10.5468
▁මතයක්	-10.5469
වුණේ	-10.5472
▁කැර	-10.5473
▁රථයට	-10.5475
▁ලක්වී	-10.5481
▁රටාව	-10.5485
▁හැඳින්වෙන	-10.5487
▁යවන්නන්	-10.5487
▁එකවර	-10.5488
▁වැ	-10.5492
▁තමිල්නාඩු	-10.5494
▁ප්‍රංශය	-10.5499
▁හේ	-10.5518
▁ගින්නක්	-10.552
▁විද්‍යාඥයන්	-10.552
▁තැ	-10.552
▁ඉල්ලුම	-10.5522
▁වීම්	-10.5523
▁නැතහොත්	-10.5527
කාරි	-10.5527
▁දිනක්	-10.5528
වන්නට	-10.5529
▁කාණ්ඩය	-10.5532
යාම	-10.5534
▁ලැබෙනු	-10.5536
▁රටම	-10.5536
▁නොතකා	-10.5537
▁අගයක්	-10.5538
▁ආනයනික	-10.5539
▁සෙබළුන්	-10.5539
▁ප්‍රධානතම	-10.5541
▁ඇතුන්	-10.5541
▁උස්	-10.5542
▁හදනවා	-10.5542
▁මහින්දානන්ද	-10.5545
▁පනතට	-10.5545
▁දෙති	-10.5549
▁කලබල	-10.5551
▁මහජනතාවට	-10.5552
තල	-10.5554
▁ආගම්	-10.5557
▁රජමහා	-10.5558
▁නොගත්	-10.5559
▁දැල්	-10.5559
▁පාහේ	-10.556
▁සංකීර්ණයේ	-10.5563
▁වෙනිදා	-10.5564
▁දියුණුව	-10.5564
▁සාමාජිකයෙකු	-10.5565
▁සියලූම	-10.5576
▁රේගුව	-10.5577
▁වත්	-10.5578
▁ස්වාමීන්	-10.5579
▁කාරණයක්	-10.5581
▁තැනැත්තා	-10.5582
ුන	-10.5584
▁කොන්	-10.5588
▁කෝට්ටේ	-10.5588
▁පුපුරා	-10.5589
▁ඇමරිකා	-10.559
▁මනස	-10.5591
▁0	-10.5607
▁හවුල්	-10.561
▁දෙනකුට	-10.5617
▁ගිවිසුමක්	-10.562
▁ව්‍යාපෘතියේ	-10.562
රාජ	-10.5622
▁නඩුවක්	-10.5627
▁ගා	-10.5627
▁පාත්‍ර	-10.5628
▁කිසිසේත්ම	-10.5629
▁ඩලස්	-10.5629
▁ජි	-10.563
▁අපේක්ෂකයින්	-10.5631
පත	-10.5633
▁සිසුවියන්	-10.5633
කරමින්	-10.5634
මහ	-10.5635
▁කළමනාකාර	-10.5641
▁සතුටින්	-10.5642
▁ගෙඩි	-10.5645
▁පිරිවැය	-10.5646
▁උද්‍යානය	-10.5649
90	-10.5652
▁අසන්නට	-10.5652
▁පැවැත්ම	-10.5652
▁අසල්වැසි	-10.5653
▁පිටු	-10.5654
▁කාලෙ	-10.5657
▁පත්වෙලා	-10.5657
හේ	-10.5657
▁දකින්නට	-10.5658
▁පිළිබඳවද	-10.5659
නව	-10.566
▁මතට	-10.5663
▁හදා	-10.5667
▁අලූත්	-10.5672
▁දුරින්	-10.5672
▁තීරණයට	-10.5674
28	-10.5686
▁සැලකිලිමත්	-10.5687
▁කරවන	-10.5688
▁120	-10.569
▁වැල	-10.5692
▁ඉරානය	-10.5693
▁වැල්ලවාය	-10.5693
▁ඇමතුමක්	-10.5694
▁සිදුකරමින්	-10.5699
▁සාම්පල	-10.5702
▁ගෙවී	-10.5703
▁කැඳවීම	-10.5709
▁මිත්‍ර	-10.5717
▁කමිටුවට	-10.572
▁රාම	-10.5721
▁කීර්ති	-10.5725
ට්ස්	-10.5727
▁ගම්මානය	-10.5728
▁71	-10.5733
▁රතන	-10.5734
▁ගණනක	-10.5735
▁විමසීමට	-10.5736
▁පැවැසුවේ	-10.5739
▁තල්ලු	-10.5742
▁ජාවාරම්කරුවන්	-10.5744
▁දොරටු	-10.5744
ඩන්	-10.5747
▁යෑමේ	-10.5748
▁ලත්	-10.5754
▁හෝටලයේ	-10.5758
▁2007	-10.5763
▁ගිලන්	-10.5767
▁වචනය	-10.5774
▁පුතු	-10.5776
වලා	-10.5777
▁පීඨයේ	-10.5783
▁වැඩිවීමක්	-10.5784
▁දෙපස	-10.5788
▁නායකයෝ	-10.5792
මැද	-10.5795
▁ආයතනවලට	-10.58
▁ශ්‍රේණියේ	-10.5801
▁අවස්ථාවකදී	-10.5809
▁කුමන්ත්‍රණය	-10.5809
▁විඳින	-10.581
▁අනුබල	-10.5812
▁පත්කිරීමට	-10.5813
▁හර	-10.5816
▁මෙසේය	-10.5816
▁විවාහය	-10.5819
▁පේ	-10.582
▁කාණ්ඩ	-10.5821
▁අමාත්‍යාංශයට	-10.5824
▁වැටීමෙන්	-10.5825
▁පැවතීම	-10.5827
ෙන්ම	-10.5837
වින්	-10.5838
▁සයිටම්	-10.5838
▁සමාජයක්	-10.5849
▁ෆයිසර්	-10.5849
▁කුලියාපිටිය	-10.5855
▁66	-10.5855
▁69	-10.5858
▁නාලක	-10.5858
▁මරු	-10.5865
▁මොනවාද	-10.5866
යත්	-10.5867
▁පරීක්ෂාවට	-10.5871
23	-10.5872
▁පැත්තට	-10.5872
▁ගහලා	-10.5881
සල	-10.5881
▁වික්‍රමරත්න	-10.5881
▁අනූව	-10.5882
▁සිටියාය	-10.5882
▁අශෝක	-10.5882
යැයි	-10.5882
▁ඉඩම	-10.5883
▁77	-10.5885
▁ඉර	-10.5888
▁සහෝදර	-10.5894
▁මරදාන	-10.59
▁ධාරිතාව	-10.5902
▁පරීක්ෂකවරයා	-10.5903
▁ලකුණ	-10.5904
▁පාකිස්තානයේ	-10.591
▁පක්‍ෂය	-10.5913
▁පිහි	-10.5916
▁අත්හිටුවන	-10.5917
▁තනතුරට	-10.5918
▁බන්ධනාගාරය	-10.5919
▁පිළිගෙන	-10.5925
▁අවාසනාවන්ත	-10.5925
▁ප්‍රාදේශිය	-10.5925
▁නැග	-10.593
▁ඇතිවී	-10.5933
▁සම්බන්ධීකරණ	-10.5933
▁අවශ්‍යතාවය	-10.5936
▁යුරෝපයේ	-10.5938
▁අභි	-10.5939
▁ඇමැතිවරු	-10.5942
▁විජේසේකර	-10.5943
▁මැර	-10.5943
▁මොණරාගල	-10.5945
▁වරටත්	-10.5947
සන	-10.5949
▁හිතන්න	-10.5954
▁හෙළිවී	-10.5954
▁68	-10.5955
▁අවුරුද්දේ	-10.5955
▁පක්‍ෂයේ	-10.5957
රිස්	-10.5966
▁කරදර	-10.5968
▁මහත්ම	-10.5971
▁ගඟේ	-10.5975
▁ඇතිකර	-10.5977
▁සැපයීමට	-10.5978
▁එකිනෙකා	-10.598
▁මුදලට	-10.5983
▁හත	-10.5985
බර්	-10.5987
ානන්ද	-10.5988
▁මොනවා	-10.5988
▁ආණ්ඩුකාරවරයා	-10.5989
ජන	-10.5991
ගොල්ල	-10.5992
▁සහතිකය	-10.5995
▁තෝරාගත්	-10.5997
▁අවසරය	-10.5998
▁චීනයට	-10.6
▁සම්බාධක	-10.6001
ඩයනා	-10.6003
▁පාසලක	-10.6007
▁ඇයව	-10.6007
ුව	-10.6009
▁ජනමත	-10.601
▁නුසුදුසු	-10.6012
▁පෙළෙන	-10.6013
▁ගත්තොත්	-10.6013
▁පොහොට්ටුව	-10.6016
▁කියූ	-10.6016
▁රාජධානියේ	-10.6017
▁පැවසුවාය	-10.6019
▁වරායට	-10.6019
▁සාදා	-10.6019
වාද	-10.602
▁ඉටුකර	-10.6021
▁එතෙක්	-10.6022
▁අර්බුදයකට	-10.6026
▁නෙළුම්	-10.6026
ප්ප	-10.6029
▁රීති	-10.6031
▁රැජින	-10.6031
▁අමාත්‍යවරයාගේ	-10.6035
▁අපේක්ෂිත	-10.6035
▁පාලකයන්	-10.6036
▁ලක්විය	-10.6036
▁වරදකරු	-10.6039
▁රාජකාරිය	-10.6039
ේදි	-10.6041
▁67	-10.6042
▁ලොකුම	-10.6042
▁ඕස්ට්‍රේලියාවේ	-10.6043
▁චා	-10.6045
▁කිලෝවක්	-10.6047
▁ලේකම්වරුන්	-10.6051
26	-10.6055
▁විහාරස්ථානය	-10.6058
▁අඩුවක්	-10.6059
▁සංවිධානයට	-10.6063
▁ඉන්පසුව	-10.6063
ලාගේ	-10.6063
▁පවත්වමින්	-10.6073
▁ගොවිජන	-10.6073
සේන	-10.6074
▁පන්තියේ	-10.6077
▁සනිටුහන්	-10.6079
▁ඇඟිලි	-10.608
▁මැදිහත්වීම	-10.608
▁ඇන	-10.6081
▁පැහැදිලිය	-10.6088
▁ලසන්ත	-10.6088
▁ධූර	-10.6089
▁හදුන්වා	-10.6093
12	-10.6095
▁අක්‍රමිකතා	-10.6098
▁සුවඳ	-10.6103
▁මැදිරිය	-10.6103
▁කෙරෙන්නේ	-10.6103
▁අලංකාර	-10.6107
දෙනා	-10.6113
▁තිර	-10.6116
▁අද්මිරාල්	-10.6118
▁ශා	-10.6125
▁සම්මන්ත්‍රණ	-10.6126
ටය	-10.6127
▁පැමිණියා	-10.6127
▁අසලදී	-10.6128
▁අන්දමින්	-10.6129
ාගේ	-10.6132
▁කියැවේ	-10.6132
▁ඇඟ	-10.6135
▁තැනකට	-10.6145
▁බැඳී	-10.6148
▁වෙද්දි	-10.6148
▁ලැයිස්තු	-10.6148
ාත්මක	-10.6152
පෝ	-10.6154
▁ශිව	-10.6154
▁’’	-10.6159
▁නොලැබීම	-10.6163
▁රැකියාවක්	-10.6168
▁ලිඛිත	-10.617
▁සංඝරත්නය	-10.6174
▁හැකිවිය	-10.6175
▁මර	-10.6175
▁නියාමනය	-10.6179
▁ළහිරු	-10.618
▁ලක්වන	-10.6182
▁කෙනා	-10.6183
▁දෛනිකව	-10.6185
▁සැලසුම	-10.6185
තුර	-10.6185
▁ශක්තියක්	-10.6188
▁දේපල	-10.6189
▁කොල්ල	-10.6193
▁ජර්මනිය	-10.6194
▁ස්වදේශ	-10.6195
14	-10.6197
▁මෙහිදි	-10.6198
▁හරවා	-10.6201
▁ගාන්ධි	-10.6202
▁මුල්ම	-10.6203
▁රෙගුලාසි	-10.6204
▁කෙනෙකු	-10.6207
▁ඉල්ලයි	-10.6208
▁පන්දුව	-10.6208
▁වන්න	-10.6209
▁පරිභෝජනය	-10.6212
▁ඇන්ජලෝ	-10.6213
▁තෙ	-10.6213
▁ලැබුණ	-10.6217
▁2006	-10.6218
▁10,000	-10.6223
▁කටාර්	-10.6223
▁රක්ෂිතයේ	-10.6225
▁එදිනෙදා	-10.6227
▁අන	-10.6229
▁සම්ප්‍රදාය	-10.6234
▁ගතකර	-10.6238
▁ප්‍රචලිත	-10.6238
▁එයි	-10.6238
▁මණ්ඩලයක්	-10.624
▁සැකය	-10.6247
▁ජයග්‍රහණයක්	-10.6248
ෆ	-10.625
▁ශාරීරික	-10.6252
ෙට	-10.6253
▁දෙදෙනාට	-10.6258
▁ව්‍යවස්ථාවක්	-10.6262
21	-10.6267
▁මොහොත	-10.6273
▁මංගල්‍යය	-10.6273
▁අතරතුරදී	-10.6274
▁කිහිපයක්ම	-10.628
▁එකිනෙක	-10.628
ෙදි	-10.6281
▁තුනකින්	-10.6281
▁අන්තවාදී	-10.6283
▁කප්පම්	-10.6285
▁පතල්	-10.6285
බො	-10.6285
▁අමුද්‍රව්‍ය	-10.6286
80	-10.629
▁ගැනීමටත්	-10.629
වෙන්නේ	-10.6294
▁අනිල්	-10.6295
15	-10.6299
තින්	-10.6299
▁කාලගුණික	-10.63
▁බද්ධ	-10.63
▁පැවැත්වෙනවා	-10.6301
▁දූ	-10.6301
▁අතීත	-10.6302
▁නිළධාරීන්	-10.6307
▁දඟ	-10.631
▁කොස්තාපල්	-10.6315
▁අයදුම්පත්	-10.6316
▁ලැ	-10.632
කරුවෝ	-10.6322
▁ජාල	-10.6325
▁මන්ත්‍රීවරයෙකු	-10.6327
▁විකෘති	-10.6335
000	-10.6336
ණා	-10.634
▁අනුකූලව	-10.634
▁වරෙන්තු	-10.6341
▁වාර්තාවල	-10.6347
▁බට	-10.6349
නැ	-10.6353
▁භාජනය	-10.6354
▁හුස්ම	-10.6355
▁සමූහය	-10.6367
▁පුරුෂ	-10.6367
▁ෆෝ	-10.637
▁වූවන්	-10.637
සැ	-10.6375
▁සේවකයන්ට	-10.6379
▁ලු	-10.6381
▁බොරතෙල්	-10.6381
හන්	-10.6383
▁අන්තර්ජාල	-10.6384
▁එල්ලවී	-10.6387
▁අහන්න	-10.6393
▁සටහනේ	-10.6397
▁විත්	-10.6409
▁ශබ්ද	-10.6409
▁එයාර්	-10.6411
▁උත්පාදනය	-10.6414
▁සිද්ධි	-10.6417
▁පරිශ්‍රයේ	-10.642
▁මිනිසුන්ගේ	-10.6428
▁බලාගාරය	-10.6429
▁සැලසීම	-10.6429
▁දරුවාට	-10.643
▁තබමින්	-10.643
▁සුසාන	-10.6431
▁යොදාගත්	-10.6431
ුල	-10.6432
▁නොගන්නා	-10.6433
▁අනවසර	-10.6437
▁දැක්වෙයි	-10.6439
▁විද්‍යාඥ	-10.6441
▁බලකා	-10.6441
▁මුහුදට	-10.6448
ාගාර	-10.645
▁උනන්දුවක්	-10.645
▁ආදරණීය	-10.6451
▁පියාගේ	-10.6451
▁කැලණි	-10.646
▁අවිස්සාවේල්ල	-10.6466
▁උද්ඝෝෂණය	-10.6466
▁කරුණකි	-10.6467
▁අයිතීන්	-10.6467
වකු	-10.6476
▁ප්‍රදේශයක්	-10.6478
▁විරෝධි	-10.6484
▁සෙවීම	-10.6486
▁පෙම්වතා	-10.6488
▁රැස්වූ	-10.649
▁දේශගුණික	-10.6491
▁යටත්ව	-10.6493
තැන්න	-10.6495
▁ආර්ථිකයේ	-10.6496
▁ඉස්ලාමීය	-10.65
▁ප්‍රහාරක	-10.6502
▁විටෙක	-10.6504
▁කාර්යභාරය	-10.6516
▁පරිසරයට	-10.6516
▁එක්කර	-10.6517
▁නොහැක	-10.6518
▁යතුරුපැදියක්	-10.6519
▁නිවැරැදි	-10.652
▁පාඩුවක්	-10.6521
▁නොලැබෙන	-10.6522
ීම්	-10.6522
▁සත්කාරක	-10.6525
ැති	-10.6528
▁නත්තල්	-10.6529
▁හුදකලා	-10.6531
▁76	-10.6532
▁වුණාම	-10.6533
▁ගෘහස්ථ	-10.6535
▁මාවනැල්ල	-10.6535
▁රංජන්	-10.6536
‍ය	-10.6538
▁ආර්ථිකයක්	-10.654
▁කුමාරතුංග	-10.654
▁වෙද	-10.6541
▁තක්සේරු	-10.6546
▁දිල්ලි	-10.6549
▁දහ	-10.6551
▁ඝන	-10.6554
▁කෙහෙළිය	-10.6554
▁දේවාලයේ	-10.6556
▁ජනපතිවරයා	-10.656
▁පෙරමුණට	-10.656
▁ආයුධයකින්	-10.6563
▁ගාමිණි	-10.6563
▁අමතා	-10.6564
▁සහරාන්	-10.6567
▁පිරිසකගේ	-10.657
පූ	-10.6587
▁සිද්ධියේ	-10.6589
▁වේලාවක්	-10.6593
▁පැණි	-10.6599
▁සංඛ්‍යා	-10.6607
▁ජනගහනයෙන්	-10.6607
▁නෝට්ටු	-10.661
▁කප්පාදුව	-10.6615
▁අත්දැකීම	-10.6616
▁වැලිගම	-10.6616
▁ස්ථාපනය	-10.662
▁කාලයට	-10.6621
▁යටතට	-10.6628
▁අඹ	-10.6635
ලට	-10.6641
▁මන්ත්‍රිවරුන්	-10.6642
▁විරෝධතාවයේ	-10.6643
▁ටිපර්	-10.6644
▁මමත්	-10.6644
▁දෙස්	-10.6647
▁දෝෂ	-10.665
03	-10.6651
▁ගැනිමට	-10.6651
▁කුණාටුව	-10.6653
▁ඇදී	-10.6657
▁අස	-10.6657
▁අරුණ	-10.666
▁පැවසූහ	-10.6668
▁උපාලි	-10.6668
▁ඩො	-10.6676
24	-10.668
▁කොතලාවල	-10.6682
▁විමසීමේදී	-10.6683
▁පෙන්වාදෙයි	-10.6685
▁පිටින්	-10.6685
▁පට	-10.6686
▁එකක	-10.6687
▁දකින්නේ	-10.6689
▁පාදක	-10.669
▁අපිත්	-10.6694
▁අයගෙන්	-10.6696
ොන්	-10.67
▁කාලයකට	-10.6702
▁දරුවෙක්	-10.6704
▁සංරක්ෂණය	-10.6706
▁අත්අඩංගුවේ	-10.6706
▁බස්රථ	-10.6707
▁අනුයුක්ත	-10.671
▁දැනෙන	-10.6716
▁ප්‍රහාරයේ	-10.6716
▁සැම	-10.6717
▁වූවා	-10.6719
▁බේරුවල	-10.672
▁රියදුරා	-10.6723
▁මවගේ	-10.6724
▁බහ	-10.6735
▁නැමැත්තා	-10.6741
▁තත්ත්වයක	-10.6748
▁මොනරාගල	-10.6749
▁800	-10.6749
▁හිමිපාණන්	-10.675
.6	-10.6753
▁දුරදිග	-10.6756
75	-10.6766
▁යෙදීම	-10.6771
11	-10.6771
ඛ	-10.6772
▁රඳවාගෙන	-10.6772
▁කන්නයේ	-10.6777
▁වාහනයක්	-10.6781
බෙ	-10.6782
▁අයින්	-10.6786
▁සෛල	-10.679
▁ප්‍රිමියර්	-10.679
▁පටු	-10.6794
▁ආඥා	-10.68
▁ෙ	-10.68
බේ	-10.6804
▁නිහඬ	-10.6817
▁පසුකර	-10.6821
▁ක්‍රීඩකයෝ	-10.6822
▁ලබාදෙන්න	-10.6824
▁පැනවීම	-10.6826
▁කාටවත්	-10.6826
▁ටි	-10.6827
▁සූ	-10.6829
▁දන්න	-10.6835
▁පවුල්වල	-10.6838
▁නමැත්තා	-10.6839
.8	-10.6842
▁හසන්	-10.6843
▁පිළියන්දල	-10.6846
▁වැඩිමහල්	-10.6846
▁කොංග්‍රසය	-10.685
▁අපේක්ෂාවෙන්	-10.6852
▁ෆ	-10.6853
▁ඔක්තෝම්බර්	-10.6858
▁අනුපාත	-10.6858
▁නායකයෙක්	-10.6871
▁සම්බන්ධයක්	-10.6871
▁ශූරතා	-10.6876
▁පුද්ගලයාට	-10.6876
▁වැළකී	-10.6877
▁රාජා	-10.6877
.7	-10.6878
▁සහනය	-10.6878
▁කොඩිතුවක්කු	-10.6885
▁එවක	-10.6886
▁මේකට	-10.6886
වීමත්	-10.6893
▁කෙනකුට	-10.6897
▁නීතියක්	-10.6898
▁2004	-10.69
▁එකකි	-10.69
▁පලතුරු	-10.6903
▁අත්හැර	-10.6908
▁දේශප්‍රිය	-10.6909
▁අභියාචනා	-10.6909
▁78	-10.691
▁ඔබතුමා	-10.6912
▁උත්සාහයක්	-10.6922
යන්හි	-10.6923
ාංග	-10.6923
▁ඉදිකළ	-10.6923
▁ඉතාලි	-10.6924
▁විසදුම්	-10.6926
▁සිරිවර්ධන	-10.6926
වීම්	-10.6926
▁සිතුවම්	-10.6929
▁විසඳා	-10.6931
▁රැස්කර	-10.6932
▁පලාගොස්	-10.6939
▁තිරසර	-10.6944
▁පැවැත්වෙයි	-10.6944
▁පැල	-10.6945
▁ඔත්තු	-10.6947
▁අනාරක්ෂිත	-10.6951
▁ගනුදෙනුව	-10.6953
▁දිමුත්	-10.6953
සො	-10.6953
▁පාඩම්	-10.6955
▁කියන්නට	-10.6955
ානි	-10.6956
▁විශ්ලේෂණය	-10.6958
▁නිශ්ශංක	-10.6965
▁සැලකේ	-10.6966
▁කොච්චර	-10.6968
▁අත්දැකීමක්	-10.6968
▁පැත්තේ	-10.6968
▁වෙරළට	-10.6973
▁සිහිනය	-10.6974
▁අධිකාරියට	-10.6977
▁තිළිණ	-10.6979
▁චෝදනාවට	-10.6979
▁ගින්නෙන්	-10.6985
▁පිටියේදී	-10.6985
▁සජබ	-10.6988
▁සැබැවින්ම	-10.699
▁නසා	-10.699
▁ස්ව	-10.6992
▁වැස්ස	-10.6993
පිට	-10.6993
▁සමීක්ෂණ	-10.6994
▁සේවිකාවන්	-10.6994
▁අංශවල	-10.6996
▁කතානායකවරයා	-10.6998
▁නගරයේදී	-10.6999
▁සන්	-10.7001
▁50,000	-10.7003
▁තාන්ත්‍රික	-10.7003
▁තරඟාවලියේ	-10.7008
▁ආචාර	-10.7008
▁හමුදාපතිවරයා	-10.7009
▁දවසක	-10.7012
ණ්ඩ	-10.7013
▁පැවැත්වුණු	-10.7014
▁සිසුවිය	-10.7015
▁නළු	-10.7015
27	-10.7016
▁ජිනීවා	-10.7017
▁හෝටලය	-10.7017
▁ගුරුවරයා	-10.702
▁වර්තමානය	-10.7021
තොට	-10.7022
▁සතර	-10.7022
▁විමසූ	-10.7022
▁ආයතනයක	-10.7024
▁උගත්	-10.7024
▁මට්ටමට	-10.7027
▁දුරක්	-10.703
වන්ට	-10.703
▁නර්තන	-10.7034
▁දිනයට	-10.7039
▁දේශබන්දු	-10.7044
▁සිදුවුණා	-10.7045
▁යුද්ධයෙන්	-10.7046
▁කවුන්සිලයේ	-10.7048
▁වේදිකාව	-10.7051
▁හිම	-10.7052
▁ජනාධිපතිවරණයේ	-10.7053
▁ව්‍යාපාරිකයා	-10.7053
ගත්තා	-10.7055
▁වේදිකා	-10.7056
▁විසින්ම	-10.7056
▁රත්	-10.7058
▁92	-10.706
▁කප්පාදු	-10.7062
▁භාෂාවෙන්	-10.7066
▁නැඟී	-10.7066
▁73	-10.7073
▁ඇර	-10.7074
▁හීන	-10.7076
ාය	-10.7077
කොවිඩ්	-10.7083
▁දායකත්වයක්	-10.7085
▁1,	-10.7091
▁සහභාගීත්වයෙන්	-10.7095
▁ලසිත්	-10.7099
▁ඇතුළත්ව	-10.71
▁භට	-10.7101
▁තැන්පතු	-10.7101
▁ඉන්නෙ	-10.7102
▁ඩේවිඩ්	-10.7102
ිලි	-10.7104
▁ක්ෂණික	-10.7104
▁එජාපය	-10.7105
▁පිවිස	-10.7105
▁කෝලි	-10.7107
▁දක්වයි	-10.7107
▁දක්වාත්	-10.7107
කය	-10.7108
▁අවිය	-10.7109
▁මත්තල	-10.7112
▁පනවන	-10.7114
▁විත්තිකරු	-10.7115
පාර	-10.7116
▁මිලිමීටර්	-10.7122
▁කසුන්	-10.7125
▁කීවාය	-10.7126
▁අපේක්ෂාව	-10.7128
▁සවිකර	-10.7133
▁මෙහෙවර	-10.7133
▁පෙන්වීම	-10.7137
▁දිස්	-10.7138
▁මෙමගින්	-10.7139
▁ප්‍රදේශයක	-10.7145
▁වසරට	-10.7146
දෙණිය	-10.7147
▁සිරුරේ	-10.7153
▁මිනිත්තු	-10.7153
▁ආරම්භය	-10.7154
▁බඹර	-10.7155
▁වටය	-10.7155
ලර්	-10.7162
▁74	-10.7164
ශා	-10.7165
ිඳු	-10.7165
▁දිනෙක	-10.7167
▁ලූ	-10.7167
▁ආදරේ	-10.7168
▁සංශෝධනයට	-10.717
▁ක්‍රීඩාවේ	-10.717
▁පිළිගත	-10.7172
▁පුටින්	-10.7174
▁දැම්මා	-10.7179
▁කිරීමටයි	-10.718
▁පිටපත්	-10.7181
▁වශයෙනි	-10.7181
ගනී	-10.7182
▁සිමෙන්ති	-10.7184
හ්	-10.7187
▁පහසුකම	-10.7199
▁ජලාශ	-10.7201
ගෙදර	-10.7206
▁වටිනාකමක්	-10.7211
▁දිගට	-10.7213
56	-10.7218
ාකාර	-10.7218
18	-10.7219
▁මාරාන්තික	-10.7222
න්ට්	-10.7223
▁කිසිසේත්	-10.7224
▁ආලෝක	-10.7225
විල්	-10.723
▁පක්ෂව	-10.7237
කාරක	-10.7237
▁නිසාවෙන්	-10.7238
නට	-10.7242
ඹු	-10.7248
▁තැන්වල	-10.7249
▁ගමනට	-10.7252
▁මියයන	-10.7254
▁ආරම්භයේ	-10.7258
▁මොහොම	-10.7259
▁දැක්වීය	-10.726
▁දඩයක්	-10.7261
▁හින්දා	-10.7262
▁මාණ්ඩලික	-10.7265
▁දුෂ්කරතා	-10.7268
▁විඳ	-10.727
▁ශ්‍රීලනිප	-10.7275
▁තීරු	-10.7276
▁පාන	-10.7279
▁තර්ක	-10.7281
▁අඩාල	-10.7283
▁කියාය	-10.7285
▁විවේචන	-10.7285
▁පුපුරණ	-10.7285
▁විරෝධයක්	-10.7286
▁කඩුළු	-10.7288
▁නොදැන	-10.7288
▁නෙත්	-10.729
▁දැනගන්න	-10.7292
▁එක්වීමට	-10.7294
▁නිගමනය	-10.7294
▁විජේසිංහ	-10.7295
▁විපතට	-10.73
▁මල්ලි	-10.7302
▁කෑමට	-10.7306
▁සංචාරයේ	-10.7307
▁දේශනා	-10.7307
▁ගණනාවකට	-10.7309
ලෙ	-10.7313
▁නායකයකු	-10.7313
▁අසලට	-10.7322
▁සමන්ත	-10.7326
▁පහකට	-10.7328
▁සැළසුම්	-10.733
▁හතක්	-10.733
▁අළු	-10.7331
▁විරෝධතාවක	-10.7333
▁චීනයෙන්	-10.7336
▁ජු	-10.7336
▁එහෙයින්	-10.7339
▁ෂා	-10.734
▁පැවැත්වුණේ	-10.7342
▁තරණය	-10.7342
▁බෙදී	-10.7343
▁ආශිර්වාද	-10.7345
▁මැටි	-10.7349
▁පොළොව	-10.735
▁කතාබහට	-10.7352
▁කල්පිටිය	-10.7352
▁රැඳවුම්	-10.7356
▁ජේම්ස්	-10.7357
▁දැරියන්	-10.7357
▁දැනගෙන	-10.7357
▁අයෙකුට	-10.7358
▁ඇසුරු	-10.7358
▁පැරැණි	-10.7359
▁පිටුවහල්	-10.7361
පර	-10.7364
▁පටහැනි	-10.7364
▁එයාගේ	-10.7366
▁කොපමණ	-10.7367
▁නිවසින්	-10.7373
▁තරගයකදී	-10.7374
▁සංචිතයට	-10.7374
▁භික්ෂු	-10.7375
▁වගඋත්තරකරුවන්	-10.7378
▁ජයග්‍රාහී	-10.7379
▁එවා	-10.7379
▁වෙනි	-10.7383
▁අඩුවීම	-10.7387
▁සංඛ්‍යාත	-10.7387
▁ලියූ	-10.7387
▁සුර	-10.7392
▁සීමාවන්	-10.7392
▁බීම	-10.7393
▁කුසලතා	-10.7395
▁සැරසී	-10.7399
▁නිවැරදිව	-10.7402
ගුණ	-10.7409
▁සිදුවෙනවා	-10.7409
▁මන්ත්‍රීවරුන්ට	-10.7411
▁අඩ	-10.7413
ෙමු	-10.7416
▁සුනාමි	-10.7425
▁සැමරුම	-10.7433
▁ගැහැනු	-10.7433
29	-10.7434
▁අගවිනිසුරු	-10.7434
▁මතකය	-10.7438
▁වරින්	-10.7439
▁පල්ලිය	-10.7441
▁වයසැති	-10.7441
▁අලහප්පෙරුම	-10.7443
▁සතියකට	-10.7446
▁ඕනෙ	-10.7446
▁දෙමව්පියන්	-10.7448
▁පැමිණෙමින්	-10.7449
55	-10.7449
▁මුහුණදීමට	-10.7451
▁තාරකා	-10.7455
▁සිසුන්ගේ	-10.7456
----------------	-10.7461
▁යාමේදී	-10.7464
▁තානාපතිවරයා	-10.7464
ඳු	-10.747
▁නිවේදන	-10.7473
▁අර්ජුන්	-10.7474
▁අසේල	-10.7475
▁රෝහල්ගතව	-10.7483
ලක්	-10.7485
▁මඩකළපුව	-10.7486
▁ප්‍රතිචාරයක්	-10.7486
ාරාම	-10.7489
▁සිංගප්පූරුව	-10.7495
▁කෘත්‍රිම	-10.7495
▁ලුතිනන්	-10.7495
▁දරුවකු	-10.7499
▁එකකට	-10.7502
▁ගතයුතු	-10.7511
▁තත්පර	-10.7513
▁දැරියක්	-10.7514
▁එක්කම	-10.7516
▁වැවේ	-10.7518
▁ජන්ම	-10.7518
▁පිදුම්	-10.7519
සූ	-10.7521
32	-10.7521
▁විසන්ධි	-10.7521
ෙල්	-10.7524
▁දිසාව	-10.7524
▁ප්ර	-10.7526
අපේ	-10.7528
රය	-10.753
▁මුදාහැර	-10.753
▁නයි	-10.7531
▁ජලාශය	-10.7533
▁සම්බන්ධතාවක්	-10.7533
▁මවක්	-10.7544
▁උද්ගත	-10.7546
▁අලුත්වැඩියා	-10.7546
▁පාරිභෝගිකයන්	-10.7547
▁තියලා	-10.7548
▁ලූනු	-10.7548
▁ෂෙ	-10.7548
▁හැකිවූයේ	-10.755
විම	-10.7555
▁පූ	-10.7558
▁රාජපක්ෂගේ	-10.7559
▁සමාලෝචනය	-10.7563
▁සාක්කි	-10.7565
▁වත්තේ	-10.7567
▁කෙරිණ	-10.7568
▁සිකුරු	-10.7571
ත්වයෙන්	-10.7575
▁ධනාත්මක	-10.7576
ැන්	-10.7578
▁පැවරී	-10.758
▁අයිතියට	-10.7583
▁මෙයයි	-10.7584
▁මිනී	-10.7584
▁දශකයේ	-10.7584
25	-10.7586
▁මාමා	-10.7588
▁පැවසිය	-10.7589
ගොස්	-10.7592
ිකාව	-10.7592
▁තරුණයෙක්	-10.7596
▁උනන්දු	-10.7598
වෙකු	-10.7598
▁ලබාගන්න	-10.7605
ාගෙන	-10.7607
▁නින්ද	-10.7609
▁ඩ්‍රෝන	-10.7611
▁විවර	-10.7615
▁පෙන්වන	-10.7619
▁පෙදෙස	-10.7619
හොත්	-10.7623
▁සහනාධාර	-10.7624
▁වේවා	-10.7628
▁හෂීම්	-10.7631
▁දක්වාම	-10.7638
▁අපහසුතාවට	-10.7639
▁ගියොත්	-10.7641
▁අස්වනු	-10.7642
ධි	-10.7644
▁පුත්	-10.7645
▁ඉසුරු	-10.7649
▁අභියාචනාධිකරණ	-10.7656
▁ආහාරය	-10.7656
ඨ	-10.7657
▁ප්‍රමාණයේ	-10.7658
▁ප්‍රශ්නයට	-10.766
▁කෙසෙල්	-10.766
▁සිංගප්පූරු	-10.7664
▁විටම	-10.7665
▁දෙදෙනෙකුට	-10.7668
▁පරීක්ෂණවලදී	-10.7668
▁ප්‍රචණ්ඩ	-10.7668
ශි	-10.7669
හේන	-10.7673
▁අටක්	-10.7678
▁කියලත්	-10.7679
▁හැත්තෑ	-10.7682
▁දැනුම්දීමක්	-10.7682
▁වටිනාකමකින්	-10.7687
▁මාගේ	-10.7687
▁මාධ්‍යවේදී	-10.7688
ුම	-10.7691
▁උපාංග	-10.7692
▁දැක්	-10.7695
ල්ස්	-10.77
▁පරිශ්‍රය	-10.7701
▁බේ	-10.7704
▁ප්‍රදේශවලින්	-10.7704
▁එකතුව	-10.7707
▁පදිංචිකරුවෙක්	-10.771
▁හොරු	-10.7712
▁ඉවරයි	-10.7713
▁ගහන	-10.7719
▁හැකිවනු	-10.7725
▁පුහුණුවීම්	-10.7726
▁උණුසුම	-10.7727
▁දඩුවම්	-10.7732
▁මූ	-10.7736
▁ක්‍රියාමාර්ගයක්	-10.7737
▁ලීටර්	-10.7738
▁ඔයාට	-10.774
▁කිව්වොත්	-10.7742
ලදායී	-10.7743
▁රංගනය	-10.7745
ානු	-10.7746
▁මිලිග්‍රෑම්	-10.775
ලො	-10.775
▁ප්‍රසිද්ධියේ	-10.775
▁ගණනින්	-10.775
▁දිගේ	-10.775
▁ඩෙ	-10.7752
▁තදබදය	-10.7757
▁ගැටළුව	-10.7759
▁ආලෝකය	-10.7763
▁සමු	-10.7767
▁ශක්ති	-10.777
▁පඩි	-10.7773
▁පත්වූයේ	-10.7773
▁නොවන්නේ	-10.7776
▁බේකරි	-10.7776
ැල්ල	-10.7777
▁සාර්ථකත්වය	-10.7778
▁නාට්‍යය	-10.7779
▁ඡන්දයෙන්	-10.7782
▁හදන්නේ	-10.7788
▁විනිශ්චය	-10.7793
▁සිවු	-10.7795
▁ගුවන්තොටුපළ	-10.7795
▁ඉදිකරන	-10.7797
රින්	-10.7799
▁ඔස්ට්‍රේලියාවේ	-10.78
▁ක්‍රියාකාරීත්වය	-10.7806
▁දේවස්ථානය	-10.7807
▁බලාපොරොත්තුවෙන්	-10.7808
▁පාඩුව	-10.7809
▁අන්දමට	-10.781
▁පෙරළී	-10.7811
42	-10.7813
මන	-10.7814
▁සභාවක්	-10.7821
▁රසායන	-10.7823
▁විදුහල්පතිවරුන්	-10.7824
▁කෙළවර	-10.7828
▁වද	-10.7832
▁බුද්ධික	-10.7837
▁බිල්පත්	-10.7837
තුමන්	-10.7837
▁බත්තරමුල්ල	-10.7839
▁අඟුරු	-10.7841
▁හයි	-10.7841
▁විදුහල්පතිවරයා	-10.7844
▁අතුරුදහන්	-10.7844
▁වැදුණු	-10.7846
▁මුලදී	-10.7847
▁නොතිබූ	-10.7849
▁දුන්හ	-10.7849
▁සිව්දෙනෙකු	-10.7852
▁ඒකකයට	-10.7852
▁අත්තනායක	-10.7854
▁රාජ්‍යයන්	-10.7856
▁වනතුරු	-10.7858
ජය	-10.7859
▁මහාමාර්ග	-10.786
▁හරීන්	-10.7863
▁අවතැන්	-10.7864
▁ඇත්	-10.7864
▁ඉදිරිපස	-10.7867
මාන	-10.7867
‘‘	-10.7875
▁ශතකයක්	-10.7877
▁පූජාව	-10.7879
▁රේ	-10.7884
▁පතා	-10.7887
▁මගෙ	-10.7887
▁සමුද්‍ර	-10.7887
▁හමුවන	-10.7891
▁මිනිස්සුන්ට	-10.7894
▁ආවේණික	-10.7894
▁නිත්‍ය	-10.7898
▁ගෙන්වන	-10.7898
▁අළුයම	-10.79
▁වීදි	-10.7904
▁රමේෂ්	-10.7905
▁තැබීමෙන්	-10.7907
▁සතියේදී	-10.7908
▁නිවසේදී	-10.7909
▁මව්	-10.7912
▁විම	-10.7913
▁දමිළ	-10.7913
▁කාලගුණවිද්‍යා	-10.7914
▁හේවාජුලිගේ	-10.7916
▁පිළිතුරක්	-10.7917
▁තියාගෙන	-10.7918
වනවා	-10.7918
▁හුවමාරුව	-10.7919
▁අරඹා	-10.792
▁නිපදවන	-10.7922
▁තියා	-10.7925
▁1990	-10.7926
▁පෙති	-10.7926
▁අඟහරු	-10.7929
▁සීමාවේ	-10.7929
▁ලෙසටයි	-10.793
නියා	-10.793
▁ජෝර්ජ්	-10.793
▁වැසී	-10.7932
▁විවේක	-10.7932
▁එක්රැස්	-10.7933
31	-10.7934
▁වයස්වල	-10.7942
▁මෙහෙයවන	-10.7945
▁වේලාව	-10.7951
▁ගෙනැවිත්	-10.7951
▁අතු	-10.7956
▁හැකිව	-10.7957
වැය	-10.7959
▁නැත්තේ	-10.796
▁අනුමාන	-10.7962
▁අන්න	-10.7962
▁කිසිවෙකු	-10.7965
▁නිසාත්	-10.7966
▁සිටිනු	-10.7967
▁ජර්මනියේ	-10.7968
▁දුෂණ	-10.797
89	-10.797
▁ධීවරයන්	-10.7973
▁උර	-10.7973
▁උත්සන්න	-10.7978
▁ඒකෙන්	-10.7981
▁පස්වැනි	-10.7981
▁ලේඛනය	-10.7982
▁කම්පනය	-10.7983
කොළඹ	-10.7986
▁තාම	-10.7989
48	-10.799
▁පෙම්වතිය	-10.799
▁වික්‍රම	-10.7992
▁ගිණුම	-10.7995
▁කිරුළ	-10.7995
▁වෙළෙඳපොළට	-10.7996
▁අපහසුතා	-10.7997
▁ලක්කර	-10.7999
▁කිංග්ස්	-10.8
▁සැඟවී	-10.8
▁වේදිකාවේ	-10.8003
▁කැලෑ	-10.8004
▁ඔෆ්	-10.8005
▁ශානක	-10.801
▁ප්‍රවේශය	-10.8011
දියි	-10.8012
▁මෙහෙයවීම	-10.8015
ුනේ	-10.8016
▁දෙවියන්ගේ	-10.8018
▁පැවැසූ	-10.802
▁බෙංගාල	-10.8022
▁කෙනකු	-10.8024
කමක්	-10.8026
▁බංකොලොත්	-10.8026
▁කෘති	-10.803
▁පියාසර	-10.8033
▁කසල	-10.8033
‍ර	-10.8035
▁ලිය	-10.8036
▁දැරීමට	-10.804
▁පැහැ	-10.8042
▁මුතු	-10.8043
▁තරයේ	-10.8044
▁2.00	-10.8047
▁මන්ත‍්‍රී	-10.8051
▁වරම්	-10.8051
▁වම්	-10.8052
44	-10.8056
▁තුඩු	-10.8056
▁මොර	-10.806
▁මද	-10.8061
▁උපයන	-10.8066
ත්වයට	-10.8069
▁ඔක්සිජන්	-10.8071
▁දැනුමක්	-10.8076
▁කලකට	-10.8078
▁පණිවුඩය	-10.8084
▁අවතීර්ණ	-10.8085
▁පුරාවට	-10.8085
▁වනිඳු	-10.8086
ස්ථාන	-10.8087
▁ඉදිරිපත්ව	-10.8087
▁කඩුලූ	-10.8088
රාජ්	-10.8089
▁බෝධි	-10.8089
▁ඇතිවීම	-10.8089
▁ගැටලුවලට	-10.8091
ණී	-10.8091
▁පසුවූ	-10.8093
▁පෝලිම්	-10.8095
▁ඉරුදින	-10.8096
▁ලාල්	-10.8096
වීය	-10.8097
▁වැටිලා	-10.8097
▁සංහිඳියාව	-10.8097
▁වයසේ	-10.8099
▁නායකයෙකු	-10.8099
▁පැකට්	-10.8102
▁සිරවී	-10.811
▁ගෙවුණු	-10.8111
▁සංවාද	-10.8112
▁මායිම්	-10.8112
▁විදේශගත	-10.8112
▁චාමර	-10.8118
▁අභියෝගයට	-10.8118
▁අසුන්	-10.8121
▁කීවා	-10.8131
්නැයි	-10.8132
▁ඉක්මන්	-10.8133
▁අමු	-10.8134
▁ගවේෂණය	-10.8134
▁බේර	-10.8136
▁තියෙන්න	-10.8137
▁සූදානමක්	-10.8138
වය	-10.8141
77	-10.8142
කිරීමේ	-10.8142
▁ගැසීම	-10.8142
▁පොලොන්නරුව	-10.8143
▁ජාති	-10.8146
▁අහස	-10.8149
ෙස්	-10.815
▁නිලවරණය	-10.815
▁හසරංග	-10.8151
▁වගන්ති	-10.8152
▁ඔසවා	-10.8153
▁අසාධාරණ	-10.8156
▁ලන්කන්	-10.8157
කරගෙන	-10.8162
▁බලධාරින්	-10.8162
මැ	-10.8168
▁හික්කඩුව	-10.8168
▁පැවතිය	-10.8168
▁ප්‍රභූ	-10.8168
▁මෝ	-10.817
▁හරක්	-10.8171
▁අවබෝධතා	-10.8173
▁දියර	-10.8173
▁අතවර	-10.8173
▁මව්පියන්	-10.8174
▁රෝහලෙන්	-10.8174
▁තීරය	-10.8175
▁පථය	-10.8175
▁පොහොය	-10.8176
▁ලැයිස්තුව	-10.8177
▁කීප	-10.8177
▁වේලාවෙන්	-10.8178
▁රථයෙන්	-10.8178
▁නොයෙකුත්	-10.8179
▁හිරිහැර	-10.8179
▁පසුවයි	-10.8182
▁ඉක්ම	-10.8182
▁අල්ලයි	-10.8183
වෙක්	-10.8185
▁සෝවියට්	-10.819
▁තදබදයක්	-10.819
▁බළකායේ	-10.819
▁අනන්‍යතාව	-10.8193
▁ලෝකඩ	-10.8198
▁ජයකොඩි	-10.8204
▁පැවරීමට	-10.8204
▁භාණ්ඩාගාර	-10.8204
▁පිහිටීම	-10.8207
▁ප්‍රකාරව	-10.821
▁රාත්‍රිය	-10.8212
▁මෙතන	-10.8213
▁එතුමාගේ	-10.8214
▁බලාත්මක	-10.8214
▁කාරණාව	-10.8224
▁උපකාරක	-10.8225
▁මාර්ගවල	-10.8228
▁මුදලකට	-10.823
▁පොසොන්	-10.8232
▁ලැබිලා	-10.8236
▁මිරිස්	-10.8236
▁අමාරු	-10.8238
▁පුළුවන්ද	-10.8247
▁නවීකරණය	-10.8248
්ලි	-10.8248
▁ඇමතිවරුන්	-10.8252
▁දේවාල	-10.8258
පාන	-10.8259
▁කංචන	-10.8259
ෙනවා	-10.8263
▁ජාවාරමක්	-10.8265
▁සතියක්	-10.827
මො	-10.827
▁වර්ධන	-10.8272
▁පැන්	-10.8272
පර්	-10.8272
▁කාර්යක්ෂම	-10.8274
කෙ	-10.8277
▁හැඳින්වේ	-10.8281
▁මතින්	-10.8283
▁සබඳතාවක්	-10.8289
▁පැරිස්	-10.8291
ච්චි	-10.8294
▁සිටියත්	-10.8295
▁තුන්දෙනෙකු	-10.8296
▁1977	-10.8299
▁ටයිම්ස්	-10.83
▁එපමණක්	-10.8302
▁ඔවුන්ව	-10.8303
▁වාර්තාවට	-10.8306
▁හොංකොං	-10.8307
▁සළකා	-10.8308
▁ගිවිසුමකට	-10.8308
▁දේශන	-10.8308
▁නෛතික	-10.831
▁සංකේත	-10.8312
හර	-10.8317
▁සැකකරුගේ	-10.8319
36	-10.832
▁ඉල්ලීමට	-10.8322
▁පත්වීමෙන්	-10.8327
නර්	-10.8327
▁තියන	-10.8334
▁යටවී	-10.8335
▁බැලීමේදී	-10.8341
න්ඩ	-10.8341
▁ඉස්මතු	-10.8342
▁කඳුකරයේ	-10.8342
දෝ	-10.8344
▁සංවර්ධනයට	-10.8344
▁වැළ	-10.8345
▁යෙදුණු	-10.8345
ේම	-10.8349
▁සුහද	-10.8352
▁අර්බුදකාරී	-10.8352
▁යෙදවීමට	-10.8352
▁රෝගීන්ගේ	-10.8353
▁බොහෝමයක්	-10.8357
▁පහල	-10.8358
▁යෝග	-10.8358
▁රෝගියා	-10.8359
▁විසඳීමට	-10.8361
▁දුම්	-10.8361
▁පදිංචිකරුවෙකු	-10.8366
▁හරියටම	-10.8366
▁සුමංගල	-10.8367
▁පැනවීමට	-10.8368
▁භික්ෂුන්	-10.8369
කරන්න	-10.8371
▁ලැයිස්තුවේ	-10.8371
▁පාක්ෂික	-10.8374
▁අවස්ථාවන්	-10.8375
▁රුහුණු	-10.8377
▁කෙටුම්පත්	-10.8377
▁ශ්‍රේණිය	-10.8378
▁දෙනාගෙන්	-10.838
▁විසඳීම	-10.838
▁ඇසූ	-10.8381
▁කොට්ඨාශ	-10.8386
▁තෝරාගෙන	-10.8394
හල	-10.8396
තුව	-10.8396
▁වැඩිහිටියන්	-10.8397
▁සිරියානු	-10.8397
▁එන්නත්කරණය	-10.84
▁ජයගත්	-10.84
▁ඉසව්ව	-10.8404
▁කුමක්දැයි	-10.8411
▁පාර්ශ්වයේ	-10.8413
▁කරවා	-10.8414
▁මහේල	-10.8416
▁ලබාගනිමින්	-10.8418
▁වගාවට	-10.842
▁දික්වැල්ල	-10.842
▁සහයෝගීතාව	-10.8421
▁පරීක්ෂකවරුන්	-10.8421
▁හැරුණු	-10.8423
▁අංශයෙන්	-10.8423
▁රැලිය	-10.8428
▁දයා	-10.843
යර්	-10.8431
▁ජනිත්	-10.8436
▁දැමීමේ	-10.8436
▁භූමිකාව	-10.8438
▁එක්විය	-10.8441
කරුවෙක්	-10.8445
38	-10.8447
ආරච්චි	-10.8448
▁කන්ටේනර්	-10.8449
▁හදුනා	-10.8452
▁විරෝධතාවය	-10.8453
▁රසික	-10.8456
▁කැබලි	-10.8457
▁හතළිස්	-10.8457
▁ලැබෙයි	-10.8467
වෙනි	-10.847
සාර	-10.8471
▁පුරවැසිභාවය	-10.8478
▁නොසිටි	-10.8481
ගො	-10.8481
▁ශ්‍රම	-10.8481
▁සටන්කාමීන්	-10.8484
▁කාර්යයක්	-10.8486
▁බලධාරීන්ට	-10.8488
▁සිරියාවේ	-10.8488
▁ස්ථීර	-10.8489
▁දඩයම්	-10.8489
▁පැටවුන්	-10.849
37	-10.849
▁නේවාසික	-10.8495
▁ටෙන්ඩර්	-10.8497
▁හොඳටම	-10.85
▁ගමන්ගත්	-10.8503
▁පැවිදි	-10.8506
කටම	-10.8509
▁පුෂ්පකුමාර	-10.8511
▁යන්ත්‍රයක්	-10.8514
▁පෙට්ටි	-10.8514
▁පිවිසෙන	-10.8517
▁හතරකට	-10.8518
▁ලැබීමෙන්	-10.8518
රාජා	-10.8522
▁මිලි	-10.8523
▁සංස්ථා	-10.8524
▁මතුගම	-10.8527
▁කරුණා	-10.8528
▁සාමාන්‍යාධිකාරී	-10.8529
ෙමි	-10.853
▁වීදිය	-10.8538
▁වයිරස	-10.8544
▁සෙවීමට	-10.8544
▁මදි	-10.8546
▁සොහොයුරා	-10.8546
▁අඩවියේ	-10.8549
▁පදනම්ව	-10.8549
▁පෙම්	-10.8549
▁යතුරුපැදියකින්	-10.8551
▁අධිපතිවරයා	-10.8551
▁වෙළෙඳුන්	-10.8552
▁කලාපයට	-10.8552
වම	-10.8553
▁නාලිකාව	-10.8553
▁මැදපෙරදිග	-10.8555
▁කුජ	-10.8555
▁ජයතිලක	-10.8556
කටත්	-10.8561
▁බලලා	-10.8562
▁මගෙන්	-10.8563
▁නාහිමියන්	-10.8564
ෆා	-10.8567
▁ආසනය	-10.8571
▁මනාව	-10.8572
▁චාල්ස්	-10.8572
▁විජයදාස	-10.8572
▁අසාමාන්‍ය	-10.8573
ලයි	-10.8574
▁1960	-10.8575
ක්‍ෂ	-10.8578
▁දහයක්	-10.8579
▁නලින්	-10.8579
▁පරිසරයක්	-10.8579
▁උත්සාහක	-10.8584
▁රූගත	-10.8587
▁කෝවිඩ්	-10.8587
▁කෙරෙයි	-10.8587
▁තනිව	-10.8589
▁පිළිබඳවත්	-10.8595
▁බංග්ලාදේශයේ	-10.8598
▁ප්‍රශ්නයකට	-10.8599
▁නිරෝගී	-10.8601
▁ක්‍රිස්	-10.8607
▁පාසැල්	-10.8609
▁රත්මලාන	-10.8611
ෙනුත්	-10.8613
▁තදින්	-10.8614
▁කවුරුන්	-10.8615
47	-10.8617
▁පොදුවේ	-10.8617
▁නිර්මාතෘ	-10.862
▁දාන	-10.862
▁පහසුව	-10.8625
▁ක්‍රීඩාංගණය	-10.8626
සම්	-10.8626
▁විද්වත්	-10.8629
▁වැඩියි	-10.8631
▁බණ්ඩාරගම	-10.8631
▁පවතියි	-10.8633
33	-10.8636
▁1970	-10.8637
▁හර්ෂණ	-10.8639
▁භුක්ති	-10.8641
▁පොතේ	-10.8643
▁කුස	-10.8643
▁දෙදරු	-10.8651
▁නිමාවට	-10.8653
▁කීම	-10.8654
▁නොගැනීම	-10.8656
▁වෙඩිතැබීම	-10.8656
▁සලකන	-10.8658
▁ඇල්	-10.8659
▁වෙන්නප්පුව	-10.866
▁සහභාගිත්වයෙන්	-10.8677
▁ගම්වාසීන්	-10.868
පද	-10.868
▁උපයෝගිතා	-10.8682
▁පැමිණිය	-10.8684
▁පහරදීමේ	-10.8685
▁වගකිවයුතු	-10.8688
▁සිසිර	-10.8689
▁(19	-10.869
99	-10.869
▁අවුල්	-10.8691
▁නීතිඥවරුන්	-10.8692
▁සූත්‍රය	-10.8694
▁සිල්	-10.8695
ියේ	-10.8701
▁ආව	-10.8703
▁රටපුරා	-10.8706
02	-10.8706
▁සමස්ථ	-10.8708
▁මෙතරම්	-10.8709
▁සෑහෙන	-10.8714
▁සමරවික්‍රම	-10.8714
▁දමමින්	-10.8718
▁උතුරුමැද	-10.8719
▁ත්‍රී	-10.8719
▁සත	-10.8719
▁රැස්කිරීමට	-10.872
▁මුහුණට	-10.8725
▁පරම්පරාව	-10.8729
▁යටි	-10.8732
ාධිපති	-10.8734
▁ෆෙඩරල්	-10.8738
▁නගා	-10.8739
▁යහපත	-10.8745
▁ප‍්‍රමාණය	-10.8746
▁රත්න	-10.8751
▁පිපිරීම	-10.8752
▁පිටිය	-10.8752
▁පුනර්ජනනීය	-10.8753
▁වීරරත්න	-10.8753
▁රෝගයක්	-10.8754
▁කිම්	-10.8757
▁දේශපාලනඥයින්	-10.876
▁ආර	-10.8762
▁බොහෝවිට	-10.8762
▁සම්පන්න	-10.8765
▁ගුවන්තොටුපල	-10.8765
▁එයාලා	-10.8768
▁හොයන්න	-10.877
98	-10.8774
▁පීඩන	-10.8775
▁වැඳ	-10.8775
▁අපරාධකරුවන්	-10.8779
▁උදාහරණ	-10.8779
ලත්	-10.8781
▁ප්‍රචණ්ඩත්වය	-10.8783
▁කඩවත	-10.8785
▁තට්ටු	-10.8786
▁අතරම	-10.8786
▁ඇතුළට	-10.8788
▁දොස්තර	-10.8788
▁කුමරිය	-10.8799
▁ඉල්ලුම්	-10.8801
▁තහනමක්	-10.8803
නෑ	-10.8804
ස්ටර්	-10.8804
▁කරනුයේ	-10.8805
▁තිබුණේය	-10.8809
ිල්ල	-10.8811
▁රළ	-10.8812
▁පටිගත	-10.8815
▁ප්‍රාන්තය	-10.8817
▁රැකවරණය	-10.8821
▁රළු	-10.8821
▁අඳුරු	-10.8825
සම	-10.8825
▁අඩුවෙන්	-10.8827
▁තිරගත	-10.8828
,500	-10.8829
▁රැල්ල	-10.883
▁යෝධ	-10.8831
▁ජාන	-10.8831
▁පනතක්	-10.8832
01	-10.8835
▁සේවයෙන්	-10.8837
▁හිතේ	-10.8839
43	-10.884
▁ගුරුවරු	-10.8841
▁කියාසිටියේ	-10.8841
▁දෙවරක්	-10.8841
▁හැඟීම	-10.8844
49	-10.8845
▁අලුත්ම	-10.8849
දන	-10.8851
▁සුභ	-10.8854
▁ආසාදන	-10.8854
▁සමරු	-10.8855
▁සොරකම	-10.8858
▁නැතත්	-10.8858
▁පීඨ	-10.8861
▁එනු	-10.8861
වරයාට	-10.8862
▁ගැල	-10.8869
▁ටෙ	-10.8869
▁වෙලාවක	-10.8872
▁අවකාශය	-10.8873
▁2001	-10.8873
▁සොරා	-10.8873
▁ශිල්පී	-10.8877
▁සංදේශ	-10.8877
▁විවෘතව	-10.8879
▁ජාතිකයෙකු	-10.8879
▁හතරක	-10.888
▁මහත්මියගේ	-10.8881
▁කැනඩාව	-10.8881
59	-10.8884
▁පන්දුවක්	-10.8889
▁මාර්ගගත	-10.8889
▁පෘථිවිය	-10.889
▁සංසරණය	-10.8891
▁තොටුපල	-10.8891
▁ජොන්ස්ටන්	-10.8892
▁තායිලන්තය	-10.8892
▁පදික	-10.8893
▁82	-10.8894
▁සංගක්කාර	-10.8895
3)	-10.8897
▁නිවා	-10.8898
▁සංක්‍රමණය	-10.89
▁රාමුව	-10.8901
▁ජිවිතක්ෂයට	-10.8903
▁විද්වතුන්	-10.8904
පිය	-10.8907
▁වෙළඳපොළ	-10.8908
▁හුදෙකලා	-10.8911
▁කැමැත්තක්	-10.8912
▁මෙතැන	-10.8915
▁තමන්ගෙ	-10.892
▁පැහැදිලිවම	-10.892
▁ගොඩනැගීමට	-10.8922
▁83	-10.8923
▁ක්ෂුද්‍ර	-10.8924
▁ලාංකීය	-10.8924
▁සීගිරිය	-10.8925
▁භාරදීමට	-10.8926
▁මවට	-10.8929
▁ප්‍රදේශයේම	-10.8934
▁ජනාවාස	-10.8934
▁අලුත්ගමගේ	-10.8936
▁ප්‍රේක්ෂක	-10.8937
▁නොදීම	-10.8938
▁නිදා	-10.894
▁වාර්තාවී	-10.8944
▁සිංගප්පූරුවේ	-10.8945
▁රුව	-10.8946
▁ව්‍යවසාය	-10.8948
▁තැබීමකින්	-10.8949
▁කර්තෘ	-10.8949
ෞ	-10.895
▁දෙකෙන්	-10.895
▁වාමාංශික	-10.8951
▁පැත්තකින්	-10.8954
▁කැනඩාවේ	-10.8956
▁කොට්ට	-10.8957
▁හිසට	-10.896
▁ක්‍රිස්තියානි	-10.896
ඔබ	-10.8961
▁විනිසුරුවරුන්	-10.8962
65	-10.8965
78	-10.8968
▁මහර	-10.8969
▁නාසා	-10.8969
▁විල	-10.8972
▁තිස්සමහාරාම	-10.8972
▁තරුණියක්	-10.8972
▁ඒකකයක්	-10.8973
▁ඉසව්වේ	-10.8974
▁ගෙනා	-10.8975
▁ඩයස්	-10.8979
▁බොක්ක	-10.8981
ගමුව	-10.8982
▁මධ්‍යස්ථානයට	-10.8984
▁මන්ත්‍රීවරුන්ගේ	-10.8987
▁පුද්ගලයකුට	-10.8989
ෂ්ඨ	-10.8989
▁රථයකට	-10.899
▁අනාගතයේ	-10.8994
▁සියළුම	-10.8995
▁ආරක්‍ෂාව	-10.8999
▁රියැදුරන්	-10.9
▁අයවැයෙන්	-10.9004
ියන්	-10.9007
▁තමන්ව	-10.9008
▁ගොඩනැගීම	-10.9008
▁කමක්	-10.9008
▁සාකච්ඡාවක	-10.901
▁ජලජ	-10.9016
▁යාල	-10.9018
▁කැට	-10.9023
▁ගැටලුවට	-10.9023
▁බගවන්තලාව	-10.9024
▁එළිය	-10.9027
▁ව්‍යවස්ථාදායක	-10.9027
▁ලැබුවේය	-10.9027
ෙද්දී	-10.9027
යින්ගේ	-10.9029
▁ගණ	-10.903
▁සීතල	-10.903
▁මිතුරා	-10.9031
▁භූමිතෙල්	-10.9033
▁බරක්	-10.9034
▁මසකට	-10.9035
▁විවාහක	-10.9036
▁ආයෝජකයන්	-10.9038
▁ක්‍රියාදාමය	-10.9038
▁සියඹලාපිටිය	-10.9039
▁වීරයා	-10.9041
▁පොලිය	-10.9044
▁බලමින්	-10.9045
▁අස්සන්	-10.9047
▁සමීපව	-10.9049
යෙ	-10.9051
▁භූමියට	-10.9052
▁සිදුවෙමින්	-10.9053
▁හකීම්	-10.9054
▁වාස්	-10.9055
▁අසලින්	-10.9055
▁දිනවලදී	-10.9056
▁නීත්‍යානුකූල	-10.9057
▁නිකායේ	-10.9059
▁පර්යන්තය	-10.9061
▁99	-10.9062
▁කි‍්‍රයාත්මක	-10.9063
▁පන්තිය	-10.9064
▁වඩ	-10.9065
▁අසූ	-10.9065
▁පණිවිඩයක්	-10.9066
▁පැමිණිල්ලකට	-10.907
▁බියක්	-10.9071
▁යවන්න	-10.9075
▁චක්‍රලේඛය	-10.9077
▁අවශ්‍යය	-10.9078
▁අනුරාධපුරය	-10.9078
▁කප්පාදුවක්	-10.9081
▁උද්ගතව	-10.9085
▁දහසකට	-10.9094
92	-10.9094
▁පත්‍රයක්	-10.9095
▁සයි	-10.9096
▁කිව්ව	-10.9096
▁සෙනරත්	-10.9099
▁තල්	-10.9101
▁සංවිධානයක්	-10.9104
▁සැසිවාරය	-10.9106
▁බර්	-10.9109
▁මංජුල	-10.9111
▁පත්‍රිකාව	-10.9111
▁කුමාරි	-10.9112
▁යුක්‍රේන	-10.9113
▁වර්ගය	-10.9113
▁අලාභ	-10.9114
▁වගාවන්	-10.9117
▁සරණ	-10.9117
▁දෙවි	-10.9121
▁පෙරමුණු	-10.9121
ිම	-10.9124
▁පිරවුම්හල්	-10.9127
▁බොන්න	-10.9129
▁සැහැල්ලු	-10.9129
.9	-10.913
96	-10.9132
▁මෙයා	-10.9132
▁බෙලිඅත්ත	-10.9133
▁අපරාධය	-10.9133
▁දිස්ත්‍රික්කයට	-10.9134
▁කමල්	-10.9135
▁ඔබ්බට	-10.9136
▁හඳුන්වනු	-10.9136
ර්ස්	-10.9136
▁පදිංචිකරුවෙකි	-10.9137
▁පාර්ශවයේ	-10.9138
▁විජයවර්ධන	-10.9139
▁ප්‍රේමය	-10.914
▁ජනතාවක්	-10.9143
▁පුවරු	-10.9144
▁සමාරම්භක	-10.9145
▁හමාස්	-10.9149
▁තිරසාර	-10.9151
කුල	-10.9153
▁මුද්‍රණ	-10.9158
▁මහකොමසාරිස්	-10.916
▁ක්‍රියාවන්	-10.9161
▁1500	-10.9162
▁රාත්‍රීයේ	-10.9165
▁ඇස්තමේන්තු	-10.9165
▁දීමක්	-10.9166
46	-10.9167
▁වෛද්‍යවරුන්ගේ	-10.9169
▁කැමැත්තෙන්	-10.9169
▁දිනුම්	-10.9169
▁ගිණුමේ	-10.9171
▁කේන්ද්‍රය	-10.9173
▁වෙළෙඳාම	-10.9173
▁වෙළඳසැල්	-10.9174
▁තුර්කි	-10.9176
▁රී	-10.9179
▁තෑගි	-10.9182
▁රජරට	-10.9183
▁ධවල	-10.9185
▁ඇසළ	-10.919
▁බෙදාහැරීම	-10.919
▁කිරීමය	-10.9197
▁දේශනය	-10.9199
▁කෝවිල	-10.9199
▁ත්‍රි	-10.92
පහ	-10.92
▁3000	-10.9201
▁කලාකරුවන්	-10.9202
▁අභ්‍යාස	-10.9202
්නා	-10.9204
▁රාජසිංහ	-10.9205
▁ජාවාරමේ	-10.9207
▁බලයේ	-10.9208
ුයේ	-10.9212
▁84	-10.9212
▁මාරක	-10.9214
▁සුවිශේෂ	-10.9216
▁ඇමැතිතුමා	-10.9221
▁බම්බලපිටිය	-10.9222
▁යනකොට	-10.9222
▁අමාත්‍යවරිය	-10.9226
▁එතුමාට	-10.9227
▁පිළිගැනීමට	-10.923
▁අමාත්‍යවරයාට	-10.9232
▁හොරකම්	-10.9233
්නෙ	-10.9235
▁ඔබ්බෙන්	-10.9237
▁කැමතියි	-10.924
▁වයි	-10.9241
▁කර්මාන්තයට	-10.9241
▁සියවස	-10.9241
66	-10.9242
▁ඉහතදී	-10.9245
▁උළෙලේදී	-10.9245
▁ගියාම	-10.9247
▁අතීතය	-10.9248
▁ඔබාමා	-10.9251
▁ඥානසාර	-10.9253
හට	-10.9254
▁පාප්	-10.9255
34	-10.9256
▁දේශය	-10.926
▁අංශක	-10.926
▁තු	-10.9261
විණි	-10.9261
▁කඩු	-10.9267
▁තරුණයකු	-10.9267
▁දෙපළ	-10.9267
ක්වත්	-10.9268
▁පතිත	-10.9268
▁සටනට	-10.9269
▁නැගූ	-10.927
▁සහෝදරිය	-10.9273
චා	-10.9276
ියා	-10.928
▁හානිකර	-10.9281
▁නොමැතිවීම	-10.9283
▁කොට්ඨාසයට	-10.9284
සුජිත්	-10.9287
▁තිබ්බා	-10.9287
▁අසුන	-10.9288
58	-10.9291
▁සැමට	-10.9291
ෙම	-10.9292
වුවද	-10.9294
▁සමා	-10.9296
▁20,000	-10.9296
▁පෙත්සම්කාර	-10.9296
▁තිබි	-10.9296
▁රැස්ව	-10.9298
95	-10.93
▁මොහොතකට	-10.9301
▁ඉක්මවූ	-10.9303
▁හැඟීම්	-10.9304
▁පැවරීම	-10.9305
▁කම්පන	-10.9305
72	-10.9309
85	-10.931
▁කලාපයක්	-10.9313
▁අමුතු	-10.9316
▁පුවරුව	-10.9317
▁වර්ජනයක්	-10.9321
▁අසාධාරණයක්	-10.9322
▁අක්කා	-10.9322
▁මහන්සි	-10.9323
4,	-10.9324
▁විමර්ශණ	-10.9327
▁බුදුරජාණන්	-10.933
▁සමඟයි	-10.933
▁ප්‍රමිතිය	-10.9331
▁ඉනිමට	-10.9332
ජාතික	-10.9332
▁ඇතිවේ	-10.9334
▁කාමරයේ	-10.9337
▁යාවත්කාලීන	-10.9339
▁කුකුළු	-10.934
▁තිසර	-10.9344
▁දණ්ඩනය	-10.9344
▁රක්ෂිතය	-10.9345
▁භ	-10.9345
▁වර්ෂාපතනය	-10.9345
යාය	-10.9345
▁කතාවට	-10.9345
▁තලේබාන්	-10.9346
▁ළං	-10.9347
▁ධාවනයට	-10.9348
▁හොත්	-10.9351
▁නිලධාරින්ට	-10.9354
▁සමුළුවේ	-10.9357
▁බයිඩන්	-10.9361
▁මහේන්ද්‍රන්	-10.9366
▁ඉරියව්	-10.9367
▁තඹ	-10.9368
හරි	-10.9368
▁කැඩී	-10.9369
52	-10.9371
▁නිරාකරණය	-10.9371
▁ලක්වීම	-10.9373
▁ගායන	-10.9374
▁දේශයට	-10.9378
▁ගැහැණු	-10.938
▁ව්‍යාපාරයට	-10.9381
▁පොදුරාජ්‍ය	-10.9381
▁එන්නත්කරණ	-10.9383
රණය	-10.9383
▁ගැටළුවක්	-10.9388
▁අපයෝජනය	-10.9388
▁ජනබලවේගය	-10.939
▁බි්‍රතාන්‍ය	-10.939
▁ආකාරයක	-10.9391
▁ප්‍රධානම	-10.9393
▁සංචාර	-10.9393
▁හැඩය	-10.94
▁සංවත්සරය	-10.94
▁ප්‍රසාද්	-10.94
▁සම්මුතිය	-10.9403
▁ලොතරැයි	-10.9405
▁මුවදොර	-10.9405
▁යුග	-10.9406
▁විල්	-10.9407
▁විසූ	-10.9407
න්නා	-10.9408
▁වන්නේය	-10.9408
▁මාල	-10.9409
▁පිළිම	-10.941
▁රුධිරය	-10.9412
▁මයිකල්	-10.9415
▁විනාශයට	-10.9418
▁ප්‍රාණ	-10.9418
▁ගං	-10.9418
▁දිනටත්	-10.9418
▁අන්තිමට	-10.9422
▁සිව්වන	-10.9422
▁තුලින්	-10.9423
▁නිර්මාණයක්	-10.9425
▁ප්‍රමාණයෙන්	-10.9425
▁මුවාවෙන්	-10.9425
▁විතානගේ	-10.9429
▁පැවැත්වෙන්නේ	-10.9429
▁ප්‍රමුඛතම	-10.943
හෙ	-10.9433
▁ඉන්දියන්	-10.9435
නුත්	-10.9436
▁නිරාවරණය	-10.9436
▁ශාඛාව	-10.9439
▁නිවන	-10.9439
▁දුර්ලභ	-10.944
▁ගැනිම	-10.9441
▁රෝහිත	-10.9441
▁නාඳුනන	-10.9443
▁අනවසරයෙන්	-10.9444
▁සාවද්‍ය	-10.9452
▁ගම්පොළ	-10.9454
▁දෙමටගොඩ	-10.9455
▁යුරෝපය	-10.9457
▁ළ	-10.9461
▁තායිලන්තයේ	-10.9462
▁කිහිපයකදී	-10.9462
දීමට	-10.9468
▁ආභරණ	-10.9468
▁කුරු	-10.9469
▁විපර්යාස	-10.9475
ලියා	-10.9478
▁ජර්මන්	-10.9479
▁ප්‍රමිතියෙන්	-10.948
▁හිතන	-10.9483
▁සතුටට	-10.9483
▁අගරදගුරු	-10.9484
▁ආකාරයකින්	-10.9484
▁සම්පත	-10.9484
▁නොවිය	-10.9485
▁තිළිණි	-10.9491
▁අමරසිංහ	-10.9494
▁අණදෙන	-10.9496
ඔහු	-10.9497
▁අමිල	-10.9507
▁මාලදිවයින	-10.9507
▁වීරසේකර	-10.9509
ද්දි	-10.9511
▁නික්ම	-10.9512
▁උදවිය	-10.9512
▁අබේසේකර	-10.9512
▁මරණීය	-10.9518
▁දිගුකාලීන	-10.9521
▁විපක්ෂයට	-10.9522
▁පිළිගන්නා	-10.9525
වේය	-10.9527
▁පිටකොටුව	-10.9527
▁ගාල්ලේ	-10.9532
▁දුරකථනයෙන්	-10.9532
ජන්	-10.9532
▁පදනමක්	-10.9533
▁විවාද	-10.9536
▁එළඹ	-10.9537
▁හඳුනාගත	-10.9538
▁බැහැරව	-10.954
▁නිවෙස්වල	-10.954
▁වනාන්තරය	-10.9542
▁යානයෙන්	-10.9542
▁හැඳින්විය	-10.9545
▁අපිව	-10.9547
යෙනි	-10.9547
▁මහේෂ්	-10.9549
▁ජයගෙන	-10.955
▁හමන	-10.9551
▁අයකුට	-10.9551
▁පෙත්සම්කරු	-10.9552
▁වර්ෂාවත්	-10.9553
▁කදිම	-10.9555
▁ආයතනික	-10.9555
▁පිටියෙන්	-10.9557
▁බිල්	-10.956
ටුව	-10.9561
▁මහනගර	-10.9566
දිස්ත්‍රික්කයෙන්	-10.9566
▁ගි	-10.957
▁ස්වර්ණාභරණ	-10.9573
▁වටලා	-10.9573
▁වදින	-10.9574
▁තා	-10.9577
▁1989	-10.9577
▁ලො	-10.9577
ෙන්නට	-10.9578
▁පත්‍රයේ	-10.9578
▁දෙන්නැයි	-10.9579
▁පිළිබිඹු	-10.9579
▁දේශසීමා	-10.958
39	-10.958
▁කඩදාසි	-10.9582
▁වරයා	-10.9583
▁පිලි	-10.9585
▁සංශෝධනයක්	-10.9586
▁සංචාරයට	-10.9591
▁මානුෂීය	-10.9592
▁ඇරඹේ	-10.9592
මාල්	-10.9593
▁නැකැත්	-10.9598
▁නිරෝෂන්	-10.9602
නයේ	-10.9602
▁සංග්‍රහය	-10.9603
දේව	-10.9604
▁එරටින්	-10.9604
▁මැතිනිය	-10.9605
▁ගසක්	-10.9608
▁88	-10.961
.15	-10.9611
▁පුනරුත්ථාපන	-10.9614
▁කාමරය	-10.9615
▁වීමය	-10.9616
▁පුද්ගලයන්ගේ	-10.9617
▁රූපවාහිනි	-10.962
▁සිරිකොත	-10.9621
▁ජර්මානු	-10.9621
▁අධ්‍යාපනයට	-10.9621
79	-10.9624
▁ලබාගත්තේය	-10.9626
▁කරුණාතිලක	-10.9627
▁ගනියි	-10.963
08	-10.9631
ෙන්න	-10.9633
▁දිවිය	-10.9633
▁ලැබූහ	-10.9634
▁පෙරදිග	-10.9634
▁පලස්තීන	-10.9634
▁හිතවත්	-10.9636
▁රණවිරු	-10.9636
▁යෞවන	-10.964
▁වෙස්	-10.9641
▁හැකියාවන්	-10.9642
▁පාඨමාලා	-10.9649
▁පරතරය	-10.9649
▁සම්බන්ධයෙන්ද	-10.9651
▁කාලීනව	-10.9652
▁විකුණන	-10.9655
▁සිනමාව	-10.9656
▁යාමත්	-10.9659
නාත්	-10.9662
▁ආධාරකරුවන්	-10.9663
▁සෙනසුරු	-10.9666
▁කීහ	-10.9667
▁අනුස්මරණ	-10.9669
68	-10.967
86	-10.9671
▁සුරංග	-10.9672
▁ගැනීමක්	-10.9673
ැක්	-10.9674
▁සටහන්ව	-10.9675
▁වගකීමෙන්	-10.9676
ධර	-10.9678
▁ප්‍රකාශනය	-10.9679
▁නාරාහේන්පිට	-10.9682
▁එන්ජින්	-10.9685
▁ආරක්ෂාවක්	-10.9688
▁සුරේෂ්	-10.9691
▁චිත්‍රපටයක්	-10.9694
▁කැකිරාව	-10.9695
▁පාරම්පරික	-10.9695
▁නිලධාරින්ගේ	-10.9699
▁වැදීමෙන්	-10.9702
▁ත්‍රස්තවාදීන්	-10.9705
ෙව්	-10.971
වංශ	-10.9711
පන	-10.9714
දෙනෙක්	-10.9717
ස්ට	-10.9718
▁වහන්සේට	-10.9718
▁ස්ප	-10.9719
▁උපකාරී	-10.9723
▁පාර්ශවය	-10.9725
▁චන්ද්‍රසිරි	-10.9725
▁අලෙවිය	-10.9727
▁එකත්	-10.9729
▁ස්නායු	-10.973
▁පැවැත්වුණි	-10.9735
▁ඔන්ලයින්	-10.9737
▁ගැනීමයි	-10.9738
▁සිසුවෙකු	-10.974
▁මැඩ	-10.9741
▁ඉස්සරහට	-10.9742
▁සිටියද	-10.9744
▁කැරැල්ල	-10.9746
▁අඩපණ	-10.9746
▁700	-10.9747
▁මිට	-10.9748
▁සහතිකයක්	-10.975
▁විකුණුම්	-10.9757
▁අල්ලාගෙන	-10.976
▁වටරවුම	-10.9763
▁පොලිසියෙන්	-10.9764
▁උවදුර	-10.9765
▁සැන්	-10.9767
▁මීරිගම	-10.9767
▁ගනිමිනි	-10.9768
▁මුහුණදී	-10.9775
▁1994	-10.9776
▁එතන	-10.9777
▁ලැබීමේ	-10.978
▁රාජකාරියේ	-10.9781
▁රෝගයට	-10.9782
▁සක්‍රීය	-10.9784
▁එකිනෙකට	-10.9787
▁නගරයක්	-10.9788
▁සාන්ත	-10.979
▁පුරවැසි	-10.9791
04	-10.9792
▁ආධාරයෙන්	-10.9793
▁වාර්තාගත	-10.9794
▁උපක්‍රම	-10.9795
▁දීමනාවක්	-10.9797
▁කනිෂ්ඨ	-10.9798
▁මහතාද	-10.9805
▁රහසේ	-10.9807
▁නම්කර	-10.9808
▁පළමුවැනි	-10.9808
▁ස්වාමි	-10.9809
කරුවන්ගේ	-10.9809
▁කථාව	-10.981
▁පැසිෆික්	-10.981
▁දැ	-10.9811
▁බලධාරීන්ගේ	-10.9813
▁ආපහු	-10.9818
දාන	-10.9819
▁වැලිකන්ද	-10.982
▁ව්‍යාපාරිකයෙකු	-10.9822
තො	-10.9823
▁යථාර්ථය	-10.9823
▁කායික	-10.9825
▁ඉතුරු	-10.9827
▁ඇඳුම	-10.9827
▁130	-10.9828
▁දසනායක	-10.983
▁ලක්ෂයක	-10.983
▁සිදුකල	-10.9831
▁ක්‍රියාකාරීන්	-10.9835
▁අහමඩ්	-10.9835
තව	-10.9835
▁හෙලිකොප්ටර්	-10.9835
▁මෙහෙ	-10.9838
භාර	-10.984
▁දිනාගැනීමට	-10.9844
▁චතුරංග	-10.9844
▁ගොඩනැඟිලි	-10.9844
▁ආරක්‍ෂා	-10.9848
▁හේමන්ත	-10.9852
▁දෙරටේ	-10.9854
▁සෘජුවම	-10.9855
▁ගෙනියන්න	-10.9857
▁ගැමුණු	-10.9857
▁වර්ගයක්	-10.986
82	-10.986
▁දහය	-10.9862
▁අඩුකර	-10.9868
▁බුද්ධිය	-10.9874
▁මාර	-10.9874
▁භාගයේ	-10.9879
▁ප්‍රාර්ථනා	-10.988
ලාල්	-10.9885
▁ධූරයට	-10.9888
▁ලක්ෂාන්	-10.9891
▁සැකකරුට	-10.9897
▁ගොඩනැගිල්ලේ	-10.9898
▁උඹ	-10.99
▁විජේවීර	-10.9903
ඩේ	-10.9904
▁මූල	-10.9906
▁හිමිකරුවන්	-10.9906
ගනිමින්	-10.9907
ලන්ඩ්	-10.9912
▁නාමයෙන්	-10.9912
▁එන්නට	-10.9917
▁වෛරය	-10.992
▁ළඟම	-10.9921
▁සහයෝගයෙන්	-10.9922
ගර්	-10.9925
▁බලමු	-10.9927
▁යාන්ත්‍රණය	-10.9927
▁ත්‍රිත්ව	-10.9927
▁ගයාන්	-10.9927
▁අයකර	-10.9929
▁තුළම	-10.9929
▁නවකතාව	-10.993
▁විකිණීමට	-10.9932
▁සෝභිත	-10.9933
▁පාරිභෝගිකයන්ට	-10.9934
▁මැල්කම්	-10.9937
▁එ්	-10.9939
▁අමාරුයි	-10.994
▁ප‍්‍රාදේශීය	-10.994
දීය	-10.9941
▁ඉතාලිය	-10.9942
▁අරවින්ද	-10.9943
▁අබේසිංහ	-10.9943
▁කඳ	-10.9945
▁ලවා	-10.9945
▁කෘෂිකර්මාන්තය	-10.9946
▁ශීත	-10.9948
▁අන්තිම	-10.9949
▁වික‍්‍රමසිංහ	-10.995
▁ඒකාබද්ධව	-10.9952
▁කැමැතියි	-10.9952
▁ක්‍රීඩාවට	-10.9954
ඩර්	-10.9956
▁ග්‍රන්ථ	-10.9956
▁අල්විස්	-10.9956
71	-10.9956
▁පත්තු	-10.9957
▁ක‍්‍රමය	-10.9959
▁පිළ	-10.996
▁ශාඛා	-10.9961
▁බුලත්	-10.9963
▁පැනවූ	-10.9963
▁හෙන්රි	-10.9964
▁මැදිරි	-10.9966
▁තමිල්	-10.9966
▁එකඟත්වය	-10.9967
▁පේනවා	-10.9968
සිටි	-10.9973
▁නිළ	-10.9983
දර	-10.9983
▁කොටා	-10.9986
▁නු	-10.9987
▁සන්නිවේදනය	-10.9991
▁ගොඩනඟා	-10.9997
▁ඉඩමක්	-10.9998
▁හදුනාගෙන	-11.0002
▁මඳ	-11.0002
▁සතුටක්	-11.0005
▁කොටගෙන	-11.0007
▁විලියම්	-11.0008
88	-11.0011
▁ජීවීන්	-11.0012
▁බ්‍රිතාන්‍යය	-11.0015
▁තිබියදීත්	-11.003
▁ඉමහත්	-11.003
▁අර්බුදයෙන්	-11.0032
▁වැඩිකර	-11.0033
▁දොරටුව	-11.0034
▁350	-11.0039
තුන්	-11.0041
▁ශල්‍ය	-11.0043
▁දෙන්නෙක්	-11.0046
▁බෙදීම	-11.005
▁පමා	-11.005
▁කෞතුකාගාරය	-11.0052
67	-11.0053
ෂී	-11.0055
▁සංකල්ප	-11.0056
▁මාරවිල	-11.0057
▁සිතිය	-11.0057
▁මතුපිට	-11.0058
▁ඉතිං	-11.006
ලන	-11.006
62	-11.0063
▁භාරව	-11.0063
▁බැංකුවට	-11.0068
▁බෙන්	-11.0072
▁සාගල	-11.0075
▁දක්වන්නේ	-11.0077
▁විදුහලට	-11.0077
▁ඡන්දයක්	-11.0078
▁නිරිත	-11.0079
▁කල්ලිය	-11.0084
ද්‍ර	-11.0084
▁ශාස්ත්‍ර	-11.0084
▁දුරු	-11.0087
▁පණිවුඩ	-11.0087
▁නොදුන්	-11.0088
▁ඉවත්කර	-11.0092
▁සාද	-11.0094
▁ඉනිමේදී	-11.0096
▁පිටාර	-11.0096
▁මණ්ඩලීය	-11.0096
▁අකුරු	-11.0096
▁අලුතෙන්	-11.0099
ස්ථ	-11.0103
▁යෑමෙන්	-11.0107
ළා	-11.011
▁සුමිත්	-11.0111
▁කරන්නත්	-11.0112
ාන්	-11.0115
▁වුනා	-11.0116
▁යැවීමේ	-11.0117
▁රූපවාහිනිය	-11.0118
▁81	-11.0119
▁ක‍්‍රියා	-11.012
▁රෝහලේදී	-11.0121
▁ප්‍රකාශන	-11.0121
▁10.00	-11.0122
▁සැත්කම්	-11.0123
▁කියවීම	-11.0125
▁හදවත්	-11.0126
▁පිටරට	-11.0132
▁හිමිවූ	-11.0141
▁කාබන්	-11.0142
▁දැක්වූයේ	-11.0142
▁විමර්ශනයේදී	-11.0148
▁ඕක	-11.0152
▁සයිබර්	-11.0154
▁අනාවැකි	-11.0157
▁ඇහුවා	-11.0157
▁භාගය	-11.0158
▁කාන්තාවකට	-11.0159
▁මතුවන	-11.0159
▁වසම්	-11.016
▁ක්‍රිස්තු	-11.016
▁අරමුණක්	-11.0164
යෙන්ම	-11.0164
▁සැකසීම	-11.0165
▁රණවිරුවන්	-11.017
▁පාකිස්ථානය	-11.017
▁යටපත්	-11.0171
▁වෛද්‍යවරයකු	-11.0172
▁ගමනා	-11.0173
▁අමානුෂික	-11.0174
▁දීප	-11.0176
▁වික්ටෝරියා	-11.0177
▁හැරීමේ	-11.0179
▁ක්‍රියාකාරිත්වය	-11.018
▁යාත්‍රාවක්	-11.018
▁සුළඟ	-11.0181
ෂධය	-11.0182
▁විදෙස්ගත	-11.0182
▁ධූරයෙන්	-11.0182
▁මෙලොව	-11.0185
▁ප්‍රයෝජන	-11.0188
▁නාට්‍යයේ	-11.019
▁සම්බන්ධතාව	-11.019
07	-11.0192
▁පෙන්වන්න	-11.0193
කයින්	-11.0194
▁ලෝහ	-11.0197
▁සමීක්ෂණය	-11.0199
▁නවීන්	-11.02
▁පොරොන්දුව	-11.0201
▁ස්වරූපය	-11.0202
▁සාමාජිකයකු	-11.0202
▁උපාධිධාරීන්	-11.0205
▁බලධාරීහු	-11.0205
▁නිලමේ	-11.0207
ශාන්ත	-11.0209
▁කලක	-11.021
▁පසුබිමක්	-11.0212
▁180	-11.0212
▁ලැබූවන්	-11.0212
▁නොලැබුණු	-11.0214
▁චමල්	-11.0216
තන	-11.0217
▁ගැනුණු	-11.022
ාල	-11.0221
▁අනේ	-11.0222
ලීම	-11.0225
▁මන්ත්‍රිවරු	-11.0226
▁ගසක	-11.0227
▁නොයන	-11.0227
▁අනුයුක්තව	-11.0237
තෙක්	-11.0238
▁දැනුම්දීම	-11.0238
▁පකිස්ථාන	-11.0239
▁මුසු	-11.0239
▁දණ්ඩ	-11.0243
▁සඟරාව	-11.0243
▁බද්දක්	-11.0247
▁සැලසුමක්	-11.025
▁වැන්න	-11.0254
▁තිරිඟු	-11.0256
▁ශ්‍රමිකයන්	-11.0258
ෑන්	-11.026
▁වාසනාව	-11.026
වන්ත	-11.0261
▁තිබ්බ	-11.0262
▁පැළඳ	-11.0262
සහ	-11.0262
▁තරමින්	-11.0263
▁පාඨමාලාව	-11.0266
▁මහලේකම්වරයා	-11.0269
▁බලංගොඩ	-11.027
▁පිං	-11.0271
▁මාත්	-11.0272
▁ධාතු	-11.0275
▁සමුපකාර	-11.0276
▁හැකිද	-11.0279
83	-11.028
▁බඳුන්	-11.0281
▁බිහිසුණු	-11.0283
▁මොකක්	-11.0288
▁පස්වන	-11.0289
▁අමර	-11.029
▁සේවකයන්ගේ	-11.0291
▁වස්තු	-11.0293
▁විප්ලවය	-11.0293
87	-11.0293
දාස	-11.0294
▁කොමිසන්	-11.0297
▁වාගේ	-11.0297
▁කොන්ත්‍රාත්	-11.0298
▁ගමනාගමනය	-11.0298
▁සරසවියේ	-11.0299
ඬ	-11.03
▁උයන	-11.0301
▁සුමන	-11.0303
▁පීතර	-11.0308
▁පළමුවරට	-11.0309
▁160	-11.031
▁කරුවන්	-11.0312
▁එළ	-11.0314
57	-11.0316
▁බැලීමෙන්	-11.0316
ෙකි	-11.0317
▁පොතුවිල්	-11.0317
▁නියමු	-11.0322
▁සාගරයේ	-11.0323
▁සැසිය	-11.0328
▁බළකා	-11.0332
▁පුළුවන	-11.0334
▁ප්‍රතිමාව	-11.0336
▁අනාගතයේදී	-11.0339
▁පිලිබඳ	-11.0339
▁ඇමතිවරු	-11.034
▁වොලිබෝල්	-11.0341
මහෙස්ත්‍රාත්වරයා	-11.0343
ාර	-11.0343
වැනිදා	-11.0348
▁පය	-11.0349
▁ජයවීර	-11.035
▁විද	-11.035
▁රැගෙනවිත්	-11.0354
93	-11.0354
▁ඉකුත්දා	-11.0356
▁සිවුවැනි	-11.0356
▁පිරිනමන	-11.0356
නන්	-11.0357
▁උසාවි	-11.0357
▁හිතකර	-11.0357
▁නිර්දේශය	-11.0359
▁රස්සාව	-11.0359
කාර්	-11.0363
▁කොල	-11.0363
▁ප්‍රමුඛත්වය	-11.0365
▁අර්ථය	-11.0366
▁කොංග්‍රසයේ	-11.0373
▁කුලියට	-11.0376
▁වාසුදේව	-11.0376
වරුන්ට	-11.038
▁ව්‍යාපාරිකයින්	-11.0381
▁නෞකාවක්	-11.0382
▁උද්ඝෝෂණයක්	-11.0383
ාට	-11.0383
▁කරගැනීමේ	-11.0383
▁1978	-11.0387
▁කරවීම	-11.0387
▁විද්‍යාලයෙන්	-11.0392
▁නුවරට	-11.0392
▁බැම්ම	-11.0394
▁දහසක	-11.0394
▁පිරිත්	-11.0396
▁අබේරත්න	-11.0397
▁වැනිදාය	-11.0397
▁පාකිස්තානු	-11.0401
▁ආදර	-11.0403
▁සය	-11.0405
▁87	-11.0407
▁නතු	-11.041
▁භාවනා	-11.0411
▁91	-11.0412
▁අබ්දුල්	-11.0415
▁නොවනු	-11.0423
▁දැකීම	-11.0425
ම්බා	-11.0425
▁පැමිණීමෙන්	-11.0427
▁සාධකයක්	-11.0428
▁කාර්යභාරයක්	-11.0429
▁රෝම	-11.0429
▁වැඩවර්ජනය	-11.0431
▁රුසියාවට	-11.0435
ට්ටු	-11.0438
▁වැටි	-11.0442
▁දැලේ	-11.0442
06	-11.0444
▁ඉරානයේ	-11.0446
▁පැවැසූහ	-11.0448
▁දඬුවමක්	-11.0449
▁කාටත්	-11.0449
▁සාධාරණයක්	-11.0454
▁දැනගත්	-11.0458
▁අසාද්	-11.0459
▁නැරඹීම	-11.046
ෙති	-11.0463
තිලක	-11.0465
▁ක්‍රමයේ	-11.0466
නස්	-11.0468
▁දිවියේ	-11.0469
▁අර්	-11.047
63	-11.047
▁විවිධත්වය	-11.0472
▁එවන	-11.0472
▁වන්නි	-11.0475
▁අභය	-11.0475
▁සැකකරුවකු	-11.048
▁විද්‍යාඥයින්	-11.048
▁ළිඳ	-11.048
▁මාන	-11.0482
▁රත්ගම	-11.0482
▁ක්‍රීඩකයෙකු	-11.0483
▁79	-11.0487
▁කිරීමද	-11.0487
▁කොර	-11.0488
▁ගති	-11.049
▁වැල්ලම්පිටිය	-11.0491
▁චරිත්	-11.0491
▁ජනබලවේගයේ	-11.0493
▁කුරුඳු	-11.0495
09	-11.0497
▁ඡායාරූපය	-11.0497
▁අපරාධයක්	-11.0498
▁වෙළද	-11.0499
84	-11.0499
▁ශුභ	-11.0502
දේශ	-11.0508
▁ඩිලාන්	-11.0508
▁එකතුවෙලා	-11.0509
▁ඛේදවාචකය	-11.051
97	-11.0513
▁89	-11.0515
▁වටයේදී	-11.0515
▁පාදය	-11.0515
දැන්	-11.0515
▁2002	-11.0517
▁සෙවීමේ	-11.0518
▁මාර්ෂල්	-11.0519
▁දර	-11.0523
▁සංසදය	-11.0524
▁පරීක්‍ෂක	-11.0524
▁පුහුණුවක්	-11.0524
▁නෑමට	-11.0525
▁වැදගත්ය	-11.0533
▁ස්වකීය	-11.0533
▁සාධනීය	-11.0533
▁ජොන්සන්	-11.0536
▁වාර්තාකරුවන්	-11.0537
▁ගැසූ	-11.0544
▁ආසාදිතයන්ගේ	-11.0547
▁නිවේදනයක	-11.0547
▁මාසයකට	-11.0548
▁කියැවෙයි	-11.055
පසුගිය	-11.0552
▁පවිත්‍රා	-11.0553
▁ගොඩනගා	-11.0554
▁ගැලපෙන	-11.0554
▁මල්ල	-11.0555
76	-11.0559
▁රාජගිරිය	-11.0559
▁ගොවියා	-11.056
▁විසඳුම	-11.0561
▁2003	-11.0561
▁ශ්‍රමිකයින්	-11.0562
69	-11.0563
▁කන්දේ	-11.0566
▁ප්‍රභාත්	-11.0566
▁කරවීමට	-11.0566
▁යල	-11.0572
මර්	-11.0573
▁අනුවය	-11.0574
▁ප්‍රසාදය	-11.0576
▁වෙමිනි	-11.0577
▁කම්	-11.0578
▁මහබැංකු	-11.0581
▁225	-11.0581
▁එවැන්නක්	-11.0582
▁ටෙනිස්	-11.0582
▁1980	-11.0584
▁මාසයක්	-11.0585
▁ගණන්වල	-11.0586
▁ලේකම්වරයාට	-11.0588
▁මෘදුකාංග	-11.059
▁සොයන	-11.059
▁ස්ථානගත	-11.0591
▁සම්	-11.0595
▁නිෂ්පාදක	-11.0595
▁දෙලක්ෂ	-11.0596
රම්	-11.06
▁පෝස්ටර්	-11.0601
▁උන්වහන්සේගේ	-11.0601
▁අයදුම්	-11.0603
▁වේදනා	-11.0604
▁එසේත්	-11.0607
▁සිනමාවේ	-11.0609
▁පෙරළා	-11.0613
▁සංවාදය	-11.0614
▁ප්‍රමාණයට	-11.0615
ණිය	-11.0618
▁උද්‍යාන	-11.0619
▁අමුණුගම	-11.0621
▁ආසන්නයේදී	-11.0622
▁ඉක්මවයි	-11.0625
▁චාරිත්‍ර	-11.0626
▁වර්ජන	-11.0627
▁පයින්	-11.0631
▁දැකලා	-11.0635
▁තුවක්කු	-11.0641
▁නොහැකියි	-11.0642
යම්	-11.0644
ම්ම	-11.0644
▁විහාරස්ථාන	-11.0645
▁ආන්දෝලනාත්මක	-11.0646
▁හදවත	-11.0648
දුරු	-11.0652
ගිරි	-11.0653
▁කරන්නන්	-11.0656
▁ආසියා	-11.0656
▁හුදෙක්	-11.0656
▁අවු	-11.0658
▁මවු	-11.0664
▁ධජය	-11.0666
▁හැසිරීම්	-11.0667
▁ගතවන	-11.0669
▁තෙත්	-11.0672
▁ලග්න	-11.0674
▁අවංක	-11.0675
▁තිරය	-11.0675
▁යැ	-11.0676
▁අනුරුද්ධ	-11.0678
▁බහාලුම්	-11.0681
53	-11.0681
▁සූරියවැව	-11.0681
▁ශ්‍රීලනිපය	-11.0685
▁මාධ්‍යවල	-11.0689
▁ඔබලා	-11.069
▁හිමිවී	-11.0695
▁පිපිරීම්	-11.0698
▁ෂි	-11.0701
▁බුධ	-11.0702
▁භාගයේදී	-11.0703
▁වැලිමඩ	-11.0707
▁ලැබිණ	-11.0708
▁ප්‍රසංගය	-11.0708
▁අසු	-11.071
▁ප්‍රයෝජනයට	-11.0712
▁ආරාධිත	-11.0713
▁ප‍්‍රජාතන්ත‍්‍ර	-11.0713
▁ප්‍රසිද්ධියට	-11.0714
▁විසඳන්න	-11.0714
▁හැමෝටම	-11.0717
යින්ට	-11.0717
▁ව්‍යුහය	-11.0719
▁අංශවලට	-11.072
▁චන්න	-11.0722
▁ගැන්වීම	-11.0724
▁පැමිණෙන්නේ	-11.0725
▁වැල්	-11.0729
▁යොදන	-11.0729
කාරිය	-11.073
▁බලාපොරොත්තුවක්	-11.0731
▁ඩයලොග්	-11.0731
▁යෙදවීම	-11.0731
▁යුද්ධයක්	-11.0734
▁වෙල්ගම	-11.0735
▁චන්දිම	-11.0739
▁අරමුදලට	-11.0741
බිම	-11.0741
▁අයුතු	-11.0743
▁හූ	-11.0745
▁කට්ටල	-11.0745
▁අසීමිත	-11.0745
▁සංචාරයේදී	-11.0747
41	-11.0747
▁ඩෙල්ටා	-11.0748
▁නී	-11.0748
▁පසුදින	-11.0749
▁ඔන්න	-11.0752
▁පුද්ගලයෙකුගේ	-11.0752
දෙනකු	-11.0752
▁මාරුකර	-11.0753
▁ෆෙ	-11.0755
▁පැමිණිල්ලේ	-11.0756
▁අකුරැස්ස	-11.0756
▁මන්	-11.0757
▁කොල්ලුපිටිය	-11.0759
▁වහ	-11.076
▁දෙපාර්ශවය	-11.076
▁තිබුණෙ	-11.0761
තාවක්	-11.0762
73	-11.0762
▁ලාභය	-11.0763
▁තරමේ	-11.0765
▁යන්නෙ	-11.0766
▁කැපීම	-11.0766
▁ඇවිද	-11.0767
▁වැදගත්ම	-11.077
▁රංගනයෙන්	-11.0773
▁ගිල	-11.0774
▁ගෙන්වීම	-11.0774
▁පැහැදිළි	-11.0775
යෑම	-11.0778
▁සභාවෙන්	-11.0778
▁සේවකයින්ට	-11.0779
▁හෝටලයක	-11.0781
ෙයාර්	-11.0781
▁අම්බලන්තොට	-11.0785
▁පැමිණීමේ	-11.0785
▁සැකකටයුතු	-11.0785
▁ක්‍රියාවලියට	-11.0788
▁අතිපූජ්‍ය	-11.0789
ුනා	-11.0789
▁රේඛාව	-11.0789
▁බෝම්බය	-11.0792
▁පන්සල	-11.0795
▁ඇණවුම්	-11.0795
▁පාර්සල්	-11.0796
▁කථිකාචාර්ය	-11.0798
කොළ	-11.0799
▁කැඳවාගෙන	-11.08
▁දූපතේ	-11.08
▁ඩයනා	-11.0803
▁වර්ගීකරණය	-11.0806
▁පෙත්සමේ	-11.0806
ත‍්‍ර	-11.0808
▁පවුලක	-11.081
▁පෙනුම	-11.0813
යාව	-11.0816
▁තාප	-11.0816
▁110	-11.0817
▁කබ්රාල්	-11.0817
▁ගමනේ	-11.0819
▁පිරිසක්ද	-11.082
94	-11.082
▁පොකුණ	-11.0822
▁තුර	-11.0824
▁ඉසව්	-11.0825
▁කොටුවේ	-11.0825
54	-11.0826
▁ජයගැනීමට	-11.0827
▁කතාවේ	-11.083
▁බැන	-11.083
▁නඩුවට	-11.0832
▁අවිනිශ්චිත	-11.0833
▁අසාධ්‍ය	-11.0836
▁ගොඩනැඟිල්ල	-11.0838
▁සිදුවෙයි	-11.0839
▁ඉවහල්	-11.0839
▁බුද්ධිමත්	-11.0847
▁කීමට	-11.0847
▁සිදුවීමෙන්	-11.0847
▁රඹුක්කන	-11.085
▁යනාදී	-11.0851
▁සමාජීය	-11.0851
▁පිළිගන්න	-11.0852
▁වේලාවට	-11.0852
▁ගාණක්	-11.0852
▁සෑ	-11.0854
▁කොඩි	-11.0855
▁හේතුවී	-11.0856
යූ	-11.0858
▁හදිසියේම	-11.0858
▁වස්තුව	-11.0858
ීමේ	-11.0861
▁ගඟට	-11.0866
▁වෙන්ව	-11.0867
▁සාප්පු	-11.0869
▁සැමරීම	-11.0869
▁86	-11.0872
▁රැස්වීමේ	-11.0876
▁ගසාගෙන	-11.0877
▁අධීක්ෂණ	-11.0878
▁විදේශිකයන්	-11.0883
▁දැමිය	-11.0883
▁රොබෝ	-11.0884
▁වන්නිආරච්චි	-11.0887
▁කිහිපදෙනකු	-11.0887
▁සමගිය	-11.0887
▁ගිහි	-11.0887
▁විධි	-11.0889
▁යුද්ධයේ	-11.089
▁මිරිහාන	-11.089
▁වාරික	-11.089
▁තනා	-11.0892
▁බසින්	-11.0894
▁නිවසකට	-11.0897
වති	-11.0899
▁තත්ත්වයත්	-11.0899
▁වාරි	-11.0906
▁උන්නැහේ	-11.0908
▁දන්ත	-11.091
▁මටත්	-11.091
▁බලන්නේ	-11.0912
▁පැවත	-11.0912
▁බලාගාරයේ	-11.0914
▁ශාලාවක	-11.0915
▁නායකත්වයට	-11.0917
▁සලසන	-11.0919
▁අදියරේ	-11.0924
▁පොහොසත්	-11.0925
▁දරමින්	-11.0925
▁පුද්ගලයින්ගේ	-11.0926
▁කෘත්‍යාධිකාරී	-11.093
තුමිය	-11.0933
...”	-11.0937
කරුවා	-11.0937
▁අපේක්ෂකයෙකු	-11.0937
වීමක්	-11.0938
ේන්ද්‍ර	-11.0939
▁ධම්ම	-11.0942
▁ශි	-11.0943
▁සමරකෝන්	-11.0945
▁පැවසෙන	-11.0945
▁වැල්ලවත්ත	-11.0948
▁තීරණයකට	-11.0948
▁උසස්වීම්	-11.0948
▁බියගම	-11.0949
වැල්ල	-11.0951
▁කාව්‍ය	-11.0952
▁මාට්ටු	-11.0955
▁අරමුණයි	-11.0957
▁ඇතුල්	-11.0959
▁පෞද්ගලිකව	-11.0959
▁හයක	-11.0961
▁නොකිරීමට	-11.0966
වතී	-11.0967
▁සිව්වැනි	-11.0968
▁දකිනවා	-11.0969
▁දිරිමත්	-11.0971
ගල්ල	-11.0971
▁ගෙවීමේ	-11.0972
▁ඉදිරිපිටදී	-11.0972
▁ප්‍රා	-11.0975
▁වතුයායේ	-11.0977
▁140	-11.0985
▁පිරිනැමීම	-11.099
▁චෙ	-11.0993
කයන්	-11.0994
▁බෝවන	-11.0995
ාවේ	-11.0997
▁මිතුරු	-11.0998
▁කොංග්‍රස්	-11.1
මාලි	-11.1001
▁නිර්	-11.1004
▁වෙහෙර	-11.1006
▁බස	-11.1008
▁කත	-11.1008
▁ට්‍රම්ප්ගේ	-11.1009
▁විශේෂත්වය	-11.1009
▁අන්තෝනි	-11.1009
‍ෙ	-11.101
ම්ප	-11.101
හො	-11.1011
▁ජාතිවාදය	-11.1018
▁සමාගම්වලට	-11.1019
▁අංකයට	-11.1024
▁අනුපාතිකය	-11.1025
▁නාලන්දා	-11.1025
▁හිස්බුල්ලා	-11.1027
වනදා	-11.1029
▁උනන්දුව	-11.103
▁ක්‍රියාවලියක්	-11.1031
▁ජො	-11.1031
▁ආණමඩුව	-11.1033
▁එළැඹ	-11.1036
▁දේපොළ	-11.1036
▁පන්	-11.1036
74	-11.1038
▁හිටි	-11.1038
▁උඩින්	-11.104
▁වැදීම	-11.1041
එක	-11.1042
ගත්තේ	-11.1046
▁තායිලන්ත	-11.1046
▁ලක්මාල්	-11.1047
▁වැසිකිළි	-11.1048
▁ඇෆ්ගන්	-11.1048
▁අකමැති	-11.1051
▁අතුරුගිරිය	-11.1052
▁සුන්බුන්	-11.1055
▁ඉන්ජිනේරු	-11.1062
▁දිවෙන	-11.1063
▁ඇගයීමට	-11.1063
▁මහත්මීන්	-11.1066
▁කර්නල්	-11.1066
▁අතපත්තු	-11.1068
▁ස්ථාවරත්වය	-11.1073
▁කාඩ්	-11.1074
තය	-11.1075
▁ෂී	-11.1077
සය	-11.1078
▁ආතතිය	-11.1078
ඩිය	-11.108
▁පැදි	-11.1081
▁යෝග්‍ය	-11.1081
▁උද්‍යානයේ	-11.1083
ිල්	-11.1083
▁ආසියාව	-11.1084
▁සබඳතාව	-11.1085
▁එකඟතාවය	-11.1087
▁අලී	-11.109
▁ජෝන්ස්	-11.109
▁සුවපත්	-11.1091
▁අලූයම	-11.1092
▁ලිට්‍රෝ	-11.1096
▁මහත්වරුන්ගේ	-11.1096
▁මාතෘ	-11.1098
ලැ	-11.1102
▁විෂයන්	-11.1107
▁මේසය	-11.1109
▁අපේක්ෂකයකු	-11.111
▁අමෙරිකා	-11.1113
▁පුතුන්	-11.1114
▁පැතිරී	-11.1116
▁සාහිත්‍යය	-11.1118
▁ගුණය	-11.1119
▁එංගලන්තයට	-11.112
▁කොට්ටාව	-11.1121
▁නේපාලය	-11.1124
▁ජාතියක්	-11.1125
▁සමනය	-11.1127
▁විධාන	-11.1128
▁ප‍්‍රදේශය	-11.1132
▁ඉඩමක	-11.1133
▁කලහකාරී	-11.1134
▁ක්‍රිඩා	-11.1139
▁පොතක්	-11.114
▁වක්‍ර	-11.1141
▁කොඩිය	-11.1141
▁පින	-11.1143
▁දුම්කොළ	-11.1144
▁සතුරු	-11.1146
▁දෙනකුගේ	-11.1146
▁ග්‍රහණය	-11.1146
▁සම්බා	-11.1147
▁ගණනකට	-11.115
▁සෞඛ්‍යය	-11.1151
▁මෙහෙයවීමෙන්	-11.1151
▁වේල	-11.1155
▁තනතුරක්	-11.1157
▁විකල්පයක්	-11.1157
ඔව්	-11.1157
▁නමුදු	-11.1163
▁පෝලිම්වල	-11.1164
▁නගරවල	-11.1167
▁ළමයා	-11.1167
▁දෙනාටම	-11.117
ංග්	-11.117
▁උපයෝගීතා	-11.117
හාර	-11.1175
▁සටනක්	-11.1176
▁පීඨය	-11.1177
▁...	-11.1179
51	-11.1181
▁සීමාවට	-11.1187
▁නෝ	-11.119
▁ඩිල්ෂාන්	-11.1193
▁කුවේට්	-11.1193
▁රැහැන්	-11.1195
▁වැලඳ	-11.1201
තිකා	-11.1202
▁යෝජනාවලිය	-11.1202
▁අරාබිය	-11.1203
රෙ	-11.1203
▁වෙරළබඩ	-11.1205
▁කාන්තාවන්ගේ	-11.1206
▁පුවත්පතේ	-11.1206
▁තිබුනේ	-11.1207
▁සවිබල	-11.1209
▁බහා	-11.121
▁සංවාදයක්	-11.1211
▁හැකිවන	-11.1216
▁වහල	-11.1217
05	-11.122
▁මැන	-11.1223
▁වෛද්‍යවරයෙකු	-11.1226
▁ඇලෝසියස්	-11.1227
▁තැබිය	-11.1227
▁ඇමතිතුමා	-11.123
▁පළාගොස්	-11.1235
▁පාසල්වලට	-11.1236
▁නොතීසි	-11.1238
▁ගොවිතැන්	-11.1238
▁පලවා	-11.1242
▁ඉවත	-11.1246
▁සාධාරණය	-11.1248
▁සිරගත	-11.1248
▁පාන්දර	-11.125
▁ආධිපත්‍යය	-11.1252
▁අසංක	-11.1254
▁කපිතාන්	-11.1254
මෙය	-11.1256
ගන	-11.1259
▁ප්‍රදර්ශන	-11.1261
▁යත්	-11.1263
▁ඉල්ලන	-11.1264
▁බලපැවැත්වෙන	-11.1265
▁පමණින්	-11.1267
▁එමින්	-11.1269
▁හැඳුනුම්පත්	-11.127
තික	-11.1272
▁ප්‍රකාශකයෙක්	-11.1273
▁මුදාහරින	-11.1273
▁ගැටලූ	-11.1274
▁වටේ	-11.1276
▁සෙත්	-11.1277
ල්ලා	-11.1277
▁ඉක්මණින්	-11.1279
▁බලනවා	-11.128
▁ඔක්	-11.1283
▁ධාන්‍ය	-11.1283
▁ලක්ෂයකට	-11.1283
▁කොන්ත්‍රාත්තුව	-11.1285
▁බිරිඳට	-11.1286
▁සපත්තු	-11.1287
▁සමානව	-11.1287
▁හසුව	-11.1293
▁25,000	-11.1294
▁නිර්ණය	-11.1295
▁ශ්‍යාමන්	-11.1296
නාව	-11.1296
▁තුලදී	-11.1298
▁ගලේවෙල	-11.1299
ත්‍රි	-11.1299
▁දවාගනිමින්	-11.1299
▁මීදුම්	-11.1299
▁කීර්තිමත්	-11.1303
▁94	-11.1304
▁මුදලාලි	-11.1305
▁කුරේ	-11.131
▁කර්මාන්තශාලා	-11.131
▁මහත්මයා	-11.1311
.10	-11.1312
▁සුජීව	-11.1313
▁කලෙක	-11.1316
▁පකිස්ථානය	-11.1318
▁පොහොට්ටු	-11.1321
හාන්	-11.1323
ස්ථානය	-11.1326
ියක්	-11.1329
▁කියවා	-11.1329
▁නිවාසවල	-11.133
▁පාපැදි	-11.1332
▁ඇසුරුම්	-11.1334
▁ආකාර	-11.1338
▁ජයග‍්‍රහණය	-11.1338
▁ඇඟවීම්	-11.134
▁අම්ම	-11.1342
▁ආකල්ප	-11.1342
▁සීයා	-11.1345
▁සෝදා	-11.1346
▁මව්බිම	-11.1346
▁98	-11.1347
▁පැති	-11.1347
▁ප්‍රජාවට	-11.1348
▁වාරණ	-11.135
▁අඟල්	-11.1352
▁ක්‍රියාකලාපය	-11.1352
▁නගරයෙන්	-11.1358
▁ප්‍රචාර	-11.1359
▁පෙත්සම්කරුවන්	-11.136
▁ඉගැන්වීම්	-11.1363
▁සැත්කම	-11.1364
වාන්	-11.1364
ජීව	-11.1365
▁ජාතියේ	-11.1366
ාස්	-11.1367
▁ඉන්දුනීසියාවේ	-11.1368
▁ජාතිවාදී	-11.1368
▁පිවිසුම	-11.137
▁රහසිගත	-11.137
▁කිහිපයේදී	-11.1371
▁පළාතට	-11.1373
▁හල්	-11.1373
▁පුෂ්ප	-11.1373
▁වස්	-11.1375
▁ගණිකා	-11.1379
▁සන්ධානයට	-11.1381
▁ලක්ෂය	-11.1382
▁සිඩ්නි	-11.1382
වාට	-11.1383
කාරයෝ	-11.1384
▁සොයාගැනීමට	-11.1385
බ්බ	-11.1386
▁පන්දුවෙන්	-11.1387
▁නේවාසිකව	-11.1392
▁දෙවියන්ට	-11.1392
▁බ්‍ර	-11.1392
▁පාඨ	-11.1392
▁93	-11.1394
▁ඝාතනයක්	-11.1394
පය	-11.1396
▁කොත්මලේ	-11.1398
▁නිළධාරින්	-11.1403
▁ජනපතිට	-11.1404
්‍යා	-11.1404
▁හදාගන්න	-11.1408
▁වේලාවකට	-11.1408
▁ඉන්දිය	-11.1409
ේෂන්	-11.1409
▁ප්‍රතිපත්තිමය	-11.141
ප්පු	-11.1411
▁පූජිත්	-11.1415
▁විණි	-11.1416
▁නවදිල්ලි	-11.1417
▁කවුරුවත්	-11.1419
▁ඉන්දියා	-11.1419
▁ඉදිරියටත්	-11.1419
▁ස්මිත්	-11.1422
මලේ	-11.1426
▁96	-11.1426
▁ගෙනවිත්	-11.1427
▁එක්ලක්ෂ	-11.1431
▁දත්	-11.1432
▁ජ්‍යේෂ්ඨ	-11.1432
▁පවුලට	-11.1434
▁ශාසන	-11.1435
ස්ටන්	-11.144
ළුව	-11.1441
▁මෙහෙයුමකදී	-11.1442
▁එන්ජිම	-11.1447
▁ලීටරයක	-11.1448
▁අස්වැසුම	-11.145
▁කීපයකට	-11.145
▁අතුල	-11.145
▁දියවැඩියාව	-11.145
▁ප්‍රේමජයන්ත	-11.1451
▁යෝගය	-11.1454
▁වැටුණා	-11.1455
▁සභාවේදී	-11.1457
▁අපවත්	-11.1457
▁දොස්	-11.1458
▁ඇතිවීමට	-11.1459
▁හාමුදුරුවෝ	-11.1459
▁පාතාලය	-11.146
▁හොරා	-11.1461
▁සමනල	-11.1462
▁අත්වැල්	-11.1465
▁යලි	-11.1468
▁ප්‍රචාරණ	-11.1469
▁යතුරුපැදිකරු	-11.1469
▁මතයි	-11.1469
▁කන්තලේ	-11.147
▁වෑ	-11.1472
පළ	-11.1472
▁පාසලක්	-11.1473
▁ක්‍රීඩිකාව	-11.1474
▁නොතිබීම	-11.1474
▁සමාජගත	-11.1475
▁රෝහලක	-11.1475
▁නායකත්ව	-11.1479
▁සුන්දරත්වය	-11.1479
▁කබීර්	-11.148
▁සායනික	-11.148
▁නළ	-11.1484
▁අක්ෂි	-11.1487
▁හිමිවරුන්	-11.1487
▁රෝගයෙන්	-11.1487
▁පියෙකු	-11.1488
▁දිවයිනෙන්	-11.1489
▁125	-11.1491
▁සිරිමාවෝ	-11.1494
▁යොදාගන්නා	-11.1495
▁මිදී	-11.1495
▁ශනි	-11.1496
▁කාර්යාලයෙන්	-11.1499
▁ආකෘතිය	-11.15
▁රවීන්ද්‍ර	-11.1502
▁ළමයින්ට	-11.1503
▁පිවිසීමට	-11.1504
ට්ටි	-11.1504
▁උත්සවයේ	-11.1505
▁නල	-11.1505
කුඹුර	-11.1506
▁ලියාපදිංචිය	-11.1509
මත	-11.1509
▁බෙර	-11.151
▁ලේකම්වරිය	-11.1511
▁ශෝක	-11.1512
▁අවබෝධය	-11.1515
▁කඩුල්ලක්	-11.152
▁රෝහල්වලින්	-11.1521
▁ෆි	-11.1522
▁හැඳුනුම්පත	-11.1522
්ම	-11.1523
▁මුද්‍රා	-11.1528
▁වංචාවක්	-11.1528
▁බද්දේගම	-11.1529
▁දෝෂයක්	-11.1529
▁තීරයට	-11.1531
▁ක්ෂණිකව	-11.1532
▁කළෙමු	-11.1532
▁සරිලන	-11.1534
පාත	-11.1536
▁තරුණයාගේ	-11.1536
▁ප්‍රතිමා	-11.1537
▁කුමන්ත්‍රණයක්	-11.1543
▁කොස්තාපල්වරයා	-11.1544
▁අහනවා	-11.1548
▁පොල්තෙල්	-11.1549
▁රණ	-11.155
ඉන්	-11.1559
▁ගබඩාව	-11.1559
වුණි	-11.156
▁තියෙනවද	-11.156
ඩින්	-11.1561
▁මඩුල්ලක්	-11.1561
▁සතුන්ට	-11.1562
▁ධනවත්	-11.1563
▁පාලි	-11.1564
▁විශේෂඥයන්	-11.1564
▁එමෙන්	-11.1569
▁ආයු	-11.157
▁බේරාගෙන	-11.1571
▁වෘත්තිකයන්	-11.1571
▁රාහුල්	-11.1574
▁කිසිවකුට	-11.1574
▁අඩුවී	-11.1577
▁අඟ	-11.1578
▁නිවුස්	-11.1579
▁ගේට්ටුව	-11.1591
▁ආරියරත්න	-11.1593
වකි	-11.1594
▁දවල්	-11.1595
සියා	-11.1596
▁ආදර්ශ	-11.1597
▁ඇගයීම්	-11.1599
වේද	-11.16
▁කැඳ	-11.16
▁ජනරජය	-11.16
සිස්	-11.1602
▁බවකි	-11.1603
▁මැදින්	-11.1604
▁විපක්ෂනායක	-11.161
▁වසන්	-11.161
▁අනතුරුදායක	-11.1612
▁නෙදර්ලන්තය	-11.1612
▁ස්තූතිය	-11.1613
කුමාර	-11.1614
▁මුදුන්	-11.1614
ධාන	-11.1616
මස්	-11.1618
▁එජාපයේ	-11.1618
▁ඇෆ්ගනිස්ථානය	-11.162
▁ටො	-11.162
මහේස්ත්‍රාත්වරිය	-11.1622
▁ඡන්දෙ	-11.1623
▁කඳුකර	-11.1624
එහිදී	-11.1625
▁පියාට	-11.1627
▁සත්‍යය	-11.1627
▁වර්	-11.1627
▁නැවතී	-11.1627
ලෑ	-11.1629
▁උපදේශන	-11.163
▁(10	-11.1637
▁හෙයිනි	-11.1638
▁මියන්මාර	-11.1638
▁පළතුරු	-11.1638
▁අක්‍රිය	-11.1639
▁හංවැල්ල	-11.1642
▁විජේ	-11.1642
▁විශිෂ්ටතම	-11.1643
▁ලබාදුන්නා	-11.1645
▁අනුබද්ධ	-11.1645
▁රාජකාරියට	-11.1647
▁ග්‍රන්ථය	-11.1648
▁රැළිය	-11.1649
▁වැඩිපුරම	-11.1652
▁ගොවිතැන	-11.1652
▁සමාගමකට	-11.1655
▁හැකිවීම	-11.1657
▁අංගොඩ	-11.1659
▁කෝල්	-11.1659
▁විවිධාකාර	-11.1659
▁සැණින්	-11.1661
▁ජයතිස්ස	-11.1663
▁කෝපි	-11.1667
▁ජයලත්	-11.1668
▁අත්තනෝමතික	-11.1669
▁ඒජන්සිය	-11.1672
▁සිතන	-11.1674
▁දිශාව	-11.1675
▁පෙනෙන්නේ	-11.1679
▁තඹුත්තේගම	-11.1681
▁සාමාන්‍යාධිකාරි	-11.1682
▁කම	-11.1686
චාර	-11.1689
64	-11.1692
▁ප්‍රමාණයක	-11.1693
ඩියා	-11.1694
▁සෙවණ	-11.1696
▁දිව්‍ය	-11.1696
රික්	-11.1699
▁ප‍්‍රහාරය	-11.1703
ල්ලේ	-11.1704
▁උත්තරීතර	-11.1705
▁රැස්කරමින්	-11.1705
▁හදපු	-11.1706
නයක්	-11.1707
▁කවිය	-11.1707
▁බස්නායක	-11.1709
▁බෑවුම්	-11.171
▁ලන්ඩනයේ	-11.1717
▁උපහාර	-11.1718
▁යාබද	-11.1721
▁පැවසූවේ	-11.1721
▁සොයාගැනීම	-11.1721
▁ජාතිකයා	-11.1723
▁උපවාසය	-11.1723
▁බලපිටිය	-11.1723
▁බ්‍රසීලය	-11.1728
▁රාජ්	-11.173
▁බිමල්	-11.173
▁වෙළඳපොලේ	-11.1731
▁නොපෙනෙන	-11.1736
▁බෑග්	-11.1737
▁යාය	-11.1741
▁ආවේය	-11.1744
දුව	-11.1744
▁උදාර	-11.1748
81	-11.1748
▁නිධන්	-11.1752
▁එකසිය	-11.1753
▁සංස්ථාවට	-11.1753
▁ගත්තත්	-11.1756
ටික්	-11.1756
▁තැබීම්	-11.1757
▁ස්ටාලින්	-11.176
▁පක්ෂවලට	-11.1762
▁කර්ම	-11.1764
▁රොබට්	-11.1767
▁වැටුපක්	-11.1775
වරයෙකි	-11.1775
▁අනතුරකට	-11.1776
ප්‍රිය	-11.178
▁එතැනට	-11.1781
▁අභ්‍යන්තරයේ	-11.1782
ලෙයි	-11.1782
▁ස්වල්පයක	-11.1782
▁ප්‍රමාණයකින්	-11.1784
▁අපේක්ෂකත්වය	-11.1786
රූප	-11.1786
▁ස්වාධීනත්වය	-11.1788
▁ලිපිනය	-11.1791
උප	-11.1793
▁මහික	-11.1793
කිරීම්	-11.1794
▁ගවයින්	-11.1794
▁අර්තාපල්	-11.1796
▁සේවකයෝ	-11.1796
▁අතිශයින්	-11.1797
▁එල්ලවූ	-11.1798
▁ජනාධිපතිවරණයෙන්	-11.1798
▁කස්තුරි	-11.18
▁කාලා	-11.18
මං	-11.1801
▁පුරවා	-11.1801
චර්	-11.1803
▁වීරතුංග	-11.1804
▁දෑත්	-11.1806
-2	-11.1807
▁එහාට	-11.1808
▁මඩු	-11.1809
▁බිබිල	-11.1811
▁ග්‍රීක	-11.1811
▁අන්තයේ	-11.1811
▁නෝනා	-11.1813
▁අමුත්තන්	-11.1819
▁ශූර	-11.1819
▁සුමතිපාල	-11.1821
▁කන්දක්	-11.1822
▁විජේවර්ධන	-11.1824
▁දූෂණයට	-11.1827
▁ගිහාන්	-11.1828
▁ඇන්ඩ්	-11.1828
▁පරම	-11.1829
වත	-11.1831
▁සමගයි	-11.1832
▁පටි	-11.1832
▁ප්‍රභේද	-11.1833
▁අනික්	-11.1835
▁උළෙලට	-11.1836
▁පණ්ඩිත	-11.1837
▁අනුගත	-11.1837
▁මහත්තය	-11.1837
▁කැරට්	-11.1839
▁ප‍්‍රතිකාර	-11.1842
▁රැලි	-11.1842
▁සාමූහික	-11.1842
▁බෝම්බයක්	-11.1844
▁ගත්තාය	-11.1844
▁රහසක්	-11.1844
යකුට	-11.1848
▁ගහනවා	-11.1851
▁යටින්	-11.1854
ාම	-11.1856
▁තත්වයට	-11.1856
▁සිතේ	-11.1856
▁මුණසිංහ	-11.1857
▁කටයුතුවලින්	-11.1857
▁අගනා	-11.186
▁බැලීමේ	-11.1865
▁මැලේසියාව	-11.1866
▁යුක්රේනය	-11.1869
▁පොලිස්පතිවරයාට	-11.187
▁මාලාවේ	-11.1871
්වලට	-11.1871
▁අධ්‍යාපනයේ	-11.1872
▁මලික්	-11.1872
▁භාරකාර	-11.1873
▁කරූ	-11.1878
▁පළාත්වලට	-11.188
▁බිඳවැටීම	-11.188
න්‍ය	-11.1882
▁ව්‍ය	-11.1882
▁විශේෂයක්	-11.1883
▁සැල්	-11.1884
▁නවසීලන්තයේ	-11.1884
▁තරගාවලියක්	-11.1886
▁බින්	-11.1888
▁ජෝශප්	-11.1888
▁කොට්ඨාශයේ	-11.1888
▁රාහුල	-11.189
91	-11.1891
▁අවභාවිත	-11.1892
ත්වයක්	-11.1897
▁පූජක	-11.1898
▁ලාභයක්	-11.1898
▁ඇණ	-11.1898
▁හිරේ	-11.1899
ුරු	-11.1901
▁සමූහයේ	-11.1904
▁හෙයකින්	-11.1906
ිනුත්	-11.1906
▁වතුකරයේ	-11.1907
▁කැපවී	-11.191
▁නිස්සංක	-11.1912
▁මින්නේරිය	-11.1912
ෙදී	-11.1914
▁කුමන්ත්‍රණ	-11.1915
සහගත	-11.1916
▁මෙගාවොට්	-11.1916
▁සවන්	-11.1916
▁වික්‍රමසිංහගේ	-11.1919
▁වැසියන්ට	-11.1921
▁කිරිමෙන්	-11.1923
▁දිනයක	-11.1923
▁සාධකය	-11.1923
▁දෙමිනි	-11.1925
▁පංති	-11.1927
▁6.00	-11.1928
▁කුමාරසිංහ	-11.1929
▁මාර්ගයක	-11.1929
රන	-11.1929
▁පිරුණු	-11.193
▁මන්ත්‍රීවරයකු	-11.1931
යකුගේ	-11.1931
▁පරික්ෂක	-11.1932
ටින්	-11.1933
▁නොවැ	-11.1933
ෝස්	-11.1933
▁අදාලව	-11.1934
ියෝ	-11.1935
▁පෘථිවි	-11.1936
▁විසිර	-11.1936
▁ෂෙහාන්	-11.1936
ගැනීමේ	-11.194
▁බැණ	-11.1942
▁පිළිවෙත	-11.1943
▁ඒකාධිපති	-11.195
▁බිස්නස්	-11.1952
▁සංඛ්‍යාලේඛන	-11.1952
▁හඳුනාගැනීම	-11.1953
▁වෛරසයේ	-11.1954
▁හිතවතුන්	-11.1954
▁අභ්‍යාසය	-11.1958
▁ඉල්ල	-11.1959
▁ලබාදීමෙන්	-11.196
▁මාරුවීම්	-11.1961
▁දැරීම	-11.1962
▁මන්දිරයේදී	-11.1963
▁මහේස්ත‍්‍රාත්	-11.1968
▁ලොවට	-11.1969
▁නිලධාරිනිය	-11.1975
▁සිරදඬුවම්	-11.1975
▁පුටුව	-11.1977
▁සඳහායි	-11.1986
▁අරාබියේ	-11.1986
පාද	-11.1986
▁කොස්ගොඩ	-11.1987
▁යොමුවී	-11.1988
▁නිවාරණ	-11.1989
▁නඟා	-11.1989
▁1987	-11.1989
▁එල	-11.1989
▁යුතුකම	-11.199
▁සියුම්	-11.1993
▁විකිරණ	-11.1997
▁දන්නෙ	-11.1997
▁සිරුරට	-11.1999
▁තනිවම	-11.2001
▁එහෙමත්	-11.2002
▁ඉතිහාස	-11.2003
▁හේතූන්	-11.2004
▁රඟ	-11.2004
▁ඇපල්	-11.2005
▁දැනගැනීමට	-11.2006
▁මියන්මාරයේ	-11.2007
▁පදක්කමක්	-11.201
▁කටුගස්තොට	-11.2011
▁ව්‍යාපාරිකයකු	-11.2013
▁ධ	-11.2014
▁ඇතුළෙ	-11.2015
▁අපෙන්	-11.2015
▁සංගණනය	-11.2016
▁මූලාශ්‍ර	-11.2016
▁සමඟය	-11.2017
▁පියතුමා	-11.2017
▁අරගලකරුවන්	-11.2017
▁කෙළින්ම	-11.2017
▁පසුකාලීනව	-11.2018
ශ්‍ර	-11.2019
▁දෙකකදී	-11.2019
▁චාරිකාව	-11.2022
▁විරෝධීව	-11.2023
කරුවන්ට	-11.2024
▁ගැනද	-11.2027
▁ආයෙත්	-11.2029
▁නලින්ද	-11.2029
▁නීතියෙන්	-11.2029
▁නිවෙසක	-11.203
තෙ	-11.2031
▁අවධියේ	-11.2033
▁සඳහන්ව	-11.2036
▁සිනමාපටය	-11.2037
කිරි	-11.2038
▁ධාරාව	-11.204
▁වුවමනා	-11.204
▁වැටීමට	-11.2043
දායක	-11.2043
▁ඉටුකළ	-11.2047
▁කිසිවෙක්	-11.2047
▁බිද	-11.2053
▁බැංකුවෙන්	-11.2055
▁අදහසයි	-11.2055
▁ඊජිප්තු	-11.2056
61	-11.2058
▁හොයා	-11.2059
දූව	-11.206
▁දේවස්ථානයේ	-11.206
▁හැදුවා	-11.206
▁ලිපිනයේ	-11.2062
▁රඳා	-11.2063
▁කාන්තාවකගේ	-11.2064
▁ව්‍යසනය	-11.2068
▁පොකුර	-11.2069
ත්‍රා	-11.2069
පූර්	-11.207
▁දෙපාර්ශ්වය	-11.2071
▁පහේ	-11.2074
▁සරසවිය	-11.2076
▁කසිප්පු	-11.2079
▁විෂ්ණු	-11.2079
එය	-11.208
▁මහජනතාවගේ	-11.2082
▁කරළියට	-11.2083
▁චින්තක	-11.2087
▁මොහාන්	-11.2087
▁අප්‍රිකා	-11.2087
▁ස්වල්පයක්	-11.2088
▁පණිවිඩය	-11.2093
▁පවුම්	-11.2093
▁දෙනකුගෙන්	-11.2094
▁වාදනය	-11.2094
▁එදිනම	-11.2095
▁විශ්වාසභංගය	-11.2096
▁අඩුවීමක්	-11.2097
▁1988	-11.2099
▁ගනේෂන්	-11.21
▁ප‍්‍රමාණයක්	-11.2101
▁කතාබහක්	-11.2102
▁ප්ල	-11.2104
▁ලෙන්	-11.2104
▁ඉඩමේ	-11.2106
▁වැළඳ	-11.2107
▁යැවීමේදී	-11.2108
.00	-11.211
ුවක්	-11.2111
▁වාද	-11.2112
▁ගැමි	-11.2114
▁ප්‍රධානි	-11.2114
▁ප්‍රසම්පාදන	-11.2115
▁මැදවච්චිය	-11.2115
▁විදිහ	-11.2117
▁රාහු	-11.2117
▁ගතවී	-11.2119
▁පෙන්	-11.212
▁ප්‍රේක්ෂකයන්	-11.2122
▁අරගලයේ	-11.2126
▁නික	-11.2126
▁තහඩු	-11.2126
▁විලාසිතා	-11.2127
යෙකුට	-11.2128
ජිත්	-11.2128
▁පුණ්‍ය	-11.213
▁ලියන්න	-11.2132
▁පාවා	-11.2133
▁පීලි	-11.2133
▁සුරැකීමේ	-11.2134
▁ප්‍රියංකර	-11.2137
▁අල්ලන්න	-11.2137
▁යුක්රේනයේ	-11.2137
▁සංචාරකයන්ට	-11.2137
▁කැටයම්	-11.214
මාන්	-11.2146
▁රිට්	-11.2146
▁සංස්කරණය	-11.2149
▁වාතාවරණයක්	-11.2152
▁ඒකෙ	-11.2155
▁පර්යේෂකයන්	-11.2156
▁ඇදගෙන	-11.2158
▁එදිනට	-11.2159
▁ශෝකය	-11.216
රල්	-11.2162
▁පටන්ගෙන	-11.2165
▁ඇමතුම	-11.2166
▁අගමැතිතුමා	-11.2166
▁පාෂාණ	-11.2169
▁නිව්යෝක්	-11.2169
▁එදිරිසිංහ	-11.2169
වකින්	-11.2175
ෆ්‍ර	-11.2178
▁පහව	-11.218
▁භටයන්	-11.2182
▁සමුද්‍රීය	-11.2183
▁දුම්රියක්	-11.2183
▁අවශ්‍යතාවයක්	-11.2186
▁ඊශ්‍රායලයේ	-11.2187
▁පෙන්වාදී	-11.2187
▁මදුරු	-11.2188
▁කාසි	-11.2188
▁සැපයූ	-11.219
ූර්	-11.2197
▁හඳුන්වන්නේ	-11.2198
▁සංක්‍රමණිකයන්	-11.22
▁වාර්තාවන	-11.22
▁ලබාදෙනවා	-11.2201
▁සෙබස්තියන්	-11.2202
▁බඳු	-11.2202
▁පල්ලි	-11.2206
▁ශාලාවේදී	-11.2206
▁පැන්න	-11.2208
▁උදාකර	-11.2209
▁යහපාලනය	-11.221
▁මුත්‍රා	-11.221
▁සාදය	-11.2212
▁සමර	-11.2212
▁නවරත්න	-11.2216
▁භූත	-11.2217
බල්	-11.2221
ධා	-11.2222
▁සතා	-11.2222
▁දශකය	-11.2223
▁වෙලාව	-11.2226
▁මෙච්චර	-11.2227
▁මිනිසාගේ	-11.2228
▁සරණාගතයින්	-11.2229
▁කිලෝවක	-11.2229
▁ශරීරයට	-11.2231
▁කන්‍යා	-11.2231
▁කෙටුම්පතට	-11.2231
ගැස	-11.2235
දෙනිය	-11.2235
▁දැනුම්දෙන	-11.2237
▁සේවකයෙකු	-11.2237
▁කිරීම්වලදී	-11.2237
▁අධ්‍යනය	-11.2239
▁නිදි	-11.2239
ගාමී	-11.2239
▁කිසිවෙකුටත්	-11.224
▁භාසුර	-11.2241
▁පමණකි	-11.2243
▁ටෝකියෝ	-11.2244
▁ප්‍රියදර්ශන	-11.2245
‍ට	-11.2247
▁ගැබ්	-11.2248
▁9.30	-11.2248
▁ශීඝ්‍රයෙන්	-11.2251
▁දේවි	-11.2251
▁පාරවල්	-11.2255
▁සම්බන්ධය	-11.2256
▁මුවා	-11.2256
▁රකින	-11.2259
▁අදට	-11.2261
▁කොටහේන	-11.2263
▁අතරමැදි	-11.2264
▁වළකින	-11.2266
▁කළාට	-11.227
▁අනෙක	-11.2271
▁ස්පර්ශ	-11.2272
▁හිතලා	-11.2272
▁ද්විපාර්ශ්වික	-11.2273
▁මෙහෙයවනු	-11.2274
▁ටින්	-11.2276
සත්	-11.2276
▁සජීවීව	-11.2276
▁ඇත්දැයි	-11.2279
▁ජලාපවහන	-11.2281
▁තත්ත්වයකි	-11.2285
▁එලෙසම	-11.2286
▁ස්වාධීනව	-11.2287
▁ගොඩනැගිල්ලක්	-11.2287
▁ගින්නට	-11.229
▁නැටුම්	-11.2291
▁හිමියා	-11.2299
▁රසායනාගාර	-11.2299
▁සැලකෙන්නේ	-11.23
▁හමුවීම	-11.2302
▁ඔළුව	-11.2303
▁අස්වීම	-11.2303
▁කාන්තාවට	-11.2303
▁ගවයන්	-11.2303
ංක	-11.2304
▁කඩේ	-11.2305
▁ඉල්ලුමක්	-11.2308
සිත	-11.2308
▁ඇදුම්	-11.2311
▁ඇඟවීමක්	-11.2312
ෝප	-11.2312
▁ජාවාරමට	-11.2314
කදි	-11.2314
▁ත්‍යාගය	-11.2317
ජනක	-11.2317
▁කඩාවැටීම	-11.2318
▁සහයෝගයක්	-11.2318
▁මොස්කව්	-11.2319
▁පරපුරට	-11.2322
▁මට්ටමකට	-11.2322
▁ක්‍රමවේදයන්	-11.2323
▁දායාද	-11.2324
▁ව්‍යායාම	-11.2325
▁ගීය	-11.2328
▁පෙනි	-11.233
වෙද්දී	-11.233
ලිස්	-11.2331
▁දෙහි	-11.2332
▁අලස්	-11.2333
කරලා	-11.2333
▁ඇෆ්ගනිස්ථානයේ	-11.2336
▁මුහුණදුන්	-11.2336
▁දිනයේත්	-11.2338
දුම්	-11.2341
▁භෝග	-11.2343
▁ඡායාරූපයක්	-11.2343
▁ඇම්	-11.2344
▁ඛ	-11.2344
▁විශිෂ්ඨ	-11.2349
ලු‍	-11.2353
▁සේමසිංහ	-11.2354
▁පරිශ්‍රයේදී	-11.2356
▁ප්‍රමාණයකට	-11.2358
ස්ථා	-11.2359
▁ගැවසෙන	-11.2361
▁1996	-11.2361
▁කාඩ්පත්	-11.2362
▁නියත	-11.2364
▁යාමක්	-11.2366
▁සිතූ	-11.2368
▁පරිභෝජනයට	-11.2369
▁කාර්යබහුල	-11.237
හිත	-11.2371
▁ලිපියෙන්	-11.2371
▁හැඳින්	-11.2374
▁කැදවා	-11.2374
▁ප්‍රමිති	-11.2375
▁නිවැසියන්	-11.2375
▁මාලි	-11.2379
▁තියාගන්න	-11.238
▁102	-11.238
▁ඊටත්	-11.2381
▁මහානාම	-11.2383
▁වාසියක්	-11.2384
▁මගීන්ට	-11.2384
▁වාර්තාවන්නේ	-11.2384
▁දියණියගේ	-11.2386
▁හක්	-11.2389
▁විවේචනයට	-11.2392
▁බීබීසී	-11.2395
▁පෘථිවියේ	-11.2397
▁කොල්ලකරුවන්	-11.2398
▁යනවිට	-11.2402
▁හැමදේම	-11.2403
▁අවුරුද්දක්	-11.2406
▁ඩු	-11.2406
▁නිහඬව	-11.2407
ලස්	-11.2409
▁ලොක්කා	-11.2409
▁හමුවිය	-11.2413
පට	-11.2413
▁ජාලයේ	-11.2413
▁චැ	-11.2415
▁ස්ථානයකට	-11.2419
▁නිරන්තර	-11.2419
▁කොළොන්නාව	-11.2422
▁අරඹයි	-11.2425
▁උකස්	-11.2425
▁බැඳීම	-11.2428
▁ඉන්දුනීසියාව	-11.2431
ගය	-11.2431
▁පුරාවස්තු	-11.2433
▁හොරෙන්	-11.2436
▁පැර	-11.2436
▁නටබුන්	-11.2437
▁මිචෙල්	-11.2437
▁විෂමතා	-11.2438
සඳ	-11.2439
▁ඔයේ	-11.2442
▁කි‍්‍රයා	-11.2444
▁වේල්ස්	-11.2447
▁අසලංක	-11.2448
▁තනතුරේ	-11.2448
▁කාමරයක	-11.2449
▁විශේෂය	-11.2449
▁පිවිතුරු	-11.245
▁වන්	-11.2451
යොහාන්	-11.2453
▁පතන	-11.2459
▁රසවත්	-11.2461
▁චලනය	-11.2464
▁සහායක	-11.2465
▁පිළියම්	-11.2469
▁වෙලාවෙ	-11.247
▁නායකයන්ට	-11.247
▁පරිප්පු	-11.2478
▁පාරිභෝගිකයා	-11.248
▁පුරවැසියන්ට	-11.2483
▁කනගාටුව	-11.2483
▁අවැසි	-11.2486
▁ශ්‍රමය	-11.2487
දෙයි	-11.2487
▁කිහිපයේ	-11.2488
▁අදයි	-11.2489
▁කලාවට	-11.2494
▁ටිකට්	-11.2494
▁සුබසාධන	-11.2498
▁නිසාවෙනි	-11.2499
▁උණු	-11.25
▁පාගමන	-11.25
▁ශ්‍රීමත්	-11.25
▁සෘජුව	-11.2502
▁නාන	-11.2504
▁මෙමඟින්	-11.2505
▁අල්ලාහ්	-11.2506
▁අනිවාර්යයෙන්	-11.2506
ගුරු	-11.2508
▁පවුලක්	-11.251
▁සමාගම්වල	-11.251
▁නිවාඩුව	-11.2515
▁චතුර	-11.2516
▁සාකච්ඡාවේ	-11.2519
▁නියෝජිතයා	-11.2519
මගේ	-11.252
▁ඇතිවීමේ	-11.2522
▁අධ්‍යාපනික	-11.2523
▁ඉතිහාසයට	-11.2524
සේකර	-11.2527
▁වැඩිදුරට	-11.2529
▁අඟවා	-11.2533
▁අක්ෂර	-11.2534
▁පරාජයෙන්	-11.2535
▁ප්‍රසංග	-11.2535
▁අධිචෝදනා	-11.2535
▁නිපදවා	-11.2536
තක	-11.2536
▁මානසිකත්වය	-11.2536
▁විග්‍රහ	-11.2539
ෙන්ද	-11.254
පොත	-11.2541
▁වැනිදාට	-11.2542
▁ඇඟිල්ල	-11.2544
▁රැස්වී	-11.2545
▁බැල	-11.2548
▁නිලධාරීන්ගෙන්	-11.2549
▁විද්‍යාවේ	-11.2552
▁මද්දුම	-11.2553
▁නැඟ	-11.2554
▁ජනපතිගෙන්	-11.2555
▁භාරදුන්	-11.2564
▁කොකේන්	-11.2565
▁මිසක්	-11.2566
▁වෙන්දේසි	-11.2566
▁ඒවායින්	-11.2568
▁මැතිවරණයකට	-11.2568
▁පවරන	-11.2568
▁වනතෙක්	-11.2569
▁මන්ත්‍රීන්	-11.257
▁දළු	-11.2578
ල්ඩ්	-11.2579
▁ඉරි	-11.258
▁විජේදාස	-11.2583
▁ටයර්	-11.2583
▁කැලේ	-11.2585
▁ගන්නැයි	-11.2585
▁වැදි	-11.2588
▁කැරලි	-11.2592
▁මතුවී	-11.2593
▁පුටු	-11.2596
▁ලෙන	-11.2601
▁පාළු	-11.2602
▁වීඩියෝව	-11.2604
▁දික්ඔය	-11.2605
▁ආවොත්	-11.2607
▁සත්‍යග්‍රහය	-11.2609
▁තණමල්විල	-11.2613
▁පාදුක්ක	-11.2613
▁ටැ	-11.2618
▁නවකතා	-11.2619
▁සාකච්ඡාවකින්	-11.262
▁යවන්නා	-11.2621
▁හැඟීමක්	-11.2621
▁රංගේ	-11.2622
වීදිය	-11.2622
▁විමසන	-11.2625
▁දෙපා	-11.263
▁වධ	-11.263
▁ප්‍රේමචන්ද්‍ර	-11.2631
▁වටිනාකමින්	-11.2631
▁නවත්වන්න	-11.2632
▁ඔසු	-11.2634
▁පීටර්	-11.2634
▁සියයක්	-11.2634
▁පොහෝ	-11.2635
▁හමාර	-11.2636
වුඩ්	-11.2636
▁රොමේෂ්	-11.2638
▁මෙහෙමයි	-11.2638
▁මැක්	-11.264
▁මධ්‍යස්ථ	-11.2642
▁ඇමෙරිකන්	-11.2643
▁රවුෆ්	-11.2643
▁වෙලාවක්	-11.2644
හන	-11.2645
▁ජනන	-11.2646
▁සූර්යයා	-11.2646
▁සාක්ෂිකරු	-11.2648
▁පොලි	-11.2649
▁නැවුම්	-11.2649
▁පැවැත්වු	-11.2651
▁සාගරය	-11.2651
▁පූජනීය	-11.2652
▁මූලිකත්වයෙන්	-11.2653
▁ව්‍යවසායකයන්	-11.2654
▁ගංගාව	-11.2656
▁අවශ්‍යව	-11.2656
▁වීදුරු	-11.2656
▁වෙල	-11.2656
▁අවස්ථාවේදීයි	-11.2658
▁ආසන්නව	-11.2658
▁කියනු	-11.2659
▁අගලකඩ	-11.2661
මාර	-11.2661
▁චරිතයට	-11.2661
▁අනික	-11.2662
රතන	-11.2662
▁පරිවර්තන	-11.2662
▁වීමද	-11.2662
▁වසරකම	-11.2664
ශීලී	-11.2665
▁හබරණ	-11.2665
ඩෙ	-11.2665
▁ආයතනයෙන්	-11.2666
▁ශිෂ්‍යයන්	-11.2666
▁අභිමානය	-11.2666
▁රහසිගතව	-11.267
▁තුන්දෙනා	-11.2671
▁කේන්ද්‍රයේ	-11.2673
නන්ද	-11.2674
▁කොම	-11.2675
▁දේශයේ	-11.2675
ධර්ම	-11.2676
▁පැනීම	-11.2677
▁සින්	-11.2679
▁113	-11.2682
▁ව්‍යාපෘතියට	-11.2682
▁පිටුපසින්	-11.2683
▁අධිකරණයේදී	-11.2686
▁කරගන්නට	-11.2686
▁දානය	-11.2688
▁119	-11.269
▁මැනවින්	-11.269
▁විත්තිය	-11.2695
▁කණු	-11.2697
▁පරීක්‍ෂා	-11.2697
ගන්නට	-11.2699
▁සෙන්	-11.2701
කන	-11.2702
▁එක්වෙමිනි	-11.2702
▁දමයි	-11.2705
වාදීන්	-11.2706
▁එක්වීම	-11.2707
භා	-11.2708
▁ප්‍රදේශවාසීහු	-11.2709
ධන	-11.2709
▁ලේඛක	-11.2709
▁සිව්දෙනා	-11.271
▁ලොවපුරා	-11.271
▁ප්‍රහාරවලින්	-11.2713
▁පෘතුගීසි	-11.2713
▁1999	-11.2713
▁උල්	-11.2715
▁මාසිකව	-11.2716
ිනී	-11.2717
▁සූදානම	-11.2719
ආර	-11.272
යෙකුගේ	-11.2721
න්ඩ්	-11.2722
▁බ්‍රසීලයේ	-11.2722
▁සේවකයින්ගේ	-11.2723
▁එහෙනම්	-11.2724
▁අංශු	-11.2724
▁ගැටලුකාරී	-11.2726
▁රෝස	-11.2728
▁බැලුවා	-11.2729
▁හදාගෙන	-11.273
▁පාර්ශවයන්	-11.2742
කරනු	-11.2742
▁ප්‍රාග්ධන	-11.2746
▁හැකිවූ	-11.2746
▁නිව්යෝර්ක්	-11.2748
▁ප‍්‍රථම	-11.2748
▁ගයන්ත	-11.2748
▁15,000	-11.2749
ෂු	-11.2749
▁සල	-11.275
▁ට්‍රක්	-11.2752
කෙසේ	-11.2754
▁තරිඳු	-11.2754
▁කුමර	-11.2756
වැට	-11.2756
▁යාත්‍රාවේ	-11.2759
▁බිඳී	-11.2759
▁රථවල	-11.2759
▁අනුරාධපුරයේ	-11.276
▁එක්වරම	-11.2761
▁පරපුරේ	-11.2761
සයි	-11.2763
▁හානියට	-11.2763
▁විත්තිකාර	-11.2764
දෙන්න	-11.2764
▁අපයෝජනයට	-11.2766
▁1956	-11.2768
▁විසඳ	-11.2768
ෙහෙ	-11.2772
▁විශ්වවිද්‍යාලයට	-11.2773
▁බොර	-11.2773
▁නාළිකාව	-11.2778
▁ආශිර්වාදය	-11.278
▁යතුරුපැදියේ	-11.2784
▁මණ්ඩලයෙන්	-11.2786
▁වරදට	-11.2786
▁ගැනේ	-11.2786
▁කළැයි	-11.279
▁කඩාකප්පල්	-11.2791
▁සාක්ෂාත්	-11.2792
වොත්	-11.2792
▁නායකයන්ගේ	-11.2793
▁ඔබත්	-11.2795
▁5,000	-11.2796
▁ගායක	-11.2797
▁සතියක	-11.2797
▁හේන	-11.2798
▁ගුරුවරිය	-11.28
▁අමල්	-11.2803
▁සැලකීම	-11.2805
▁බෙදාහැරීමේ	-11.2805
▁අදින්	-11.2805
▁හැසිරෙන	-11.2807
ක්‍රම	-11.2808
▁පිලිප්	-11.2808
▁කෙළ	-11.281
▁චාමික	-11.2811
▁මූල්‍යමය	-11.2812
▁හිමිකරගෙන	-11.2813
▁අවිධිමත්	-11.2814
▁ගින්නකින්	-11.2815
▁බණ	-11.2815
▁අමා	-11.2816
ගත්ත	-11.2816
▁සංයුතිය	-11.2818
පුරම්	-11.2818
▁මහජනයා	-11.2823
▁නාගොඩ	-11.2823
▁ඉරාකයේ	-11.2824
▁තිලක්	-11.2827
▁නොබලා	-11.2828
රාව	-11.2828
▁අප්‍රසාදය	-11.2829
▁හඳ	-11.283
කුමාර්	-11.2834
වෙල්	-11.2834
▁පවතිනු	-11.2836
▁පීඩනයක්	-11.2839
▁සිරිපා	-11.284
▁පළාතෙන්	-11.284
▁දේවස්ථාන	-11.2842
▁නිදොස්	-11.2845
▁නුදුරු	-11.2845
▁පාලම්	-11.285
▁විහිද	-11.285
▁දේශපාලකයන්	-11.2857
▁ප‍්‍රමුඛ	-11.2858
▁පරාක්‍රම	-11.2858
ක්‍ර	-11.286
▁සමත්වූහ	-11.2862
▁සැලසීමට	-11.2863
විමට	-11.2863
▁ගෝඨා	-11.2866
▁දෙව්	-11.2867
▁දවාගත්	-11.2868
▁සිදුකරනවා	-11.2869
▁අස්ථාවර	-11.2869
ලෝක	-11.287
▁දියණියන්	-11.2875
▁8.30	-11.2876
▁මතවාද	-11.2876
▁කිව්වත්	-11.2878
▁වෙයිද	-11.2878
▁පිතිකරුවා	-11.2879
▁ආකර්ෂණීය	-11.288
▁යෙදුම	-11.2882
නයට	-11.2882
▁නැගීම	-11.2883
▁පත්වනු	-11.2885
▁බහුදින	-11.2886
සෙන්	-11.2888
යිස්	-11.2888
▁පරීක්ෂණවලින්	-11.289
▁හිටියෙ	-11.2891
▁බිරිඳගේ	-11.2894
▁නත්තල	-11.2895
▁මාලදිවයිනේ	-11.2897
▁ඥාන	-11.2898
▁රාජකරුණා	-11.2898
▁ගැනිණි	-11.2898
▁සහනාධාරය	-11.29
▁අනූ	-11.2901
▁ඉපැරණි	-11.2902
▁වදාළ	-11.2903
▁දානවා	-11.2905
▁අධිකාරිවරයා	-11.2909
▁සොහොන්	-11.291
▁රොහාන්	-11.291
▁බියෙන්	-11.2911
▁යනාදිය	-11.2912
▁නංවන	-11.2912
▁වෙළඳාම	-11.2912
▁ගත්තෙ	-11.2913
▁දෙයකි	-11.2914
තැන	-11.2914
▁රණවීර	-11.2916
▁බන්ධනාගාරයට	-11.2918
▁අනුකූල	-11.2922
ට්‍ර	-11.2922
▁ශිල්පියා	-11.2924
▁තොරණ	-11.2924
▁නිලධාරීවරයා	-11.2924
▁කපන	-11.2927
▁පාක්ෂිකයන්	-11.2927
▁තුනේ	-11.2928
පිළි	-11.2929
▁නොකළහොත්	-11.2931
▁අත්සනින්	-11.2931
▁තෝ	-11.2932
▁ප‍්‍රදේශ	-11.2934
යමින්	-11.2935
▁තුර්කිය	-11.2937
▁ඇතුළුවීම	-11.2938
හම	-11.2939
▁සොයන්න	-11.2939
▁සතුන්ගේ	-11.2939
▁මිනිහා	-11.2941
▁අරගලයට	-11.2941
ත්ති	-11.2942
▁මන	-11.2943
▁සිදුකළේ	-11.2944
▁පාලනාධිකාරිය	-11.2947
▁කාට	-11.2948
▁ස්වර්ණ	-11.2954
▁දක්ෂතාව	-11.2955
▁හිතකාමී	-11.2956
▁ගොඩාක්	-11.2956
වපු	-11.2957
▁පිරිවෙන්	-11.2958
▁පැමිණියහ	-11.2961
▁වන්දනාව	-11.2962
▁23,	-11.2962
මික	-11.2965
▁වාරිකය	-11.2967
▁වංචනික	-11.2967
▁සොයාබැලීම	-11.2968
▁අන්තවාදීන්	-11.2969
▁රත්‍රං	-11.2969
▁මට්ටම්	-11.297
▁ජනපතිගේ	-11.297
▁අපහසුතාවයට	-11.297
ශාන්	-11.2971
▁සපුගස්කන්ද	-11.2974
▁රහිතව	-11.2975
▁රාජපක්ෂට	-11.2975
▁97	-11.2976
▁විකාශන	-11.2978
▁එහෙ	-11.2978
කූ	-11.2979
▁බැලු	-11.2979
▁ඉතිහාසයක්	-11.2979
▁1998	-11.298
්වල	-11.298
▁වර්ණය	-11.2981
▁ගවේෂණ	-11.2982
▁අමුතුවෙන්	-11.2984
▁පොළේ	-11.2985
▁යොදවන	-11.2985
▁කහවත්ත	-11.2986
▁වේයන්ගොඩ	-11.2987
▁මහානායක	-11.2988
▁විරෝධතාවයක	-11.2988
▁විමල	-11.299
වමිනි	-11.299
▁සිතියම	-11.299
▁බැලීම්	-11.2991
▁දන්	-11.2991
▁ගෙඩිය	-11.2992
▁ඉල්ලන්නේ	-11.2992
▁සිදුකරන්නේ	-11.2993
▁සඳු	-11.2995
▁අබේගුණවර්ධන	-11.2996
▁පත්වෙමින්	-11.2997
▁ජාසිංහ	-11.2998
▁නිවුන්	-11.2999
සක්	-11.2999
▁එක්ස්	-11.3001
▁සායන	-11.3001
▁ජනවාර්ගික	-11.3001
▁නොගිය	-11.3004
▁දිවුලපිටිය	-11.3005
▁විජේසූරිය	-11.3005
100	-11.3006
▁ඇෆ්ගනිස්තානය	-11.3006
ෝර්	-11.3007
▁යේ	-11.3007
▁නීත්‍යනුකූල	-11.3009
▁විවාදයක්	-11.3011
ලෙන්	-11.3013
▁30,000	-11.3013
▁ජාත්‍යන්තරය	-11.3013
▁ආත්මය	-11.3015
▁බිත්ති	-11.3016
ඒක	-11.3016
▁උමං	-11.3017
▁වටිනාකම්	-11.3018
▁පැවතියේ	-11.3019
▁ලන්දේසි	-11.3019
▁පාරක්	-11.3019
▁බිහිවූ	-11.3021
▁බැට	-11.3022
වර්ධන	-11.3023
▁ජැ	-11.3023
▁බැදුම්කර	-11.3023
▁පස්දෙනෙකු	-11.3025
▁හැඳින්වෙන්නේ	-11.3025
ස්ත	-11.3026
▁විගණනය	-11.3026
▁විකුණන්න	-11.3026
▁මඟහැර	-11.3027
▁ඝාතනයේ	-11.3028
▁ගල්ගමුව	-11.3031
▁කොළඹින්	-11.3032
නිමල	-11.3034
▁කටා	-11.3036
▁වසම	-11.3038
▁ලතින්	-11.3038
▁හිමිකරගත්	-11.304
රාම	-11.3046
▁පිළිගැනීමක්	-11.3046
▁කෝටිපති	-11.305
▁ගෙඩියක්	-11.3052
ීමෙන්	-11.3053
▁එකිනෙකාට	-11.3053
▁නිරුවත්	-11.3054
▁මලු	-11.3055
▁තරගාවලියෙන්	-11.3055
▁හිට	-11.3055
▁කරමි	-11.3056
▁පදය	-11.3057
ම්බි	-11.3058
▁1.5	-11.3058
▁එල්ලවන	-11.3061
▁නිශ්චිතව	-11.3062
▁දක්ෂතම	-11.3062
▁පළමුවන	-11.3063
▁40,000	-11.3066
▁අලින්	-11.3067
▁නැවතුම්පොළ	-11.3069
▁ගෙනයන	-11.3069
▁ප්‍රහාරයකට	-11.3071
▁පසුවිය	-11.3074
▁ඉවත්වීමට	-11.3074
▁ශිල්ප	-11.3074
▁යන්නය	-11.3077
▁අඩුයි	-11.3077
▁කොස්තාපල්වරුන්	-11.3077
▁උද්ඝෝෂණයක	-11.3077
▁විදිය	-11.3078
▁චන්ද්‍රයා	-11.3078
වැසි	-11.3084
▁සෑහීමක	-11.3086
▁මැදිහත්වීමෙන්	-11.3089
බ්‍ර	-11.3089
▁සමගිනි	-11.3092
▁ආලේප	-11.3097
▁2500	-11.3097
▁හොද	-11.3097
▁පාලකයා	-11.3099
▁චෝදනාවලට	-11.3102
▁පත්තර	-11.3102
▁හමාරය	-11.3108
පෙළ	-11.3108
වලටත්	-11.3109
▁ආගන්තුක	-11.3109
▁කොහේ	-11.311
ාණ	-11.3111
▁නිෂ්පාදනයට	-11.3114
▁මධ්‍යස්ථානවල	-11.3114
▁ක්‍රීඩකයකු	-11.3114
▁සක්‍රිය	-11.3114
▁භාරතීය	-11.3116
▁විත්තිකරුට	-11.3117
▁රුපියලේ	-11.3118
▁ඉල්ලීමකට	-11.3119
▁වෙනකම්	-11.3119
▁නිකවැරටිය	-11.3122
▁ප්‍රායෝගිකව	-11.3122
බූ	-11.3124
▁බ්ල	-11.3125
▁දෙකටම	-11.3129
▁ගමනාගමනයට	-11.3131
▁කාර්යංශය	-11.3132
▁අලුත්ගම	-11.3134
▁ඒකරාශී	-11.3141
.“	-11.3142
▁එන්නතක්	-11.3143
▁මහාචාර්යවරයා	-11.3145
▁සුගතදාස	-11.3146
▁ආරම්භයේදී	-11.3146
▁වැඩකරන	-11.3147
▁තලාව	-11.3147
කට්	-11.315
▁නිකාය	-11.3151
▁ඇදුම	-11.3152
▁මාදම්පේ	-11.3155
▁කොල්කටා	-11.3155
▁වෙනදා	-11.3158
▁මෝදර	-11.3158
▁දිස්ත්‍රික්කවලට	-11.3159
▁අයර්ලන්තය	-11.316
▁නිළිය	-11.316
▁දරාගත	-11.316
ාගාරය	-11.3162
▁1947	-11.3165
▁ධර්මපාල	-11.3166
▁දහස	-11.3166
▁උත්සාහයන්	-11.3166
▁අවයව	-11.3167
▁ජනාධිපතිතුමාගේ	-11.3168
▁ජීවනෝපාය	-11.3169
▁ප්‍රේමරත්න	-11.3169
▁යති	-11.3171
▁සුදත්	-11.3173
▁මන්දගාමී	-11.3173
තිස්ස	-11.3174
▁වො	-11.3174
▁ප්‍රකාශකයා	-11.3175
▁වැදීමට	-11.3178
▁ගැසී	-11.318
▁ජීවත්ව	-11.3182
▁යොමුකරන	-11.3183
▁උත්සවයකදී	-11.3184
▁ප්‍රතිවිරුද්ධ	-11.3187
ුත්	-11.3188
ෂණ	-11.3188
▁භේද	-11.3189
▁මුල්ලේරියාව	-11.3191
▁සංක්‍රමණික	-11.3193
▁පුනරුත්ථාපනය	-11.3196
රීම	-11.3196
▁ජනරජයේ	-11.3199
▁දෙදෙනාගෙන්	-11.3201
▁යුවළක්	-11.3204
▁ගම්මිරිස්	-11.3205
▁දමන්නට	-11.3206
▁සීතාවක	-11.3207
▁මුද්දර	-11.3208
▁සාමාජිකයෝ	-11.3208
▁පසුපෙළ	-11.3209
▁1983	-11.3211
▁බෙල්ල	-11.3214
▁සරු	-11.3215
▁ගණයේ	-11.3215
▁ආසාදිතව	-11.3215
▁ඉල්ලනවා	-11.3215
▁ප‍්‍රහාර	-11.3217
▁පද්ම	-11.3218
▁රචනය	-11.3219
▁පලාගිය	-11.3219
▁මාර්	-11.3221
▁අමාත්‍යාංශයෙන්	-11.3222
වුණ	-11.3224
සූරිය	-11.3225
▁නොකරන්නේ	-11.3225
▁ඩබ්	-11.3226
▁105	-11.3227
හැර	-11.3229
▁අයිය	-11.3231
▁අරුත	-11.3231
▁උදාව	-11.3238
▁අවමංගල්‍ය	-11.3239
වුවහොත්	-11.324
▁ගිවිසුමේ	-11.3241
කරණයට	-11.3242
▁කඳවුරට	-11.3244
▁ගෞරවයක්	-11.3245
▁සූත්‍ර	-11.3246
▁වන්දනාවේ	-11.3246
.50	-11.3249
▁ජනාධිපතිතුමාට	-11.3249
මහා	-11.3249
▁වහලය	-11.325
▁අතිවිශාල	-11.3251
▁ගීතයක්	-11.3255
▁දුරකතනය	-11.3258
▁ටිරාන්	-11.326
▁නීතිඥවරු	-11.3261
▁තාප්පය	-11.3263
▁සිටින්නට	-11.3263
5,000	-11.3265
▁කවුරුන්ද	-11.3265
▁ඉෂ්ට	-11.3266
න්ති	-11.3266
▁තරගකාරී	-11.327
▁සංගමයට	-11.3272
▁එල්ලා	-11.3273
▁ස්ටීවන්	-11.3274
▁ඔස්ට්‍රේලියා	-11.3275
▁සඳහාය	-11.3275
▁අතරවාරයේ	-11.3276
▁සමූපකාර	-11.3279
▁හල	-11.328
▁රියැදුරා	-11.3281
ප‍්‍ර	-11.3282
▁අංගයක්	-11.3282
▁ශිල්පය	-11.3283
▁මද්දුමබණ්ඩාර	-11.3283
▁හමුදාවෙන්	-11.3284
▁වෛරසයට	-11.3286
▁සකසන	-11.3289
▁ඕනැ	-11.3289
▁චමරි	-11.3293
▁කවදා	-11.3293
▁භාරගෙන	-11.3293
▁හිතෙනවා	-11.3294
▁තිය	-11.3294
▁ගෙනත්	-11.3295
▁තීරුබදු	-11.3297
▁ඡන්දයට	-11.3302
▁විමසීමේ	-11.3302
▁දික්	-11.3302
▁කිහිපදෙනෙක්	-11.3303
▁තොරතුර	-11.3305
▁තුවක්කුකරුවන්	-11.3306
▁මර්	-11.3306
විද්‍යා	-11.3307
න්තර	-11.3308
වාදි	-11.3309
අජන්ත	-11.3309
බෑ	-11.3313
▁පුන	-11.3313
නින්	-11.3314
▁කිසිවෙකුට	-11.3315
▁දිවියට	-11.3316
▁ආහාරපාන	-11.3317
▁තුර්කියේ	-11.3317
්ස්	-11.3317
▁පාප	-11.3318
▁ඇල්ලීම	-11.332
▁නැකත	-11.3321
▁ජීවී	-11.3322
▁විටමින්	-11.3322
▁මහලේ	-11.3322
▁ජලයේ	-11.3323
▁දැක්මක්	-11.3324
▁පැදවූ	-11.3325
▁ඇෆ්ගනිස්ථාන	-11.3327
▁මාතෘකාව	-11.3327
▁සජීවී	-11.3328
▁ඉන්ද්‍ර	-11.3328
▁ගුණාත්මකභාවය	-11.3328
▁නායයෑම්	-11.3329
▁සමුළුවේදී	-11.3336
▁කඩාගෙන	-11.3336
▁හඳුන්වාදීම	-11.3338
▁මනු	-11.3344
▁රචිත	-11.3344
▁නීතී	-11.3347
▁හැකිවී	-11.3347
▁දිරි	-11.3348
▁කියවන්න	-11.3348
▁ගෝන	-11.3348
▁කතාවකි	-11.3351
▁සමස්තයක්	-11.3351
▁පෙට්ටිය	-11.3353
▁කැස්බෑව	-11.3354
▁ඔබව	-11.3355
ේෂ්	-11.3356
▁මාලදිවයින්	-11.3357
▁ෆා	-11.3358
▁ඒකත්	-11.3358
▁ටෝ	-11.3358
▁සම්බන්ධීකරණය	-11.336
▁දසුන	-11.3362
▁ද්විත්වය	-11.3362
▁අමාත්‍යවරු	-11.3363
▁කාන්තාවකි	-11.3366
▁පිටපතක්	-11.3367
▁එබඳු	-11.3367
▁හයකට	-11.3368
▁පටිපාටිය	-11.3369
▁ආපනශාලා	-11.3372
ෙක	-11.3373
▁මුදාහැරීමට	-11.3374
▁කිරණ	-11.3374
▁21,	-11.3375
▁ආබාධයකට	-11.3376
▁අභ්‍යාවකාශ	-11.3376
▁අබේ	-11.3379
▁ඩොලරයට	-11.338
▁මූණ	-11.3381
▁සිදුවුණේ	-11.3382
▁බාර්	-11.3382
▁ගැඹුරින්	-11.3384
▁උපයෝගි	-11.3386
▁ලාංඡනය	-11.3393
▁වන්දියක්	-11.3393
▁නගරාධිපතිවරයා	-11.3394
▁සොරාගෙන	-11.3394
▁නැඹුරු	-11.3395
▁මැයෙන්	-11.3398
▁පින්තූර	-11.3399
▁8.00	-11.34
▁උඩවලව	-11.34
▁බලපෑමට	-11.3403
▁ආසනයේ	-11.3405
▁මෙරටදී	-11.3407
▁අමරතුංග	-11.3409
▁සම්මන්ත්‍රණය	-11.3409
▁කාලයකින්	-11.3409
▁පුරුෂයා	-11.341
▁ශ්වසන	-11.3414
▁සන්නාමය	-11.3416
▁හොප්කින්ස්	-11.3418
වලු	-11.3419
▁එනකොට	-11.3421
▁සුමන්තිරන්	-11.3422
▁සොයාගත	-11.3423
▁මොකද්ද	-11.3424
▁පිටුව	-11.3426
▁බැරලයක	-11.3429
▁කදු	-11.3431
▁දැක්වූහ	-11.3432
▁පුලුවන්	-11.3432
▁කරණ	-11.3432
▁උපරිමයෙන්	-11.3434
වො	-11.3435
▁පැදිකරු	-11.3436
▁නිරතවන	-11.3437
▁විරෝධතාවයක්	-11.3437
▁කළුබෝවිල	-11.3442
▁නිට්ටඹුව	-11.3442
▁බසින	-11.3442
▁යුද්ධයට	-11.3443
▁දාගෙන	-11.3443
▁අබලන්	-11.3447
▁ටයි	-11.3447
වනේ	-11.3448
▁කාගේ	-11.3448
▁කැළණිය	-11.3449
",	-11.3451
▁මස්කෙළිය	-11.3451
▁විකාශනය	-11.3451
▁නොපැමිණි	-11.3455
▁යුගයක්	-11.3456
▁පෙන්වීමට	-11.3457
▁තොට	-11.3457
▁වළක්වාලමින්	-11.3461
▁තායිවානය	-11.3462
▁මගිනි	-11.3462
▁සියවස්	-11.3463
▁වියදමක්	-11.3463
▁ආපන	-11.3464
▁සභාවල	-11.3468
▁විග්නේෂ්වරන්	-11.3469
▁කාමරයට	-11.347
▁ප‍්‍රදේශවල	-11.347
▁තල්දූව	-11.347
▁පැවැත්වීමේ	-11.3471
▁වනෝද්‍යානය	-11.3473
▁සඳහාද	-11.3474
▁හංදිය	-11.3475
▁රාජ්‍යයට	-11.3476
▁බලශක්තිය	-11.3477
▁මෙවලම්	-11.3479
▁බැඳි	-11.3479
▁හැදෑරීම	-11.348
▁ලබාදෙනු	-11.348
▁සද	-11.3485
▁මිනිසාට	-11.3485
▁ධනු	-11.3486
▁කණ්ඩායමකට	-11.3486
▁වරදකරුවන්	-11.3486
▁එයයි	-11.3487
▁හුඟක්	-11.3487
▁මුහුණදෙන	-11.3491
▁ගෙන්වීමට	-11.3491
▁ඊජිප්තුවේ	-11.3494
▁දුෂණය	-11.3495
▁සේවකයා	-11.3496
▁දීපු	-11.3496
▁එන්නතේ	-11.3496
▁බීමත්	-11.3499
ටිය	-11.3499
▁යුක්ති	-11.35
තැ	-11.3501
▁ටෙලිනාට්‍ය	-11.3503
▁විමර්ශනයට	-11.3504
▁ඉක්මවන	-11.3506
▁පර්ල්	-11.3507
▁පැවැත්වෙනු	-11.3507
පෙර	-11.3508
▁ගිණුමට	-11.3509
▁වැළඳී	-11.351
▁අරඹන	-11.3511
▁මව්වරුන්	-11.3511
▁ජෝසප්	-11.3512
▁ලක්වු	-11.3513
▁කාමරයක්	-11.3514
▁තත්වයන්	-11.3515
▁22,	-11.3517
▁සන්ධානයක්	-11.3519
▁විමසීම්	-11.352
▁අඩවියට	-11.3521
▁භානුක	-11.3522
▁රජුට	-11.3522
ංගු	-11.3528
▁වඳ	-11.353
▁නෙමේ	-11.3534
▁රනිල්ට	-11.3535
කාරයා	-11.3536
▁ඉංගිරිය	-11.3536
▁ජෙනරල්	-11.3536
▁ගිලිහී	-11.3536
▁ශබ්දය	-11.3537
ජෝ	-11.3542
▁දෙකෙහි	-11.3543
▁ක්‍රීඩකයන්ට	-11.3543
කාරයන්	-11.3543
▁නෑනේ	-11.3544
▁ඉල්ලූ	-11.3549
▁පාකිස්ථානයේ	-11.3551
▁කුසලානයේ	-11.3552
▁සාමාජිකයන්ට	-11.3552
▁මහමැතිවරණය	-11.3555
▁උචිත	-11.3556
▁ප‍්‍රබල	-11.3557
▁නොවීමට	-11.3557
මහින්ද	-11.356
▁පත්කරනු	-11.356
▁නිලන්ත	-11.3561
▁නංගි	-11.3561
▁දෙන්නම්	-11.3566
▁වඩු	-11.3568
සස්	-11.3568
රාජ්‍යතාන්ත්‍රික	-11.3568
▁කටයුතුවලදී	-11.3569
▁තීක්ෂණ	-11.3569
▁සෙනෙහස	-11.357
▁බලධාරීන්ගෙන්	-11.3571
ෆෝ	-11.3575
අදාළ	-11.3578
▁(18	-11.3582
▁පදවි	-11.3584
▁චානක	-11.3585
▁ළදරු	-11.3585
▁අඩක්	-11.3586
හූ	-11.3587
▁නියමුවා	-11.3587
▁උපත්	-11.3588
▁අන්දම	-11.3591
▁මෙනවිය	-11.3593
▁වේද	-11.3595
ිදු	-11.3596
වත්තේ	-11.3599
▁උරුමයේ	-11.3601
▁ප‍්‍රනාන්දු	-11.3603
▁වාර්තාවෙන්	-11.3612
▁දැමු	-11.3613
▁ප්‍රතිචාරය	-11.3614
▁ඩේ	-11.3617
▁නළුවා	-11.3618
▁රෝයල්	-11.362
▁හේන්	-11.3621
▁කැරලිකරුවන්	-11.3624
ින්ම	-11.3624
▁ගතහොත්	-11.3625
ටො	-11.3627
▁සම්භවයක්	-11.3628
▁විදේශගතව	-11.3629
▁තරහ	-11.3631
▁ගම්වල	-11.3631
▁ආච්චි	-11.3632
▁පැටවා	-11.3632
▁මිනි	-11.3634
▁ශිලා	-11.3635
▁අයයි	-11.3635
▁මාරසිංහ	-11.3637
වහන්සේ	-11.3637
▁සංස්කෘතියක්	-11.3638
▁බෝධිය	-11.3639
▁සියලු‍	-11.364
වැන්න	-11.3642
▁සභානායක	-11.3644
▁තුමා	-11.3644
වාගෙන	-11.3645
▁සමසමාජ	-11.3646
▁උපාධියක්	-11.3647
▁සෙනෙට්	-11.3651
▁කිව්වෙ	-11.3655
හත්	-11.3656
කුරු	-11.3656
ම්ස්	-11.3657
▁පසුපසින්	-11.366
▁රාත්‍රියේදී	-11.366
▁පොල	-11.3663
▁පත්‍රිකාවක්	-11.3664
▁උඩට	-11.3669
එක්	-11.3669
▁සඳහාත්	-11.3671
▁ජයවික්‍රම	-11.3671
▁ගැනෙන	-11.3675
▁විසිරී	-11.3676
ුවන්	-11.3677
‍යේ	-11.3677
ලෙස	-11.3678
▁විදුර	-11.368
▁අධිරාජ්‍යය	-11.3681
▁ස්ටාර්	-11.3687
▁කොම්ප	-11.3688
▁හඹාගිය	-11.369
▁ගියද	-11.369
▁මරණයක්	-11.3694
වන්ගේ	-11.3695
▁අනතුරුවලින්	-11.3696
▁කැමරාව	-11.3702
▁හිට්ලර්	-11.3702
ඩුව	-11.3703
ුමක්	-11.3703
තීන්	-11.3703
▁නේටෝ	-11.3704
▁හුවා	-11.3709
▁අධ්‍යක්ෂවරුන්	-11.3709
▁හිමිනම	-11.3712
▁විසදුමක්	-11.3712
▁භූමියක්	-11.3712
▁වංශ	-11.3714
▁ලබාදෙන්නේ	-11.3718
ෆී	-11.3726
▁කර්මාන්තකරුවන්	-11.3727
▁පෙරටුගාමී	-11.3728
▁කරගනු	-11.3728
▁විභාගයෙන්	-11.3729
▁විනාශයක්	-11.3729
▁1948	-11.3729
▁ඒකේ	-11.3731
▁වාර්ගික	-11.3732
▁ශාස්ත්‍රීය	-11.3734
▁තාමත්	-11.3734
▁නැහැනේ	-11.3735
▁භා	-11.3737
▁සූක්ෂම	-11.3742
▁සිරිල්	-11.3742
බිමල්	-11.3743
▁අයදුම්කරුවන්	-11.3745
▁එකඟතාවකට	-11.3751
ලුව	-11.3756
▁ස්ට	-11.3758
▁එතුමන්	-11.3761
▁කුමාරයා	-11.3766
▁ජාලා	-11.3769
▁සමිතිය	-11.3771
▁කී‍්‍රඩා	-11.3771
▁එතැනදී	-11.3776
▁කැනේඩියානු	-11.3776
▁පත්වෙනවා	-11.3777
▁නොබෙල්	-11.3777
▁ජානක	-11.3778
▁පිටපත	-11.378
▁පොරොන්දුවක්	-11.3781
▁පැට	-11.3784
▁වෙළෙඳසල්	-11.3785
▁බිමේ	-11.3789
ලක්ෂ	-11.3793
▁කලේය	-11.3794
▁අභිබවා	-11.3795
▁පිළියෙල	-11.3795
▁කරදරයක්	-11.3796
▁සටනේ	-11.3797
ප්පා	-11.3799
▁විශ්වවිද්‍යාලවල	-11.3802
▁අඬ	-11.3803
▁බැඳුණු	-11.3803
▁තැබෙන	-11.3806
▁හවස	-11.3806
▁ගාන	-11.3807
▁ලබාදුන්නේ	-11.3809
▁චැනල්	-11.381
▁වේලක්	-11.3812
▁ගුරුවරුන්ට	-11.3814
තට	-11.3815
▁ලියකියවිලි	-11.3815
▁නේපාලයේ	-11.3815
ක්කා	-11.3816
ඡ	-11.3817
▁අමතමිනි	-11.3825
▁මැලේසියාවේ	-11.3825
▁අයර්ලන්ත	-11.3825
▁මමයි	-11.3825
▁නාඩු	-11.3826
▁හේවා	-11.3828
▁නීතිරීති	-11.3828
▁විගස	-11.3828
▁චෛත්‍ය	-11.3829
කුලම	-11.3833
▁නයිට්	-11.3833
▁කිතුල්	-11.3835
▁භෝජන	-11.3836
▁විගණකාධිපති	-11.3837
▁වෙඩික්කරු	-11.3837
▁මහනායක	-11.3838
▁පත්වූහ	-11.3842
▁පවත්වන්න	-11.3843
▁අග‍්‍රාමාත්‍ය	-11.3844
▁සංකූලතා	-11.3844
▁ප්‍රමුඛතාව	-11.3844
▁ලබාගත්තේ	-11.3847
▁දෙන්නෙ	-11.3847
▁මිත්‍රත්වය	-11.3848
▁වනඅලි	-11.3849
▁දෙතුන්	-11.385
▁දැල	-11.3851
ජුව	-11.3851
▁මෙගා	-11.3851
▁වැද	-11.3854
▁කොතෙක්	-11.3855
▁උත්	-11.3855
▁උමා	-11.3855
▁පිහිටු	-11.3855
▁කේන්ද්‍රස්ථානය	-11.3856
▁ක්ෂේත්‍රවල	-11.3856
▁පිර	-11.3856
▁විශේෂඥයින්	-11.3859
▁ශානි	-11.386
▁යුරෝ	-11.386
▁රූපය	-11.386
▁ගොඩබිම	-11.3861
බඩ	-11.3865
▁ඒකයි	-11.3869
ොහො	-11.3869
▁සාලිය	-11.387
▁ධාතූන්	-11.3873
▁මධු	-11.3874
▁අමාත්‍යංශයට	-11.3874
▁සුනඛ	-11.3874
හල්	-11.3878
▁කොමර්ෂල්	-11.3878
▁පාවහන්	-11.3878
▁දෙගුණ	-11.3878
▁ඇතා	-11.3879
▁කුරුවිට	-11.3879
▁පැලඳ	-11.3879
▁කාර්යාලවල	-11.3879
▁වියට්නාමය	-11.388
▁කුලුන	-11.3882
▁පොලු	-11.3883
▁කණ්ඩායම්වලට	-11.3883
▁ලෑස්ති	-11.3883
▁රාවණා	-11.3885
▁පෙළපාලිය	-11.3886
▁චන්ද	-11.3887
▁ෆිනෑන්ස්	-11.3888
▁සාකච්ජා	-11.3891
▁ටු	-11.3891
▁බ්‍රිගේඩියර්	-11.3893
▁තිලංග	-11.3893
ග්‍රහ	-11.3893
▁වෙදකම	-11.3895
▁දෙයක්ම	-11.3897
▁සමරන	-11.3899
▁ක්‍රියාන්විතය	-11.39
දම්	-11.3902
▁කරගත්තා	-11.3902
▁ෆ්‍රැන්සිස්	-11.3902
▁නොසන්සුන්	-11.3902
▁දැමුණු	-11.3903
▁චින්තනය	-11.3905
▁ඇඳිරිනීතිය	-11.3908
▁බෙල්	-11.3909
▁මහාධිකරණයේ	-11.391
▁සුප්‍රකට	-11.3913
▁හේමසිරි	-11.3913
▁හර්	-11.3914
▁ෆෝන්	-11.3915
▁වෙන්නට	-11.3917
▁වාට්ටුව	-11.3918
▁තුනට	-11.3919
▁රැසකින්	-11.3924
නොදැවී	-11.3929
▁ගුප්ත	-11.393
▁අයථා	-11.3931
▁වීඩියෝවක්	-11.3932
නාදන්	-11.3934
ඩ්ස්	-11.3935
▁අඳුර	-11.3936
▁නාද	-11.3936
යී	-11.3936
▁කිරිබත්ගොඩ	-11.3938
▁බලවේගයට	-11.3938
▁හුදු	-11.394
▁නිති	-11.3941
්ය	-11.3941
▁තලතා	-11.3942
▁දුර්වලතා	-11.3946
▁සැපයීමේ	-11.3947
▁පුරාවිද්‍යාත්මක	-11.3949
▁පාඨය	-11.3951
▁9.00	-11.3952
▁පැවසීම	-11.3953
▁සඟ	-11.3954
▁ලග්නය	-11.3954
▁නිවෙස්වලට	-11.3955
▁කලාවේ	-11.3957
▁වතාවත්	-11.3957
▁ආඩම්බර	-11.3958
▁පත්වන්නේ	-11.396
▁ගොවීහු	-11.3962
▁කූට	-11.3965
ාර්	-11.3967
▁ආකාරයකට	-11.3967
▁තො	-11.3967
▁අනිසි	-11.3968
▁සේවකයකු	-11.3969
▁දියතලාව	-11.3969
▁රැස්කරගෙන	-11.3971
▁අනන්‍යතාවය	-11.3972
▁ලයි	-11.3972
▁බුලත්සිංහල	-11.3972
▁රකින්න	-11.3972
▁විහාරයට	-11.3973
ඟු	-11.3974
▁වේල්ල	-11.3974
▁හංස	-11.3976
▁සාකච්ඡාවෙන්	-11.3977
▁සම්මානයෙන්	-11.398
▁පුස්තකාල	-11.398
▁රාජපක්ෂලා	-11.398
▁දෘෂ්ටි	-11.3982
▁ආසාදිතයෙකු	-11.3984
▁‍ෙදාර	-11.3987
▁පිටස්තර	-11.3987
ත්තර	-11.3989
▁පිළිවෙළින්	-11.399
▁පාරිභෝගිකයින්	-11.3993
▁මයි	-11.3994
▁චමීර	-11.3997
▁තනියම	-11.3998
▁මදු	-11.4002
▁තදින්ම	-11.4002
▁නියාමක	-11.4003
්ඩ	-11.4004
▁10.30	-11.4007
▁ලංකාදීපයට	-11.4009
▁නමට	-11.4009
▁ටැංකිය	-11.401
▁රත්තරන්	-11.4012
▁කයි	-11.4013
▁මෝසම්	-11.4014
▁පෝර	-11.4015
▁සුවිශේෂි	-11.4016
▁සිදුකළා	-11.4016
▁පහරදීමෙන්	-11.4017
▁නිෂ්පාදකයන්	-11.4017
▁වැන්	-11.4018
▁නාහිමි	-11.4024
▁පළවෙනි	-11.4024
▁හඬක්	-11.4024
▁වාතය	-11.4028
▁අවකාශ	-11.4029
▁ශ්‍රේණි	-11.4029
▁පැනලා	-11.403
▁හිඳ	-11.403
▁කකුල	-11.4031
▁ගිම්හාන	-11.4032
▁පැත්තකට	-11.4032
▁මූලස්ථානයේදී	-11.4034
▁ආරක්ෂිතව	-11.4035
▁පුහුණුකරුවන්	-11.4036
▁සංග්‍රාමය	-11.4036
▁සිලින්ඩර	-11.4037
▁මකර	-11.4037
▁තාරක	-11.4038
▁ගාල්	-11.4042
▁සෙනඟ	-11.4042
ස්ගේ	-11.4042
▁සිනා	-11.4042
▁අගමැතිවරයාට	-11.4043
▁නිවහන	-11.4048
▁ඇතිවෙලා	-11.4048
▁මාධ්‍යවේදියෙකු	-11.4049
▁දේවිය	-11.4051
▁ආස	-11.4052
▁නෙවිල්	-11.4052
▁අඹු	-11.4054
▁රාශිය	-11.4056
▁අලගියවන්න	-11.4057
▁ආරවුල	-11.4058
ිමින්	-11.4058
දර්	-11.4059
▁අහිමිව	-11.4059
▁නවත්වා	-11.4059
▁කාලසටහන	-11.406
▁ගැබිනි	-11.4062
▁භාරදීම	-11.4062
▁විත්තිකරුවන්ට	-11.4063
▁සබරගමු	-11.4065
▁ආධුනික	-11.4067
▁තීව්‍ර	-11.4067
▁නැගෙන	-11.4068
▁වේදිකාවට	-11.4069
▁වෙන්දේසිය	-11.4072
▁පසුදා	-11.4074
▁දර්ශක	-11.4075
තනය	-11.4075
▁වර්තමානයේදී	-11.4077
▁නිරිතදිග	-11.4077
ුස්	-11.4077
▁ශ්‍රේෂ්ඨ	-11.4077
▁සරණාගත	-11.4078
▁තහනමට	-11.4079
▁දුරස්ථ	-11.4079
▁මාසේ	-11.408
▁ඕනි	-11.4083
▁සිතුවිලි	-11.4087
▁101	-11.4089
▁විනා	-11.409
▁පණිවිඩ	-11.4091
▁නේපාල	-11.4091
▁ගොඩට	-11.4092
සුර	-11.4092
▁ජනප්‍රියත්වය	-11.4095
▁අනතුරුවය	-11.4097
▁ශරීරාගාරයේ	-11.4098
▁දෑස්	-11.4099
▁බංග්ලාදේශයට	-11.4102
▁දිනකම	-11.4103
▁1971	-11.4104
▁නොකියා	-11.411
▁මිලිමීටර	-11.411
▁පළල	-11.4111
▁තැනැත්තන්	-11.4112
▁සහයෝගිතාව	-11.4112
▁108	-11.4115
▁සාදන	-11.4118
▁යොදාගනිමින්	-11.412
▁අර්ථසාධක	-11.4127
▁විද්‍යාලයීය	-11.4128
▁පහරින්	-11.4128
ලාභීන්	-11.413
▁ඉසිපතන	-11.4132
▁සිතට	-11.4132
▁ගියාට	-11.4133
▁කෑලි	-11.4136
▁තේමා	-11.4137
▁මොළය	-11.4137
▁ජනවරම	-11.4137
▁4000	-11.4138
▁බඩඉරිඟු	-11.4142
▁බිස්කට්	-11.4142
▁ආරියදාස	-11.4142
▁බලන්නට	-11.4142
▁වාසනාවන්ත	-11.4144
ෙකුට	-11.4145
▁ඇරඹි	-11.4146
▁පව්	-11.4148
▁විඳි	-11.4149
▁කළාම	-11.4151
ලංකා	-11.4151
▁දණ	-11.4151
▁මාංශ	-11.4152
▁සර	-11.4153
▁ලැයිස්තුවට	-11.4154
▁සැළ	-11.4154
▁පිරිනැමීමට	-11.4156
▁පවත්වනවා	-11.4156
ජර්	-11.4158
▁රනිල්ගේ	-11.4162
▁අමාත්‍යවරයෙකු	-11.4164
බණ්ඩාර	-11.4167
▁නියෝජිතයෝ	-11.4167
▁වැලිසර	-11.417
▁ජෙට්	-11.4173
▁පැදියක්	-11.4174
▁සූදානම්ව	-11.4178
▁ලහිරු	-11.4178
▁වැඩසටහනකට	-11.4178
▁පේන	-11.418
▁ඩෝ	-11.4182
▁දැනගත	-11.4182
▁ගිනිගත්හේන	-11.4182
▁ඉහළින්ම	-11.4183
▁ඊසාන	-11.4183
ඔවුන්	-11.4186
▁හෙළිකර	-11.4188
▁තාක්‍ෂණය	-11.419
▁සමහරක්	-11.4192
කමට	-11.4193
▁ලාබ	-11.4194
▁ක්‍රියාන්විත	-11.4196
▁දිස්ත‍්‍රික්	-11.4197
වරැන්	-11.4197
▁සංකල්පයක්	-11.4198
▁හිතට	-11.42
▁වැන්නේ	-11.4202
▁සුරක්ෂිතතාව	-11.4202
▁බොන	-11.4203
▁විපත්	-11.4207
විල්ල	-11.4208
වෙනු	-11.421
▁මදුරුවන්	-11.4213
▁ග්‍රෑන්ඩ්පාස්	-11.4213
▁මියයයි	-11.4213
එමෙන්ම	-11.4216
තන්	-11.4219
කුට	-11.4219
▁ගෑ	-11.4219
දීන්	-11.422
▁ගම්මානවල	-11.4223
▁ශාකය	-11.4223
▁1997	-11.4223
▁වරින්වර	-11.4224
▁සම්මානයට	-11.4227
ම්බර	-11.4228
▁හන්දියේ	-11.4229
▁අන්ධ	-11.423
▁වන්නේද	-11.423
▁පළමුවෙන්ම	-11.4232
▁නොකොට	-11.4232
ාගම	-11.4234
▁විෂයයන්	-11.4234
▁පරිගණකය	-11.4235
▁පුදා	-11.4238
▁කණ්ඩායම්වල	-11.4239
▁යමු	-11.4239
▁ඇත්තෙන්ම	-11.424
▁තලවකැලේ	-11.4243
▁ආසියාතික	-11.4243
▁දිළිඳු	-11.4248
▁ලයිට්	-11.4248
ගාමි	-11.4252
▁කිව්වට	-11.4252
▁හරිමින්	-11.4253
▁පිහිනුම්	-11.4253
▁වෙළෙඳසල	-11.4253
▁බීජිං	-11.4254
▁අවුල	-11.4256
▁සම්බන්ධතාවයක්	-11.4257
▁සපයනු	-11.4257
▁සිටිමු	-11.4258
▁හොයලා	-11.4261
▁සන්නාම	-11.4261
▁පුතාට	-11.4262
▁වීදියේ	-11.4263
▁මතකයි	-11.4264
▁රත්වත්තේ	-11.4265
▁ගෙන්න	-11.4266
▁නියඟය	-11.4269
▁පිරිමින්	-11.4271
▁සැමියාගේ	-11.4272
▁හිතුවා	-11.4272
▁පරීක්ෂාව	-11.4273
▁සංගමයෙන්	-11.4273
▁තැබීමක්	-11.4274
▁ජීවි	-11.4275
▁වටපිටාව	-11.4276
ඉන්දිකා	-11.4278
▁ඔරොත්තු	-11.4279
▁මත්පෙති	-11.4279
▁පත්වීමේ	-11.4279
▁ශාන්ති	-11.428
▁නැවැත්වීමට	-11.428
▁හෙදියන්	-11.428
▁ගමනින්	-11.4281
▁4.00	-11.4282
▁හිංසා	-11.4284
ඳා	-11.4287
රයේ	-11.4288
▁ගතිය	-11.4289
▁හුසේන්	-11.4289
▁රැජිණ	-11.4289
▁ගිනිඅවි	-11.4291
▁දම්	-11.4291
▁කොමිසමක්	-11.4292
▁සැකකරුවෙක්	-11.4293
▁පරීක්ෂණයට	-11.4294
▁නල්ලතන්නිය	-11.4294
▁රඟපෑම	-11.4295
▁නිල්වලා	-11.4295
▁ගෝලය	-11.4299
▁තනතුරෙන්	-11.4301
▁සේවාවේ	-11.4301
▁කුලරත්න	-11.4302
▁5.00	-11.4304
▁දොළොස්	-11.4304
▁යවමින්	-11.4305
ිච්ච	-11.4305
▁ප‍්‍රතිපත්ති	-11.4306
▁රිචඩ්	-11.4307
▁වාරයේ	-11.4309
▁පිටවීම	-11.4312
▁අගතියට	-11.4315
ළිය	-11.4316
▁තිබෙනු	-11.4318
▁දකුණට	-11.4318
▁සුදා	-11.4319
▁අනපේක්ෂිත	-11.432
▁රේඩියෝ	-11.432
▁විමසුම	-11.432
▁ඇසින්	-11.4324
ලාට	-11.4325
▁පළවන	-11.4325
▁සුජිත්	-11.4326
▁කොල්ලය	-11.4327
▁අවුරුද්දට	-11.4331
▁යැවීමක	-11.4331
මිත	-11.4334
කාලය	-11.4335
▁නිලධාරිවරයා	-11.4335
▁ද්වි	-11.4335
▁පෝෂක	-11.4337
▁(3	-11.4339
▁ප්‍රජාතන්ත්‍ර	-11.434
▁මූලිකත්වය	-11.4344
▁අසිත	-11.4344
▁ලකුණක්	-11.4347
▁පෝල්	-11.4348
නික	-11.435
▁යෙද	-11.435
▁තමිල්නාඩුවේ	-11.4351
▁ඉස්	-11.4352
▁ඇගයීම	-11.4353
පස්	-11.4353
▁තෝර	-11.4356
▁අවදානමට	-11.4357
▁විස්සක්	-11.4357
▁ලබන්න	-11.4358
ලම්	-11.4359
▁ස්වභාවයක්	-11.4359
▁ඇරඹෙයි	-11.4361
▁වාසිදායක	-11.4361
▁මඬුල්ල	-11.4366
▁450	-11.4366
▁සැරිසරන	-11.4366
ොස්	-11.4368
▁හඩ	-11.4368
▁දරයි	-11.4371
▁අනාගතයක්	-11.4371
▁කැඳවමින්	-11.4372
▁හිතුවේ	-11.4372
▁ඇසි	-11.4372
▁පිළිවෙත්	-11.4373
▁900	-11.4374
▁ජන්ද	-11.4376
▁පන්ජාබ්	-11.4376
▁වීරක්කොඩි	-11.4376
▁ලිබරල්	-11.4378
වස	-11.438
▁භාණ්ඩවල	-11.4381
▁1991	-11.4382
▁හෙක්ටයාර	-11.4385
▁බසය	-11.4385
මිල	-11.4385
▁24,	-11.4386
▁මෝස්තර	-11.4387
▁ප්‍රො	-11.4389
▁ශාස්ත්‍රය	-11.439
▁අනිවාර්යෙන්ම	-11.4391
▁කම්පනයක්	-11.4391
▁කියවීමේ	-11.4392
නුව	-11.4393
▁ව්‍යවස්ථාවෙන්	-11.4394
▁විශාරද	-11.4397
▁103	-11.4397
▁මෑතක	-11.4398
▁වර්ධනයට	-11.4398
▁වර්ජනයක	-11.4399
▁පාර්ශ්වයන්	-11.44
▁ඇරඹෙන	-11.4401
▁භේදයකින්	-11.4402
▁ඇතැම්විට	-11.4402
▁ආධ්‍යාත්මික	-11.4402
▁පුස්තකාලය	-11.4404
▁නිවාඩ්	-11.4405
▁සුසන්ත	-11.4407
▁හැරි	-11.4407
පොලිස්	-11.4408
▁ක්‍ර	-11.4408
▁ජයසුමන	-11.4412
▁සරලව	-11.4412
▁අහසේ	-11.4413
▁මොළයේ	-11.4413
▁බොරුවක්	-11.4414
▁විජිත්	-11.4414
▁වහල්	-11.4416
▁අභියෝගාත්මක	-11.4416
▁හමා	-11.4416
▁වාස්තු	-11.4417
▁ආවත්	-11.4417
▁26,	-11.4419
▁1993	-11.4419
▁කාගේත්	-11.442
▁විර	-11.4421
▁ඩඩ්ලි	-11.4423
▁සිතු	-11.4424
▁සිද්ධියකට	-11.4425
▁ජලාශයට	-11.4427
▁නොරොච්චෝලේ	-11.4429
▁වාහනයේ	-11.443
▁බූ	-11.443
.05	-11.4433
▁පිලිපීන	-11.4433
▁කිසිවෙකුත්	-11.4434
ද්ධ	-11.4435
▁යක්ෂ	-11.4437
▁වදන	-11.4437
▁විදහා	-11.4439
▁මුළුල්ලේ	-11.444
▁සත්කාරකත්වය	-11.4441
නම	-11.4445
ජුවම	-11.4448
▁තොණ්ඩමන්	-11.4449
▁දුෂ්මන්ත	-11.4449
▁පෞරාණික	-11.4449
▁සූදු	-11.4455
▁122	-11.4457
▁පැවරෙන	-11.4458
▁තැඹිලි	-11.4459
▁මහජනතාවගෙන්	-11.4464
▁වගබලා	-11.4465
▁හැඳින්වූ	-11.4465
▁පොම්ප	-11.4465
▁ජැක්සන්	-11.4465
▁සාලි	-11.4466
▁සම්පාදක	-11.4468
▁ගැනීමටද	-11.4469
▁කැන්	-11.447
▁කලු	-11.4471
ත්මක	-11.4474
▁නෙදර්ලන්ත	-11.4475
▁නන්දන	-11.4476
▁ගෙනාවේ	-11.4476
ක්‍රි	-11.4476
▁එතුමිය	-11.4478
▁උලෙළ	-11.4479
▁වෙළඳපොල	-11.448
▁සනීපාරක්ෂක	-11.448
රැව	-11.4484
▁ලංකාදීප	-11.4484
▁යෙදීමට	-11.4485
▁අසුබ	-11.4489
▁ගෙවූ	-11.4497
නූ	-11.4498
▁ඉස්කෝලේ	-11.4503
තක්	-11.4503
්ර	-11.4503
▁ස්තුතිය	-11.4504
▁ෆීල්ඩ්	-11.4506
▁පාලකයින්	-11.4508
▁යානයකින්	-11.451
ඥා	-11.451
▁අධ්‍යාපනයක්	-11.4513
▁සැබවින්ම	-11.4516
▁හපුතලේ	-11.4516
▁හැඳි	-11.4518
▁සිදුකොට	-11.452
▁දිනාගෙන	-11.4521
▁ජමාත්	-11.4522
▁කේක්	-11.4522
▁වැඩිවන	-11.4523
▁වැන	-11.453
▁වලව්ව	-11.453
▁අධිකාරීවරයා	-11.4537
▁දැක්වුණේ	-11.4538
▁සොහොයුරිය	-11.454
බදු	-11.4545
ශී	-11.4545
යුතු	-11.4549
▁හඳුන්වාදීමට	-11.4549
▁පිලිපීනය	-11.455
▁දරන්නේ	-11.455
ජනාධිපති	-11.4552
▁සිහින්	-11.4553
▁ගැබ	-11.4553
▁ගුවන්විදුලි	-11.4553
▁7.30	-11.4554
▁පරිමාණයෙන්	-11.4557
▁සංඝනායක	-11.456
▁නගන	-11.4564
▁කොමිසමෙන්	-11.4565
▁භටයින්	-11.4565
▁එක්ස්ප්‍රස්	-11.4569
▁උගන්වන	-11.457
විස්	-11.457
▁පිළිගනු	-11.457
▁මාස්ටර්	-11.4572
▁ආර්යා	-11.4572
▁හේතුවයි	-11.4572
▁මහියංගනය	-11.4572
කුලම්	-11.4574
▁විහාරස්ථානයට	-11.4576
ජ්ජ	-11.4576
ොල්	-11.4576
▁වුවමනාව	-11.458
▁තිබ්බේ	-11.4581
▁බුත්තල	-11.4585
කාන්ත	-11.4586
▁ලීසිං	-11.4587
▁අත්හිටුවයි	-11.459
▁ගෞරවනීය	-11.459
▁ගත්තද	-11.4592
ඬේ	-11.4593
▁බූස්ස	-11.4596
▁බීමතින්	-11.4596
▁ආදර්ශයක්	-11.4596
▁වර්ජනයට	-11.4597
▁වූහාන්	-11.4597
▁ස්මාර්ට්	-11.46
▁104	-11.4601
▁පෙරළ	-11.4601
▁කඩුල්ලේ	-11.4602
▁මියයාම	-11.4603
▁වරෙක	-11.4606
▁තිදරු	-11.4607
▁සොයමින්	-11.4607
පන්දු	-11.4608
▁වියදමින්	-11.4609
▁පැවැසුවාය	-11.4609
▁ගෙදරින්	-11.461
▁වාචික	-11.461
▁කොන්ක්‍රීට්	-11.4611
▁ප්‍රභාකරන්	-11.4613
▁නවාස්	-11.4613
▁දෙපිරිසක්	-11.4613
▁සංග්‍රහයේ	-11.4614
▁28,	-11.4616
▁මැදිරිගිරිය	-11.4616
▁රොක්	-11.4617
▁ඇදීම	-11.4618
▁නරඹන්න	-11.4619
▁කම්බි	-11.4619
▁වැඩියෙන්ම	-11.462
▁සලකනු	-11.4621
ංචි	-11.4622
▁දැරියක	-11.4623
▁රොකට්	-11.4625
▁පෙන්වූ	-11.4625
▁සොරාගත්	-11.4626
▁බලගතු	-11.4627
▁අනිකුත්	-11.4628
▁පාරිභෝගිකයාට	-11.4628
▁නිපදවීම	-11.4629
▁කරද්දි	-11.463
▁වින්	-11.4632
▁සොඳුරු	-11.4633
ංගා	-11.4635
▁27,	-11.4636
▁පසුබිම්	-11.4638
පක්ෂ	-11.4639
▁ජනයාට	-11.4641
▁ග්‍ර	-11.4642
▁අතැතිව	-11.4643
▁පැහැය	-11.4644
▁සමත්වී	-11.4647
▁ඊජිප්තුව	-11.4647
▁නිදන්	-11.4654
ුවොත්	-11.4654
▁නිමවා	-11.4657
▁පුන්	-11.4657
▁පවිත්‍ර	-11.4658
විද	-11.466
▁පිරිපහදු	-11.466
ණේ	-11.4661
▁අඳින	-11.4661
▁ද්‍රව	-11.4662
▁ඉරාක	-11.4664
නීය	-11.4667
වාය	-11.4667
▁ඇමතූ	-11.4669
ඹි	-11.4672
▁තරගවලදී	-11.4673
▁ගැහුවා	-11.4675
ෆර්	-11.4676
▁ඔට්ටු	-11.4676
▁සුරා	-11.4678
▁වෙන්නත්	-11.468
▁නිදහසට	-11.468
▁අමාරුවෙන්	-11.4681
▁සිනමාවට	-11.4683
▁කැඳවයි	-11.4686
▁නිසාද	-11.4687
▁කොල්ලකා	-11.4691
▁හිමිවනු	-11.4692
▁තොගයේ	-11.4693
▁ඇසුරෙන්	-11.4694
▁මූලධර්ම	-11.4698
▁හැඟ	-11.4701
▁අශ්ව	-11.4702
▁වැටුණ	-11.4702
▁සීමාවක්	-11.4707
▁පාකිස්තානයට	-11.471
▁තී	-11.4711
▁මාසයක	-11.4714
▁ධූරයේ	-11.4716
▁අයටත්	-11.4716
▁අත්හිටුවීම	-11.4717
▁චක්‍රය	-11.4717
▁නොකඩවා	-11.4717
▁වරම	-11.4719
▁මහබැංකුව	-11.4719
▁20,	-11.4719
▁ක්‍රමානුකූලව	-11.472
▁තුළත්	-11.472
▁ණයක්	-11.4721
▁අළෙවි	-11.4722
▁මොරගහකන්ද	-11.4722
▁සෙයින්	-11.4724
▁පොළොවේ	-11.4725
▁ගජ	-11.4725
▁පැදිය	-11.4727
▁එගොඩ	-11.4728
▁කූඩුව	-11.4729
▁දැන්වීම	-11.473
▁ෆැ	-11.4733
ිණ	-11.4734
▁අත්ත	-11.4735
▁අහලා	-11.4736
▁මෙදින	-11.4736
▁ජනනය	-11.4739
▁අගමැතිනිය	-11.4739
▁වෙළඳසැල	-11.4741
▁ආරවුල්	-11.4741
▁පාසලෙන්	-11.4742
▁බැහැලා	-11.4743
▁බලාගන්න	-11.4743
▁කෙසේදැයි	-11.4745
▁පිවිසුම්	-11.4747
▁මතයයි	-11.4749
▁සිතාසි	-11.4753
▁මායා	-11.4755
▁රහ	-11.4758
▁ප්‍රවණතාවක්	-11.4761
▁පිළිබඳවයි	-11.4762
▁ක්‍ෂේත්‍රයේ	-11.4764
▁සැලකිල්ලක්	-11.4765
▁මීතොටමුල්ල	-11.4765
▁ආයතනයකට	-11.4765
▁ගොවීන්ගේ	-11.4766
▁අනුනායක	-11.4768
▁ඡායා	-11.4769
▁බැංගලෝර්	-11.4771
සුන්දර	-11.4771
▁දහනායක	-11.4772
▁සිව	-11.4772
රයක්	-11.4773
▁ගියාය	-11.4773
▁තත්	-11.4774
▁මන්ත්‍රීවරයෙක්	-11.4774
සුන්	-11.4777
▁1950	-11.4784
▁නර	-11.4788
▁දේශපාලනයෙන්	-11.4789
▁බැල්මට	-11.4792
▁ප්‍රවේශපත්‍ර	-11.4792
▁හිතාගෙන	-11.4795
▁යුතුමය	-11.4797
▁ක්‍රියාවලියේ	-11.4799
▁කෙල්ල	-11.48
කොටුව	-11.4801
▁ගනිති	-11.4802
▁හඳුන්නෙත්ති	-11.4803
▁බීඩි	-11.4804
▁පුද්ගලයකුගේ	-11.4804
▁බීමත්ව	-11.4805
▁අසන	-11.4806
▁පහරකෑමට	-11.4806
▁ගැනීමය	-11.4808
▁දවසට	-11.4812
▁පුරෝගාමී	-11.4814
▁මත්තෙන්	-11.4814
▁රියදුරුට	-11.4816
▁පිංකම	-11.4818
ර්ට්	-11.4818
▁මට්ටමෙන්	-11.4818
▁ගැසීමට	-11.4821
▁බවුසර්	-11.4822
▁25,	-11.4823
▁1982	-11.4825
▁සංවර්ධනයක්	-11.4827
▁අන්තවාදය	-11.4828
රම	-11.4831
▁සිටුවීම	-11.4831
▁ගැටීම	-11.4831
▁කුණාටු	-11.4833
▁සෙබළා	-11.4834
▁පටහැනිව	-11.4836
▁වික්‍රමනායක	-11.4836
▁දෝ	-11.4838
▁සාකච්ජාව	-11.4838
▁බැසීම	-11.4839
▁පරණවිතාන	-11.4841
▁මුණගැසී	-11.4841
▁ලැබීමත්	-11.4843
▁පරිසරයේ	-11.4843
▁වෙළඳුන්	-11.4844
▁හොයාගන්න	-11.4844
▁අස්කර	-11.4845
▁භාරගැනීම	-11.4846
ග්‍ර	-11.4849
▁වසංගතයෙන්	-11.485
▁පාලනයේ	-11.4852
▁සියල්ලන්	-11.4853
▁සාමාජිකයෙක්	-11.4853
▁කොහොමත්	-11.4854
මිණි	-11.4855
▁ලැප්ටොප්	-11.4857
▁ලිපිගොනු	-11.4857
▁අලියෙකු	-11.4857
▁සමාගමෙන්	-11.4857
▁නායිකාව	-11.486
▁පොලිතින්	-11.4863
▁ජිවිත	-11.4863
▁සම්ප්‍රදායික	-11.4863
▁පිළිවෙලින්	-11.4864
▁වාහනවල	-11.4865
▁සිරිත	-11.4866
▁ගොවිපොළ	-11.4866
▁ආකාරයෙන්ම	-11.4866
යිඩ්	-11.4868
▁පස්සර	-11.4869
▁ඉක්මනින්ම	-11.4873
▁හින්ද	-11.4874
▁පහළින්	-11.4874
▁සැකකරුගෙන්	-11.4875
▁බියට	-11.4877
▁මාලිගය	-11.4877
▁සිටියදි	-11.4879
▁බලකොටුව	-11.4879
කියා	-11.4879
▁බ්‍රසීල	-11.4879
▁එකා	-11.4881
▁තමුන්	-11.4883
▁ජනාකීර්ණ	-11.4884
▁මන්ත්‍ර	-11.4884
▁අර්ධය	-11.4885
▁සීඝ්‍රයෙන්	-11.4887
▁කුටි	-11.4888
▁පෙරාතුව	-11.4889
▁සොල්දාදුවන්	-11.4889
▁වසමට	-11.489
▁විශ	-11.4891
▁අවදානය	-11.4891
▁1972	-11.4891
▁නියමුවන්	-11.4893
▁ප්‍රශස්ත	-11.4894
▁පාඩමක්	-11.4894
▁පිරිසකි	-11.4894
▁දියුණුවට	-11.4895
▁සංග්‍රහ	-11.4897
▁විනිවිද	-11.4897
▁ආයතනවලින්	-11.4898
▁රෝපණය	-11.49
▁සැකකරුවන්ට	-11.49
▁පොළට	-11.4906
▁අවධිය	-11.4908
▁නොවුණු	-11.4908
▁නීල	-11.4909
▁බෞද්ධයන්	-11.4911
▁තර්ජනයට	-11.4911
▁12.00	-11.4912
▁ශක්තිමත්ව	-11.4912
▁යුවල	-11.4913
▁මාධ්‍යයේ	-11.4914
▁නර්තනය	-11.4914
▁පිටරටින්	-11.4917
▁1992	-11.4918
▁සෝම	-11.4918
▁සූරිය	-11.492
▁නිවෙසක්	-11.493
▁බඳුන	-11.4932
▁හැරිය	-11.4932
▁වෙනුවෙනි	-11.4933
▁යාන්ත්‍රණයක්	-11.4934
▁පියදාස	-11.4934
▁පිපිරීමෙන්	-11.4934
ත්‍ය	-11.4934
රුවන්	-11.4939
▁බිසව	-11.4939
▁අරක්කු	-11.4939
රාජ්‍ය	-11.4943
▁බන්ධනාගාරගතව	-11.4943
▁පරස්පර	-11.4943
▁උදුරා	-11.4943
ේගම	-11.4944
▁භූගත	-11.4945
▁නොසිතූ	-11.4948
▁ලබාගත්තා	-11.4949
▁වීමේදී	-11.4949
▁සැරයන්වරයා	-11.4949
▁පෝලිමේ	-11.495
▁සැමියාට	-11.4952
▁කුඩ	-11.4955
▁මෙහෙයුමට	-11.4955
▁හැරෙන්නට	-11.4955
▁ආකෘති	-11.4956
▁බාධාවකින්	-11.4956
▁ආරම්භයක්	-11.4959
▁සාක්ෂියක්	-11.4961
▁කර්මය	-11.4963
ලම	-11.4963
▁අධිකරණයක්	-11.4963
චන්ද්‍ර	-11.4963
ස්ටි	-11.4964
▁ආකාරයක්	-11.4964
▁මෙල්බර්න්	-11.4966
▁රෝගියකු	-11.4966
ට්‍රි	-11.4966
▁ප්‍රේෂණ	-11.4968
▁කීපයක	-11.4968
▁සම්ප්‍රේෂණය	-11.4968
▁නන්ද	-11.4969
▁පිතිහරඹයක	-11.4971
▁සමානුපාතික	-11.4971
▁ජනයාගේ	-11.4972
▁හඳුන්	-11.4972
▁2.5	-11.4975
▁සිටින්න	-11.4978
▁මහේන්ද්‍ර	-11.4979
▁ගොඩනැගිල්ලක	-11.4982
▁ශාලාවක්	-11.4982
ාවලිය	-11.4984
▁වෙල්	-11.4985
▁වැනිදාත්	-11.4986
▁සමගය	-11.4988
▁තිබුනා	-11.4989
▁පරාසය	-11.499
▁සාධනය	-11.499
▁මෝඩ	-11.499
▁ආරාධනය	-11.4991
▁එයද	-11.4992
▁වගවීම	-11.4992
▁ගෑනු	-11.4995
▁දෙරණට	-11.4997
▁රැකියාවට	-11.4997
▁තරමටම	-11.4998
ලොව	-11.4998
▁බිරිද	-11.4998
▁මුදලිගේ	-11.4999
▁පාලමක්	-11.5002
▁සුද්ද	-11.5002
▁දහයකට	-11.5003
▁පැවැසුවේය	-11.5004
▁පාර්ශ්වයෙන්	-11.5007
▁යුගල	-11.5009
▁මෙබඳු	-11.5009
ලමින්	-11.501
▁උරුමයක්	-11.5013
▁කාර්යක්ෂමතාව	-11.5017
▁බෑගය	-11.5019
▁දැක්ක	-11.5019
▁මිනිසකු	-11.502
▁ජපානයට	-11.5022
▁ක්‍ෂේත්‍රය	-11.5023
දූ	-11.5027
▁හිතවාදී	-11.5029
වැඩ	-11.5031
▁පිටවන	-11.5033
▁දැම්ම	-11.5033
▁පිළිසකර	-11.5037
▁සහජීවනය	-11.5037
▁හවුල්කාර	-11.5037
▁පරිපූර්ණ	-11.5037
▁කලට	-11.5037
▁පිළිවෙළ	-11.5037
▁වෙළෙඳසැල්	-11.5038
▁පසෙක	-11.5038
යියා	-11.5039
▁පන්සල්	-11.504
සෙල්	-11.504
▁දික්කසාද	-11.5041
▁සහෝදරියන්	-11.5042
ෂධයක්	-11.5043
▁පාස්	-11.5045
▁හැසිරුණු	-11.5045
▁තුවාලකරුවන්	-11.5046
▁හයිද්‍රාබාද්	-11.5048
පන්දුවාර	-11.505
▁ළමයෙක්	-11.5054
▁වර්ෂාවෙන්	-11.5054
▁වකවානුව	-11.5054
▁112	-11.5054
▁220	-11.5055
▁නෙරපා	-11.5055
▁ප්‍රීති	-11.5055
▁ගිලි	-11.5056
▁නිය	-11.5056
▁ප්‍රකාශකර	-11.5057
▁1995	-11.5059
▁දැක්වෙනවා	-11.5061
▁යන්නත්	-11.5063
ඬු	-11.5067
▁මන්දිරයට	-11.5067
න්සි	-11.5069
▁සහභාගීත්වය	-11.5072
▁කාලයකදී	-11.5073
▁රෝහලක්	-11.5074
▁ඉන්දියානුවන්	-11.5076
රංජන්	-11.5078
ලීමට	-11.5081
▁පුදුමයට	-11.5085
▁ඉතාමත්ම	-11.5086
▁සිටීමෙන්	-11.5086
▁ඉක්මනට	-11.5087
▁බලවතුන්	-11.509
යාමට	-11.509
▁ලැයිස්තුවෙන්	-11.5092
ලිංගම්	-11.5092
▁ආදරයෙන්	-11.5092
▁ඇරඹූ	-11.5092
කින්ම	-11.5092
▁ප්‍රගතියක්	-11.5096
▁අමරපුර	-11.5099
▁බඳ	-11.5099
▁මෑණියන්	-11.5099
▁අවප්‍රමාණය	-11.51
▁ගුහාව	-11.51
▁අමාරුවේ	-11.51
▁අතරමං	-11.5101
▁මුදවා	-11.5102
▁බන්	-11.5103
▁තරඟයේදී	-11.5103
▁29,	-11.5104
▁නෝර්වේ	-11.5105
වාස	-11.5106
එක්සත්	-11.5106
යිල්	-11.5108
කරගත්	-11.511
▁(8	-11.5119
▁ආයේ	-11.5119
▁ප්‍රගතිශීලී	-11.512
▁ස්මාරකය	-11.5125
▁ආමන්ත්‍රණය	-11.5125
▁ආශාව	-11.5126
▁ගුණයකින්	-11.5127
▁සමි	-11.5131
ටවත්	-11.5132
▁ප්‍ර‍	-11.5132
▁මරණකරු	-11.5133
▁අයිතිකරු	-11.5134
කොන්	-11.5134
▁සමීපතම	-11.5136
▁නලීන්	-11.5137
▁උදාවී	-11.5138
▁මියන්මාරය	-11.5139
▁දිනන්න	-11.514
▁පරීක්ෂණවලට	-11.5142
▁මඳක්	-11.5142
▁අම	-11.5143
ෂිත	-11.5143
▁රෝගාබාධ	-11.5143
▁හැකිවේ	-11.5144
▁මාලිගාව	-11.5146
▁කියවන	-11.5147
▁සපයයි	-11.5147
▁ඩග්ලස්	-11.5148
▁කෝපයට	-11.5148
▁ගැඹුර	-11.5149
අඩි	-11.5151
▁නිලධාරියාට	-11.5152
▁වොෂින්ටන්	-11.5153
▁දෙකයි	-11.5154
සිල්	-11.5156
▁පටය	-11.5157
කඩුව	-11.5157
▁ලෝකයම	-11.5158
▁අපේක්‍ෂක	-11.516
▁සංජය	-11.516
▁ගැලවී	-11.5163
▁පරමාර්ථය	-11.5164
▁ගණිතය	-11.5164
▁කිට්ටු	-11.5165
▁අහඹු	-11.5165
▁පරා	-11.5165
▁ධුරයක්	-11.5166
▁නොවු	-11.5166
රාන්	-11.5167
▁අගමැතිවරයාගේ	-11.517
▁දිඹුලාගල	-11.517
▁000	-11.517
▁අැ	-11.5172
▁සෞන්දර්ය	-11.5173
▁මන්ත්‍රීවරයාගේ	-11.5173
▁අනුභව	-11.5174
▁ඉංජිනේරුවන්	-11.5176
▁මර්ධන	-11.5177
▁ලංකාවේදී	-11.5179
▁පදිංචියට	-11.5181
▁මුද්‍රිත	-11.5181
▁රදගුරු	-11.5181
▁ගෙට	-11.5184
▁අතුරලියේ	-11.5185
▁විමසිලිමත්	-11.5187
▁ගිල්	-11.5187
▁(7	-11.5187
▁ලොරිය	-11.519
▁සමාජයෙන්	-11.519
▁බෝට්ටුව	-11.5192
▁හෘදය	-11.5192
▁තීන්දුවට	-11.5192
▁පල්ලෙකැලේ	-11.5192
▁දායකයින්	-11.5193
ින්ද	-11.5193
▁වසංගතයට	-11.5194
▁ආදිවාසී	-11.5194
▁රැය	-11.5195
▁දියණියට	-11.5196
▁කරනවාද	-11.5197
▁වූවක්	-11.5198
▁කැසිනෝ	-11.5198
ලෝන්	-11.5198
▁බාලසූරිය	-11.5199
▁අබ	-11.52
වෙත	-11.5201
▁ඉසි	-11.5201
▁ඔක්ටේන්	-11.5204
▁දක්වනු	-11.5205
▁තමන්ගේම	-11.5205
▁පියවා	-11.5206
▁සැකසූ	-11.5207
▁සැළකිල්ලට	-11.5207
▁සෑය	-11.5207
සෙන	-11.5208
▁කම්හල්	-11.521
▁පිළිගන්නවා	-11.521
▁සිරියාව	-11.5211
▁පියල්	-11.5212
▁රෝහිත්	-11.5212
.12	-11.5215
▁ඇප්	-11.5217
▁තරුණයෙකි	-11.5218
▁නොතිබුණු	-11.5219
▁ගීතා	-11.5219
▁චිත්ත	-11.5219
▁හෙල	-11.522
▁කුරුස	-11.5222
▁චාරිකාවක	-11.5226
▁අංකයක්	-11.5226
▁අබේකෝන්	-11.5226
▁යුගයට	-11.5227
▁මධුෂ්	-11.5227
▁පැයකට	-11.5227
▁තලයේ	-11.523
ධාරි	-11.5232
▁කෙමෙන්	-11.5233
▁බලපානවා	-11.5233
පල්	-11.5238
ර්ථ	-11.5239
▁නිළියන්	-11.524
▁ගෝල්	-11.524
▁කාර්යාලයක්	-11.524
▁පරමාණු	-11.5241
▁(9	-11.5242
▁දමනු	-11.5244
▁හරින්න	-11.5246
▁ඉල්ලන්න	-11.5247
▁ඇමෙරිකාවට	-11.5248
▁ඉවත්වීම	-11.5248
▁කාන්දු	-11.5248
▁ඔහොම	-11.5248
▁පෙරද	-11.5249
ක්ෂි	-11.5249
▁වර්ෂාපතනයක්	-11.5249
වේදීන්	-11.5251
▁යහ	-11.5251
▁ස්වාමියා	-11.5252
▁වචනයෙන්	-11.5253
▁තිරු	-11.5253
▁අස්වන	-11.5255
▁නවසීලන්තයට	-11.5259
▁කිසිදා	-11.5262
▁උපායමාර්ගික	-11.5262
▁ආරංචිය	-11.5262
▁1,000	-11.5263
ඩබ්ලිව්	-11.5263
▁සියල්ලටම	-11.5264
චර	-11.5265
▁බොරලැස්ගමුව	-11.5265
▁රැඳ	-11.5266
▁නොහැකිවීම	-11.5266
ිල	-11.5268
▁හාර	-11.5268
▁ආවරණයක්	-11.5269
▁සැමරීමට	-11.5269
කාමී	-11.5271
▁දැනෙනවා	-11.5272
▁ලක්ෂණයක්	-11.5273
▁වැරැද්දක්	-11.5274
▁කකුල්	-11.5274
▁නිමාව	-11.5277
▁වීරකැටිය	-11.5277
ව්ව	-11.5277
▁නිරතවූ	-11.5278
▁115	-11.528
▁පරාජයක්	-11.5283
▁නොතිබිණි	-11.5283
නක්	-11.5283
▁කපන්න	-11.5285
▁නායිකා	-11.5286
▁තරුව	-11.5286
▁චක්‍රලේඛ	-11.5286
පිටි	-11.5286
▁සංචාරකයන්ගේ	-11.5287
▁මගහැර	-11.5289
▁මරණයෙන්	-11.529
▁දෙදෙනෙකුගේ	-11.5291
▁වැටලීමට	-11.5292
▁බ්‍රහ්ම	-11.5293
▁ප්‍රයෝජනවත්	-11.5294
▁අමරසූරිය	-11.5294
▁සාක්‍ෂි	-11.53
▁වැටීමක්	-11.5301
▁රැස්කළේය	-11.5303
▁ඉස්කෝලෙ	-11.5303
▁රැස්වන	-11.5303
▁වෙරළේ	-11.5304
▁ගුවන්යානය	-11.5305
▁කාම	-11.5306
▁ඉරු	-11.5307
▁පේන්න	-11.5307
▁තාක්ෂණයෙන්	-11.5309
සුව	-11.5309
රියන්	-11.531
▁ඩොලරය	-11.5311
▁නීල්	-11.5311
▁ලේකම්වරයාගේ	-11.5312
▁කිලිනොච්චි	-11.5312
▁කතිකාව	-11.5313
▁කිහිපයක්ද	-11.5313
▁විශ්ලේෂණ	-11.5315
▁අක්‍රීය	-11.5316
▁වෛ	-11.5318
▁පරිච්ඡේදය	-11.532
▁වුවමනාවක්	-11.5322
▁පරීක්ෂණයකට	-11.5322
▁ඉටුකරන	-11.5324
▁දෙදෙනෙකි	-11.5328
▁තතු	-11.5332
▁වෙලේ	-11.5333
▁පරිමාණයේ	-11.5334
▁ඉඟි	-11.5334
▁දුම්රියක	-11.5336
▁අබ්දුල්ලා	-11.5338
▁රඟපාන්න	-11.5338
▁ශර්මා	-11.5339
▁යොද	-11.5339
▁සඟවාගෙන	-11.5342
▁නාස්තිය	-11.5342
▁හොරකම	-11.5345
▁විපාක	-11.5347
-0	-11.5348
▁හෝටලයක්	-11.535
▁කන්නය	-11.5351
▁1979	-11.5351
▁සංවිධායකවරුන්	-11.5354
▁පන්සලේ	-11.5354
▁සංශෝධිත	-11.5356
▁ආරංචිමාර්ග	-11.5357
▁පෝය	-11.5357
▁හිමිවන්නේ	-11.5357
▁කෙරුණ	-11.5357
▁මාරුව	-11.5357
▁ගිලා	-11.5358
▁තරුණියගේ	-11.5359
▁අම්මලා	-11.5359
▁මෙහෙයවූ	-11.5362
▁සබ්රි	-11.5362
▁මාධ්‍යය	-11.5364
වූවන්	-11.5366
▁ගැලීම්	-11.5368
▁විචාර	-11.5368
▁උත්සවයේදී	-11.537
සිදු	-11.537
▁දක්වන්න	-11.5371
▁නායකයාගේ	-11.5372
▁170	-11.5375
විධ	-11.5376
▁කර්මාන්තශාලාව	-11.5378
▁(20	-11.5378
▁උක්	-11.5378
▁ළිං	-11.5379
▁කොමිස්	-11.5379
▁මැතිව්	-11.5387
▁ඇල්ලේ	-11.5388
▁වචනයක්	-11.5389
▁හැදුවේ	-11.5389
ෝන්	-11.5391
▁සහභාගිවීමට	-11.5392
▁බොහෝදෙනා	-11.5393
▁රටෙහි	-11.5394
▁සබන්	-11.5395
▁මාධ්‍යවේදියා	-11.5395
▁සමහරවිට	-11.5396
▁කූඩු	-11.5397
වීර	-11.5398
▁පොලීසියෙන්	-11.5401
▁ෂෝ	-11.5401
▁ලක්වීමෙන්	-11.5402
▁පසුවන්නේ	-11.5402
▁වනෝද්‍යානයේ	-11.5402
කිය	-11.5402
▁නොමඟ	-11.5403
▁ශිෂ්‍යාවන්	-11.5403
▁යුගයේදී	-11.5404
▁ඇත්ද	-11.5405
▁උපකුලපති	-11.5406
නමුත්	-11.5406
▁වෙනු	-11.5406
▁ඇතිබව	-11.5406
▁ඕස්ට්‍රේලියාවට	-11.5407
▁වන්දනාකරුවන්	-11.541
▁ටියුබ්	-11.5411
▁පිරවුම්හල	-11.5415
▁ගුවන්යානා	-11.5416
▁බුදුදහම	-11.5419
▁ගොනුකළ	-11.5419
ගිරිය	-11.542
ාරා	-11.5421
▁අලාභය	-11.5421
▁අපතේ	-11.5422
▁කුළු	-11.5423
▁සහගතව	-11.5424
▁ගන්	-11.5425
▁රටේම	-11.5427
▁තාත්ත	-11.5427
▁කාලයකි	-11.5429
▁මවක	-11.5431
▁බැක්ටීරියා	-11.5432
▁යූරියා	-11.5432
▁වැහි	-11.5433
▁ගෙළ	-11.5435
▁කොච්චිකඩේ	-11.5436
හිමි	-11.5436
▁මවා	-11.5437
▁බෙද	-11.5437
දයාසීල	-11.5438
▁අරමුණෙන්	-11.5439
▁සර්ප	-11.544
▁කාර්තුව	-11.5442
▁107	-11.5444
▁වදන්	-11.5445
▁නිර්ණායක	-11.5447
▁විචාරක	-11.5447
▁ජයන්ති	-11.545
▁කාන්තාවෝ	-11.5451
▁දර්ශනයක්	-11.5451
▁එකඟතාවක්	-11.5452
▁දොළහ	-11.5453
▁රික්ටර්	-11.5453
▁සිසුවාගේ	-11.5453
▁බේරාගැනීමට	-11.5454
▁වෙහෙසක්	-11.5458
▁මන්දිර	-11.5459
▁පොළව	-11.5462
▁ග්‍රහලෝක	-11.5464
▁ගන්වා	-11.5464
▁වමේ	-11.5465
▁සැපයෙන	-11.5466
▁මාසයට	-11.5467
▁වසරෙහි	-11.5467
▁අවනත	-11.5468
▁මූලස්ථානයට	-11.5471
▁කාවින්ද	-11.5471
▁යුදෙව්	-11.5472
▁අපයෝජන	-11.5474
▁වරායෙන්	-11.5474
▁අල්ල	-11.5475
▁ඛණිජ	-11.5476
▁උතුරට	-11.5477
▁අරමුදලෙන්	-11.5478
▁කියැවෙන	-11.5479
▁වෙතට	-11.5482
▁ක්‍රියාකරන	-11.5482
▁ලෝලීන්	-11.5483
▁කෙනෙක්ට	-11.5483
▁දේශපාල	-11.5485
වුවත්	-11.5486
▁මෙටි්‍රක්	-11.5488
▁වැටෙනවා	-11.5488
▁ඇලෙක්සැන්ඩර්	-11.5488
▁රත්රන්	-11.5489
▁බළ	-11.549
▁එකඟතා	-11.5491
▁බැද	-11.5492
▁කූ	-11.5492
▁නාස්ති	-11.5493
▁පන්නිපිටිය	-11.5493
▁රෙදිපිළි	-11.5494
දහස්	-11.5494
ාල්	-11.5495
ශීලි	-11.5496
▁තලය	-11.5497
වරය	-11.5497
ලං	-11.5502
▁සංවිධානවල	-11.5503
▁දුටුවේ	-11.5504
▁ඉදිකිරීමේ	-11.5504
▁පසුවෙයි	-11.5505
▁දාගැබ	-11.5506
ලදායි	-11.5508
විශ්වවිද්‍යාලයීය	-11.5509
ැත්ත	-11.5509
ුවේය	-11.551
▁ජෝෂප්	-11.5511
▁සඳුන්	-11.5511
▁මහත්මියට	-11.5515
▁භාවනාව	-11.5515
▁පිස	-11.5515
▁එන්නෙ	-11.5517
▁කෙටිකාලීන	-11.5517
▁පළිගැනීම්	-11.5519
▁ධිවර	-11.552
ිති	-11.5521
▁තත්ත්වයන්ට	-11.5523
▁මිස්	-11.5525
▁පර්යන්තයේ	-11.5526
▁පත්වු	-11.5527
▁බොලිවුඩ්	-11.5529
▁106	-11.5529
වූහ	-11.5531
▁සංදර්ශන	-11.5531
▁දරන්න	-11.5532
▁හසුවී	-11.5533
▁රැල්ලක්	-11.5534
▁අන්ද	-11.5534
▁ගලගොඩඅත්තේ	-11.5534
▁අවිශ්ක	-11.5534
▁එකවරම	-11.5534
▁මෝහ	-11.5534
▁වෙර	-11.5535
▁සුද	-11.5538
▁වාද්දුව	-11.554
▁අවස්ථාවේදීය	-11.5541
▁පුරෝකථනය	-11.5545
▁ට්‍රැක්ටර්	-11.5545
▁අනෙකා	-11.5545
▁කල්මුණේ	-11.5545
▁ඉඩම්වල	-11.5545
▁රටවල්වල	-11.5546
▁වේගපන්දු	-11.5552
්‍	-11.5553
▁බලද්දී	-11.5554
▁මෙහෙවරක්	-11.5555
▁කිඹුලා	-11.5556
▁පාලමේ	-11.5556
▁අනධ්‍යයන	-11.5557
▁වෙරළාරක්ෂක	-11.5557
▁සිදුවෙලා	-11.556
▁පිළියමක්	-11.556
▁ඔස්ට්‍රේලියාවට	-11.5561
▁ආරණ්‍ය	-11.5563
▁සංයෝග	-11.5564
▁වෛද්‍යවරිය	-11.5564
▁නවෝත්පාදන	-11.5567
▁රේඛා	-11.5567
▁‍ෙදා	-11.5568
▁තුසිත	-11.5568
▁පුදබිම	-11.5568
▁අපේක්ෂකයෙක්	-11.5571
ුල්	-11.5572
▁සංඛ්‍යාවකට	-11.5573
▁කෙරෙමින්	-11.5573
▁රටා	-11.5574
▁කන්දකාඩු	-11.5575
▁උඩුගම	-11.5576
▁සංග	-11.5577
චේ	-11.5578
කමින්	-11.5581
ගැහ	-11.5583
බස්	-11.5584
.25	-11.5586
▁උද	-11.5587
ගස්වැව	-11.5587
▁පල්ලියේ	-11.5587
▁ගේන	-11.5593
▁ඉනිමක්	-11.5594
▁ක‍්‍රම	-11.5594
▁වැරැද්ද	-11.5595
ෝර	-11.5596
මාර්	-11.5604
▁සමාලෝචන	-11.5604
▁කරන්නා	-11.5604
▁ජනතාවත්	-11.5606
▁නිපුණතා	-11.561
▁පිවිසීම	-11.561
වාසි	-11.561
වැල	-11.5614
▁ප‍්‍රශ්නයක්	-11.5618
ෙය්	-11.5618
▁තරාතිරම	-11.5619
▁තරම	-11.562
▁ශෙහාන්	-11.5621
ෂේ	-11.5623
▁පැවැත්විණ	-11.5624
▁ජීවත්වීමට	-11.5626
▁ප්‍රවණතාව	-11.5627
▁සැලකෙයි	-11.5627
▁වැඩිවිය	-11.5628
පරි	-11.5628
▁සල්	-11.5629
▁මහත්වරුන්ගෙන්	-11.563
▁බයිඩ්න්	-11.5633
▁ක්ලබ්	-11.5633
පිරි	-11.5633
▁දෙවැන්න	-11.5634
ධය	-11.5634
▁දැමීමෙන්	-11.5637
භව	-11.5639
▁මොහොතක්	-11.5639
▁වායුව	-11.564
▁අරගලයක්	-11.5641
▁මර්දනයට	-11.5641
ණ්	-11.5641
▁අහ	-11.5641
▁කොරියාවට	-11.5644
▁මුරලිදරන්	-11.5644
▁සිලෝන්	-11.5645
▁ආතර්	-11.5646
▁ගනිද්දී	-11.5648
▁තානාපතිවරුන්	-11.5648
ිස්ස	-11.5649
▁පියෙක්	-11.565
▁පැවසෙයි	-11.5651
▁සැලසෙන	-11.5651
ලතා	-11.5651
▁අනා	-11.5652
▁දොන්	-11.5656
▁දුන්නාය	-11.5657
▁වැඩමුළුව	-11.5659
▁කාරණාවක්	-11.5659
▁ගත්තු	-11.5659
▁උත්සාහයක	-11.5659
▁පුරාවටම	-11.5662
▁දලු	-11.5663
▁පෙළක්	-11.5664
▁නෙත	-11.5665
▁ආදාහන	-11.5666
ෙම්	-11.5667
▁සිද්ධාර්ථ	-11.5668
▁ඇතුළුවීමට	-11.567
▁ගිඟුරුම්	-11.5674
▁නොමැතිකම	-11.5674
▁කුමාරසිරි	-11.5675
▁සහෝදරයන්	-11.5677
▁අනුශාසනා	-11.5678
▁117	-11.5678
▁සාධාරණත්වය	-11.5681
▁හරිනි	-11.5684
පාලන	-11.5684
▁සදා	-11.5686
▁මනෝජ්	-11.5688
▁ප්‍රි	-11.569
▁හඬින්	-11.569
▁යුක්තව	-11.5695
වරණය	-11.5696
අනේ	-11.5696
▁භූමියේදී	-11.5698
▁අන්තර්ගතය	-11.5698
▁දල්වා	-11.5702
▁අසභ්‍ය	-11.5703
▁ගෙනෙන	-11.5705
විලි	-11.5706
▁7.00	-11.5706
▁ආදායම්ලාභී	-11.5707
▁මාස්	-11.5707
▁කිරීම්වලට	-11.5707
▁හෝටලයට	-11.5708
▁අප්‍රිකාවට	-11.5708
▁සැමි	-11.5708
▁සිද්ධස්ථාන	-11.5709
▁දහමට	-11.5713
▁අස්වී	-11.5714
වාසීන්	-11.5714
ෂර්	-11.5714
ේෂ	-11.5715
▁වළල්ල	-11.5715
▁ග්‍රහයන්	-11.5715
▁ඇමරිකාවට	-11.5718
▁පර්යේෂණය	-11.5719
▁සැලකූ	-11.5721
▁තදාසන්න	-11.5721
▁සැණකෙළිය	-11.5722
▁සාදයක්	-11.5723
▁කම්පනයෙන්	-11.5725
බන්	-11.5728
▁කිවහොත්	-11.5729
▁එකකින්	-11.573
▁පොළොන්නරුවේ	-11.5732
▁සැකසුම්	-11.5732
▁උකුස්සා	-11.5733
▁කිහිපයකි	-11.5735
කදීම	-11.5736
▁තරම්ය	-11.5737
▁සාමකාමීව	-11.5737
▁නොවේද	-11.5741
▁ක්‍රීඩකයෙක්	-11.5741
▁යද්දි	-11.5741
▁බැටරි	-11.5741
▁දමන්න	-11.5742
▁වෙළඳපොළේ	-11.5742
ලේඛ	-11.5743
▁විනාශකාරී	-11.5747
▁සේවාදායකයා	-11.5748
▁දිනු	-11.5748
▁වෛරසයෙන්	-11.5752
▁විහිළු	-11.5752
▁සමාගමක	-11.5753
▁අපේක්‍ෂා	-11.5753
රස	-11.5754
▁සාධන	-11.5754
▁ඉවත්වන	-11.5754
▁ඒකමතිකව	-11.5756
▁සිටුවීමට	-11.5756
▁අච්චු	-11.5756
▁මර්වින්	-11.5757
▁පෙනෙයි	-11.5757
▁සේරම	-11.5758
▁කරගත්තේ	-11.5759
▁රෝහල්වලට	-11.5762
▁දැනුම්දීමේ	-11.5765
▁පාවෙන	-11.5766
▁දෙවෙනි	-11.5767
▁කරනකොට	-11.5768
ගේම	-11.5769
▁උපකල්පනය	-11.5772
▁නැකැත	-11.5774
▁සියයකට	-11.5774
▁පේදුරුතුඩුව	-11.5774
කලා	-11.5775
▁බයි	-11.5776
▁සිසිල්	-11.5777
▁රයි	-11.5777
▁පහරදීමක්	-11.5778
▁අභිනව	-11.5778
තූ	-11.5781
▁අපල	-11.5783
▁ගුණාංග	-11.5783
▁සිතුම්	-11.5784
ගැ	-11.5785
අප	-11.5787
▁සිතන්නේ	-11.5787
▁හදාරන	-11.5788
▁තෙක්ම	-11.5788
▁පත්‍රයට	-11.5788
▁මංතීරුව	-11.579
▁ලිට්රෝ	-11.5792
▁අඹුසැමි	-11.5792
▁මාකඳුරේ	-11.5798
▁පරික්ෂණය	-11.5803
▁රහුමාන්	-11.5804
▁ආදායමෙන්	-11.5804
▁විඳිමින්	-11.5805
▁පෙන්න	-11.5806
ගැන	-11.5808
ියානු	-11.5808
▁සුළඟේ	-11.581
▁ගසන	-11.5813
වසර	-11.5815
▁පළවූ	-11.5815
▁බලවේගයක්	-11.5815
▁අවිවාහක	-11.5816
▁ප්‍රකාශයේ	-11.5818
▁සභාපතිවරුන්	-11.5818
▁හොයාගෙන	-11.5818
▁අස්ස	-11.5819
▁ඇසුරින්	-11.5819
▁යේෂණ	-11.582
▁වික්ටර්	-11.5822
▁පරීක්ෂකවරුන්ගේ	-11.5822
සිංගර්	-11.5823
▁මඟුල්	-11.5826
▁රංගනයට	-11.5827
▁කියු	-11.5828
▁තෙර	-11.5828
▁තායි	-11.5831
▁අදානි	-11.5832
▁මත්ද්‍රව්‍යවලට	-11.5833
▁කජු	-11.5837
▁පිලිපීනයේ	-11.5837
▁පක්ෂයකට	-11.5838
▁ජීවය	-11.5839
▁ලේකම්වරු	-11.5839
▁සත්කාරය	-11.584
▁සිදුවෙන	-11.584
▁ගාලුමුවදොර	-11.5845
▁මිතුරෙකු	-11.5845
▁වැඩපිළිවෙළට	-11.5846
▁බලෙන්	-11.5847
▁පහරදීම්	-11.5849
▁මෙල	-11.585
▁ගූගල්	-11.5851
▁වයෝවෘද්ධ	-11.5851
▁ගොඩනැඟීම	-11.5856
▁මිළ	-11.5857
තුමනි	-11.5857
▁බොක්සිං	-11.5857
▁යාන්ත්‍රික	-11.5858
▁ආදාහනය	-11.5859
ීර්	-11.5863
▁මුල්වරට	-11.5863
▁කිහිපයකම	-11.5864
▁විමසිල්ලෙන්	-11.5865
▁මහව	-11.5868
▁ඩොලරයේ	-11.5868
බැද්ද	-11.587
▁තුනම	-11.587
▁ජාලයක්	-11.5871
▁කංසා	-11.5871
▁සම්පුර්ණ	-11.5872
▁ගන	-11.5875
▁ගමනේදී	-11.5878
▁ආනයනකරුවන්	-11.5879
ලාව	-11.5883
▁ඇඟට	-11.5883
▁සංසදයේ	-11.5885
▁පුවක්	-11.5888
▁සීතා	-11.5893
▁දේශිය	-11.5893
▁මාධ්‍යවේදීන්ට	-11.5893
▁ගැබිණි	-11.5894
▁බැලුවොත්	-11.5894
වෙකි	-11.5895
කුගේ	-11.5898
න්ඩි	-11.5898
▁භව	-11.59
▁සහායක්	-11.5903
▁ඔයාගේ	-11.5903
▁කොටගල	-11.5904
▁සහභාගිවීම	-11.5904
▁ඩැ	-11.5905
▁ස්කෑන්	-11.5905
▁කියද්දී	-11.5906
▁ගන්නෙ	-11.5907
▁බලන්	-11.5911
▁තලංගම	-11.5911
▁මතයට	-11.5912
▁නොපැමිණීම	-11.5914
▁විශේෂාංගය	-11.5914
▁යෑමේදී	-11.5914
▁වැළැක්විය	-11.5917
▁යොමුවිය	-11.5919
එහි	-11.592
▁එයාගෙ	-11.5922
▁රඟපෑ	-11.5922
ලයේ	-11.5923
▁කරඬුව	-11.5923
▁මාෆියාව	-11.5924
රංජිත්	-11.5926
▁හැල	-11.5927
▁පෙළඹ	-11.5929
▁තෙල්දෙණිය	-11.5929
ඩීන්	-11.5931
▁කැනීම්	-11.5932
තිව්	-11.5933
▁තබ	-11.5935
▁0112	-11.5936
සිත්	-11.5936
▁නැම	-11.594
▁කොල්ලකෑම්	-11.594
▁වේදනාවක්	-11.5941
▁සමීර	-11.5942
▁නවයක්	-11.5942
▁තරඟයට	-11.5943
▁ඇරඹීමට	-11.5944
▁බොහෝදුරට	-11.5944
▁විත්ති	-11.5944
▁පැහැරගත්	-11.5945
▁බාරදී	-11.5946
▁ගෙවන්නේ	-11.5947
▁පිරිසෙන්	-11.5948
▁සිටීමේ	-11.5948
▁ක්‍රිෂාන්	-11.5949
▁රසය	-11.5951
▁වැනිදායින්	-11.5953
▁අමරසේකර	-11.5954
▁සිල්වාගේ	-11.5954
▁හිතෙන	-11.5956
▁පරීක්ෂණයේදී	-11.5957
▁අෑත	-11.5958
▁ප්‍රචණ්ඩකාරී	-11.5962
▁නිවීමේ	-11.5964
▁බබා	-11.5964
▁සීල	-11.5965
▁වැඩිකිරීම	-11.5965
▁කිහිපයකදීම	-11.5966
▁ත්‍රස්තවාදයට	-11.5966
▁පොල්ගහවෙල	-11.5966
▁සිසුවකු	-11.5967
▁විඳීමට	-11.5968
▁කරුණාව	-11.597
▁අස්වීමේ	-11.597
ජින්	-11.5971
▁දුනි	-11.5973
▁ලේසි	-11.5974
▁සබ	-11.5975
▁ව්‍යාකූල	-11.5976
කුළ	-11.5978
▁කිරීම්වල	-11.5978
▁කාටද	-11.598
▁ආදේශ	-11.598
▁ප්‍රකාශිත	-11.5981
▁කීපය	-11.5982
▁පෘථිවියට	-11.5983
මඩ	-11.5984
▁අග්නිදිග	-11.5984
▁මුල්තැන	-11.5985
▁තට්ටුව	-11.5987
▁වාදය	-11.5988
▁අකුර	-11.5989
▁ඉන්ෂුවරන්ස්	-11.599
▁හඳුන්වයි	-11.599
▁ටීවී	-11.5993
▁ගම්මානයට	-11.5993
වුල්	-11.5993
▁අග්‍ර	-11.5994
▁පපුව	-11.5996
▁ජින්	-11.5997
▁ඉඳගෙන	-11.5997
▁නීතිපතිවරයාගේ	-11.6
▁ප්‍රවීන	-11.6
හළ	-11.6
▁ගොඩනගන	-11.6
▁සමත්වූ	-11.6001
ාවක්	-11.6002
▁ලග්ගල	-11.6002
▁පිස්සු	-11.6002
▁ෆු	-11.6003
ංගල	-11.6004
හැකි	-11.6005
ිමට	-11.6007
▁නිපැයුම්	-11.6007
▁මිහින්තලේ	-11.6008
▁වානිජ	-11.6008
▁ගෙයක්	-11.6009
▁බුද්ධාගම	-11.6009
සේවා	-11.6009
▁කැනඩා	-11.6011
▁ළඟින්	-11.6011
▁කමිඳු	-11.6014
▁නැං	-11.6015
▁පාඨක	-11.6016
▁ප්‍රමාදය	-11.6016
▁මහත්තයට	-11.6017
▁මුස්ලිම්වරුන්	-11.6018
▁ශිෂ්ටාචාරය	-11.602
▁මිතුරකු	-11.602
▁ප්‍රදේශයන්හි	-11.6021
▁කණ	-11.6023
-1	-11.6024
▁දෝෂාභියෝගය	-11.6024
▁චෛත්‍යය	-11.6027
▁නග	-11.6031
▁ප්‍රතිරූපය	-11.6032
▁ඇක්	-11.6033
▁පිත්තෙන්	-11.6034
▁නාසය	-11.6035
කර්ම	-11.6037
▁වෙමු	-11.604
▁ඩිජිටල්කරණය	-11.6042
▁තිත	-11.6043
▁දඩුවම	-11.6043
▁ගොවියාට	-11.6045
▁මඩුව	-11.6048
▁පිටතින්	-11.6049
▁වැඩට	-11.605
▁භාණ්ඩාගාරික	-11.605
▁සංයුක්ත	-11.6051
▁ඊශ්‍රායල්	-11.6051
▁දාර්ශනික	-11.6057
▁බෝධීන්	-11.6057
මූ	-11.6057
▁හඬපට	-11.6058
▁ලැබෙන්න	-11.6059
▁පිහිටුවීමේ	-11.606
▁හිනා	-11.606
▁ගෙනාවා	-11.6063
▁සතුරන්	-11.6063
▁කටාන	-11.6063
▁ගංගාරාම	-11.6064
▁පුරුද්දක්	-11.6065
ට්ටා	-11.6071
▁කැළණි	-11.6072
▁පෙරහුරු	-11.6072
▁ආයෝජකයින්	-11.6075
▁චන්ද්‍රසේන	-11.6075
▁සුරතල්	-11.6076
මාල	-11.6076
▁සමහරුන්	-11.6077
▁කීයක්	-11.6083
▁1981	-11.6086
▁මට්ටක්කුලිය	-11.6087
▁ලුවිස්	-11.6087
▁මාලිගාවේ	-11.6089
▁මාතෘකාවක්	-11.6092
▁යුද්ධයේදී	-11.6093
▁විනිසුරුවන්	-11.6093
▁කුම්භ	-11.6094
▁ගොඩබිමට	-11.6095
්හි	-11.6095
ජෙ	-11.6097
▁හිතා	-11.6098
▁වර්ජනයේ	-11.6099
▁-036	-11.6099
▁සිගරට්	-11.6099
▁කෘ	-11.61
▁දීප්තිමත්	-11.61
▁බැලීමක්	-11.6101
▁(6	-11.6102
වේග	-11.6103
▁වයිස්	-11.6105
▁සිදුකරගෙන	-11.6105
▁ඔටෝ	-11.6107
▁පන	-11.6107
▁මෙහෙයවා	-11.6109
▁දොළ	-11.611
රුවේ	-11.6111
▁අයැදුම්පත්	-11.6117
්ත	-11.6118
අර	-11.6118
නල්	-11.6118
▁කැටි	-11.6118
▁ප්‍රයත්නය	-11.6119
▁පවති	-11.6119
▁ගහපු	-11.6122
▁කුතුහලය	-11.6124
▁ගම්වැසියන්	-11.6124
මර	-11.6125
ංගණය	-11.6127
▁පියෙකි	-11.6128
▁පැහැදිලියි	-11.6129
▁දැකීමට	-11.6129
▁ස්ක	-11.6129
▁ෂර්මා	-11.613
▁3,000	-11.6132
▁සිසුවියක්	-11.6133
▁සංචිතයේ	-11.6134
▁අටක	-11.6136
▁මිථ්‍යා	-11.6137
▁බෝල	-11.6137
▁පාර්සලය	-11.6138
▁ත්‍රිත්වය	-11.614
▁පිළිමය	-11.6141
▁දුප්පත්කම	-11.6141
▁වූවත්	-11.6141
▁කෙස්	-11.6142
▁මිනුම්	-11.6142
▁අස්වීමට	-11.6145
▁පන්නල	-11.6146
▁ඔයිල්	-11.6147
▁විනාඩියේදී	-11.6147
▁ස්වේච්ඡා	-11.6148
වර්ග	-11.6148
ගෙයි	-11.6148
▁සීමාසහිත	-11.6149
▁හිමිවේ	-11.6149
▁ව්‍යවස්ථාදායකය	-11.6149
▁ඩිංගි	-11.615
දිම	-11.6156
▁මේස	-11.6157
▁සංඝයා	-11.6158
තුමාගේ	-11.6159
▁භාරත	-11.616
තම්	-11.6162
▁පොත්පත්	-11.6165
▁ප්‍රදේශ්	-11.6165
▁නොතිබුණ	-11.6166
▁මාලය	-11.6166
▁රියදුරෙකු	-11.6167
▁නාවුක	-11.6167
▁අවසරයක්	-11.6167
▁තෙදින	-11.6169
▁උදාවන	-11.617
▁දෙකේම	-11.6171
▁පනහ	-11.6171
▁මුද්‍රණාලය	-11.6172
▁පර්වතය	-11.6173
▁රිජ්වේ	-11.6173
ආණ්ඩුව	-11.6174
▁තේරීම	-11.6174
▁හන්	-11.6176
▁දිලීප	-11.6177
▁අතිශයින්ම	-11.6178
▁ගිනිගෙන	-11.618
තෙල්	-11.6181
▁අවාසි	-11.6183
ඩය	-11.6183
▁ක්‍රීඩකයන්ගේ	-11.6185
▁ප්‍රතිවිපාක	-11.6186
▁හින්දි	-11.6187
▁රති	-11.6187
▁වැටුණේ	-11.6189
.01	-11.619
▁විදුහල්පතිනිය	-11.6191
▁පසළොස්වක	-11.6192
▁මුහුදුබඩ	-11.6194
▁බොදු	-11.6195
▁ජීවන්	-11.6196
▁වේගයකින්	-11.6197
▁ඇසුර	-11.6197
▁නැවේ	-11.6198
ලයට	-11.6198
▁සුනඛයන්	-11.6198
▁මැදුර	-11.6199
▁දුන්නොත්	-11.6199
කරන්නේ	-11.6199
▁බැංකුවල	-11.6202
කොල	-11.6204
▁පන්න	-11.6204
▁පැල්මඩුල්ල	-11.6204
▁වස්තූන්	-11.6204
▁පිලිබඳව	-11.6208
මැයි	-11.6212
▁මෙලෙසින්	-11.6215
▁මුදුන	-11.6216
▁චක්‍රලේඛයක්	-11.6219
▁මේකෙන්	-11.622
▁බෙදුම්වාදී	-11.622
▁පැරණිතම	-11.6221
▁වැඩිවී	-11.6223
▁සංකේතවත්	-11.6224
▁අභාවය	-11.6224
ර්ෂ	-11.6224
ංච	-11.6224
▁නිදසුනක්	-11.6227
▁ගමනාන්තය	-11.6228
▁මෙදා	-11.6229
▁ඩිමොක්‍රටික්	-11.6235
▁අමාත්‍යාංශයේදී	-11.6237
▁එයාලට	-11.6238
▁සීදුව	-11.6239
▁විසර්ජන	-11.6241
▁පැවැසේ	-11.6242
▁පේන්නේ	-11.6242
▁බ්‍රි	-11.6242
▁පරම්පරා	-11.6242
▁රිසි	-11.6244
▁යකා	-11.6245
▁ගියහොත්	-11.6245
▁සැකකරන	-11.6245
▁උසට	-11.6246
▁පොතු	-11.6246
▁අස්විය	-11.6247
▁දිරිගැන්වීම	-11.6248
▁පැවතිණි	-11.6253
ොක්	-11.6254
▁සමෘද්ධිය	-11.6255
▁උසින්	-11.6256
▁විරු	-11.6256
▁සංශෝධනයෙන්	-11.6256
▁ලීටරයක්	-11.6257
▁මධූෂ්	-11.6259
▁විඳින්න	-11.626
▁කේරල	-11.626
▁දුම්රියෙන්	-11.626
▁නැතැයිද	-11.626
▁ජාවාරම්කරු	-11.6261
▁බද	-11.6263
▁දෙකකි	-11.6263
සුම	-11.6263
▁චු	-11.6265
▁සලකුණ	-11.6267
▁දර්ශකයේ	-11.6269
▁විරෝධතාවට	-11.6271
▁යුනෙස්කෝ	-11.6272
▁විමර්ෂණ	-11.6272
▁මිනිහෙක්	-11.6273
▁හැකිතාක්	-11.6273
පත්‍ර	-11.6274
▁අභියාචනාධිකරණයේ	-11.6274
කයා	-11.6278
▁ආචාර්යවරුන්	-11.6282
▁කරන්නයි	-11.6283
▁ඇඳන්	-11.6286
▁සිසුවෙක්	-11.6286
මාලා	-11.6286
▁මහත්තයාගේ	-11.6287
▁දැක්වීමක්	-11.6288
ූන්	-11.6289
▁132	-11.6291
▁අබුඩාබි	-11.6291
▁ඉන්දියන්ස්	-11.6292
▁ඇඳුමින්	-11.6293
ගෙනි	-11.6293
වාසී	-11.6295
ප්‍රධාන	-11.6295
▁මන්ත්‍රණ	-11.6296
▁නායකතුමා	-11.6297
කාව	-11.6298
වැටි	-11.6299
▁අපහසුතාව	-11.63
▁සමාජයක	-11.63
රීන්	-11.6301
▁හබ	-11.6303
▁සෙල්සියස්	-11.6304
▁වට්ස්ඇප්	-11.631
▁මූර්ති	-11.631
▁අතිවිශේෂ	-11.6311
ිස	-11.6311
▁ගණිත	-11.6314
▁අත්තනගල්ල	-11.6316
▁නිලධාරියාගේ	-11.6317
▁මණ්ඩලයීය	-11.632
▁වාට්ටු	-11.6321
▁අන්තය	-11.6322
නිස්	-11.6324
▁භාණ්ඩයක්	-11.6324
වාන	-11.6329
▁සාක්ෂිකරුවන්	-11.633
▁ගැනය	-11.6331
▁නමිනි	-11.6334
▁පත්කිරීමේ	-11.6337
▁ඇද්ද	-11.6337
▁මංසන්ධිය	-11.6337
▁තෝරාගැනීම	-11.634
▁පෙන්වාදුන්නේය	-11.6341
▁ඇතු	-11.6345
▁ගුජරාට්	-11.6348
▁තිබීමද	-11.6349
▁මාලිගාවත්ත	-11.635
▁කෙටුම්පතක්	-11.635
▁මුහුණදීම	-11.6352
▁භාජන	-11.6352
▁බිත්තිය	-11.6352
ගන්නේ	-11.6353
බන්ධ	-11.6353
▁පරීක්ෂණයෙන්	-11.6356
▁දිනකදී	-11.6356
▁කරලීම	-11.6356
▁සින්දු	-11.6358
▁ජනපතිවරණය	-11.6359
▁රෝගියෙකු	-11.636
▁කාත්තන්කුඩි	-11.636
▁උසාවිය	-11.636
▁සුගතපාල	-11.636
▁දවාගැනීමට	-11.6361
▁කැපවීමෙන්	-11.6364
ුනි	-11.6364
▁මන්ත්‍රීවරිය	-11.6366
▁ප‍්‍රතික්ෂේප	-11.6366
▁කම්හල	-11.6367
▁භාර්යාව	-11.6368
▁මාතාව	-11.6369
▁අධිරාජ්‍ය	-11.6372
▁අං	-11.6373
▁1986	-11.6373
▁පෙදෙසේ	-11.6373
▁අඩුව	-11.6373
▁5.30	-11.6374
▁ඉන්දුනීසියානු	-11.6375
▁පමණය	-11.6375
▁මුදල්වලින්	-11.6375
▁සම්බන්ධතාවය	-11.6375
▁කම්කරුවන්ගේ	-11.6378
▁තැබු	-11.638
▁පලාත්	-11.6381
▁දිනදී	-11.6382
▁පැවැත්මට	-11.6382
▁ගිං	-11.6382
▁ලේඛනයක්	-11.6386
▁දිසාපති	-11.6386
▁හිතුණා	-11.639
පෙන	-11.639
▁මොහුට	-11.6391
▁මාර්ක්	-11.6391
▁නන්දලාල්	-11.6392
▁නියෝජිතායතනය	-11.6392
තලාව	-11.6395
▁රටටම	-11.6397
▁ජලාශවල	-11.6397
▁එළිමහන්	-11.6398
ැලි	-11.6399
▁මකා	-11.6399
▁භාණ්ඩාගාරය	-11.64
▁චක්‍ර	-11.6401
▁හිතෙන්නේ	-11.6402
ඳි	-11.6403
මීට	-11.6404
▁තැටි	-11.6404
▁හමුවුණා	-11.641
ාධාර	-11.6411
▁සිතනවා	-11.6412
▁ජනිත	-11.6413
▁ආරම්භවීමට	-11.6415
▁දැම්මේ	-11.6416
කරැවන්	-11.6416
▁ටෙන්ඩරය	-11.6417
ලිප්	-11.642
▁ලබාදීමේදී	-11.6422
▁ජිවත්	-11.6423
▁කාසිය	-11.6423
▁දුන්නෙ	-11.6423
▁ගොවිපළ	-11.6425
▁කැකුළු	-11.6426
කාරයෙක්	-11.6428
▁ආණ්ඩුකාරවරුන්	-11.6428
▁විෂබීජ	-11.6429
▁වැරදිකරුවන්	-11.643
▁ශාසනය	-11.643
▁මිහිඳු	-11.643
ඇන්	-11.6431
▁හේතුවන	-11.6431
▁බරින්	-11.6432
▁අපචාර	-11.6433
▁ඇම	-11.6437
මන්ට්	-11.6438
▁එක්වූහ	-11.6439
▁ඡුන්ද	-11.6439
▁32,	-11.6439
▁උදයංග	-11.6439
▁ගෙනල්ලා	-11.6439
▁පළපුරුදු	-11.6442
▁මුතුරාජවෙල	-11.6442
▁ශෙ	-11.6443
▁සත්තු	-11.6444
▁ජීවිතයෙන්	-11.6446
▁190	-11.6446
▁නිවෙසින්	-11.6447
▁ඉසව්වෙන්	-11.6447
▁ඉහළගොස්	-11.6447
▁ඉව	-11.6447
ථි	-11.6448
▁ලක්දිව	-11.6449
▁ජනමතය	-11.6449
▁ශීඝ්‍ර	-11.6451
▁පීඩනයට	-11.6452
නිමන්ති	-11.6453
▁ශිෂ්‍යාව	-11.6456
▁(15	-11.6456
කුයි	-11.6457
▁බැරල්	-11.6459
▁නොප	-11.646
▁චිත්‍රපටයට	-11.6462
හුණු	-11.6464
▁ගසමින්	-11.6466
▁වර්ණවත්	-11.6466
▁ප්‍රචාරණය	-11.6466
▁ආනයනයට	-11.6467
▁ගෝල්ෆේස්	-11.6468
▁පෞද්ගලීකරණය	-11.6468
▁මරියා	-11.6468
▁කාලගුණයෙන්	-11.6469
▁බාස්	-11.6469
▁කාරුණිකව	-11.6469
▁යුෂ	-11.6473
▁ආසන්නයට	-11.6475
▁අලුත්කඩේ	-11.6476
▁දැනගැනීමේ	-11.6476
▁ඡ	-11.6476
▁බලන්ගොඩ	-11.6477
▁ක්‍රියාකාරි	-11.6477
ච්ඡ	-11.6478
▁කණගාටුව	-11.6478
▁හිසේ	-11.6479
ීෂ	-11.6479
▁සියඹලා	-11.648
▁නින්දට	-11.648
▁පටවා	-11.648
▁ජලසම්පාදන	-11.648
▁ලයනල්	-11.648
රික	-11.6481
▁එජාපයට	-11.6482
▁තියෙනව	-11.6482
කස්	-11.6482
▁විදේශිකයින්	-11.6482
▁කෝපය	-11.6483
▁කැණීම	-11.6484
කරනවා	-11.6485
▁වසරවල	-11.6485
▁යුක්‍රේනය	-11.6485
▁කෙසෙල්වත්ත	-11.6487
▁රෝමානු	-11.6487
▁හුවමාරුවක්	-11.6492
▁අවන්හල්	-11.6493
භි	-11.6496
▁සිහිනයක්	-11.6496
▁කොන	-11.6497
▁ග්‍රහණයට	-11.6497
ණ්ඩු	-11.6497
▁අගයක	-11.6498
▁යෑමත්	-11.6499
▁රසිකයන්	-11.65
▁රුවන්වැලි	-11.65
▁පැතිකඩ	-11.6501
▁ගුණසිංහ	-11.6502
▁විචාරකයන්	-11.6503
▁ජැක්	-11.6503
▁අකැමැති	-11.6506
▁දයානන්ද	-11.6506
▁හැරෙන	-11.6507
▁2,000	-11.6508
▁වංචාවට	-11.6509
▁පළකරමින්	-11.6509
▁ඇතිවු	-11.6509
▁ආණ්ඩුවකට	-11.651
▁අවශ්‍යතාවන්	-11.651
[...]
